{
  "version": "1.0",
  "truncation": null,
  "padding": {
    "strategy": {
      "Fixed": 128
    },
    "direction": "Right",
    "pad_to_multiple_of": null,
    "pad_id": 0,
    "pad_type_id": 0,
    "pad_token": "[PAD]"
  },
  "added_tokens": [
    {
      "id": 0,
      "content": "[UNK]",
      "single_word": false,
      "lstrip": false,
      "rstrip": false,
      "normalized": false,
      "special": true
    },
    {
      "id": 1,
      "content": "[PAD]",
      "single_word": false,
      "lstrip": false,
      "rstrip": false,
      "normalized": false,
      "special": true
    },
    {
      "id": 2,
      "content": "[CLS]",
      "single_word": false,
      "lstrip": false,
      "rstrip": false,
      "normalized": false,
      "special": true
    },
    {
      "id": 3,
      "content": "[SEP]",
      "single_word": false,
      "lstrip": false,
      "rstrip": false,
      "normalized": false,
      "special": true
    },
    {
      "id": 4,
      "content": "[MASK]",
      "single_word": false,
      "lstrip": false,
      "rstrip": false,
      "normalized": false,
      "special": true
    }
  ],
  "normalizer": {
    "type": "Sequence",
    "normalizers": [
      {
        "type": "NFD"
      },
      {
        "type": "Lowercase"
      }
    ]
  },
  "pre_tokenizer": {
    "type": "BertPreTokenizer"
  },
  "post_processor": {
    "type": "TemplateProcessing",
    "single": [
      {
        "SpecialToken": {
          "id": "[CLS]",
          "type_id": 0
        }
      },
      {
        "Sequence": {
          "id": "A",
          "type_id": 0
        }
      },
      {
        "SpecialToken": {
          "id": "[SEP]",
          "type_id": 0
        }
      },
      {
        "SpecialToken": {
          "id": "[PAD]",
          "type_id": 1
        }
      }
    ],
    "pair": [
      {
        "SpecialToken": {
          "id": "[CLS]",
          "type_id": 0
        }
      },
      {
        "Sequence": {
          "id": "A",
          "type_id": 0
        }
      },
      {
        "SpecialToken": {
          "id": "[SEP]",
          "type_id": 0
        }
      },
      {
        "Sequence": {
          "id": "B",
          "type_id": 0
        }
      },
      {
        "SpecialToken": {
          "id": "[SEP]",
          "type_id": 0
        }
      },
      {
        "SpecialToken": {
          "id": "[PAD]",
          "type_id": 1
        }
      }
    ],
    "special_tokens": {
      "[CLS]": {
        "id": "[CLS]",
        "ids": [
          2
        ],
        "tokens": [
          "[CLS]"
        ]
      },
      "[PAD]": {
        "id": "[PAD]",
        "ids": [
          1
        ],
        "tokens": [
          "[PAD]"
        ]
      },
      "[SEP]": {
        "id": "[SEP]",
        "ids": [
          3
        ],
        "tokens": [
          "[SEP]"
        ]
      }
    }
  },
  "decoder": {
    "type": "WordPiece",
    "prefix": "##",
    "cleanup": true
  },
  "model": {
    "type": "WordPiece",
    "unk_token": "[UNK]",
    "continuing_subword_prefix": "##",
    "max_input_chars_per_word": 100,
    "vocab": {
      "[UNK]": 0,
      "[PAD]": 1,
      "[CLS]": 2,
      "[SEP]": 3,
      "[MASK]": 4,
      "!": 5,
      "\"": 6,
      "#": 7,
      "$": 8,
      "%": 9,
      "&": 10,
      "'": 11,
      "(": 12,
      ")": 13,
      "*": 14,
      "+": 15,
      ",": 16,
      "-": 17,
      ".": 18,
      "/": 19,
      "0": 20,
      "1": 21,
      "2": 22,
      "3": 23,
      "4": 24,
      "5": 25,
      "6": 26,
      "7": 27,
      "8": 28,
      "9": 29,
      ":": 30,
      ";": 31,
      "=": 32,
      "?": 33,
      "@": 34,
      "[": 35,
      "]": 36,
      "_": 37,
      "`": 38,
      "a": 39,
      "b": 40,
      "c": 41,
      "d": 42,
      "e": 43,
      "f": 44,
      "g": 45,
      "h": 46,
      "i": 47,
      "j": 48,
      "k": 49,
      "l": 50,
      "m": 51,
      "n": 52,
      "o": 53,
      "p": 54,
      "q": 55,
      "r": 56,
      "s": 57,
      "t": 58,
      "u": 59,
      "v": 60,
      "w": 61,
      "x": 62,
      "y": 63,
      "z": 64,
      "~": 65,
      "°": 66,
      "²": 67,
      "×": 68,
      "ı": 69,
      "̀": 70,
      "́": 71,
      "̂": 72,
      "̆": 73,
      "̇": 74,
      "̈": 75,
      "̌": 76,
      "̦": 77,
      "̧": 78,
      "​": 79,
      "–": 80,
      "‘": 81,
      "’": 82,
      "…": 83,
      "‪": 84,
      "‬": 85,
      "‭": 86,
      "€": 87,
      "₺": 88,
      "⌚": 89,
      "⌛": 90,
      "✨": 91,
      "❌": 92,
      "❤": 93,
      "️": 94,
      "﻿": 95,
      "🌍": 96,
      "🍏": 97,
      "🍿": 98,
      "🎧": 99,
      "🏻": 100,
      "👎": 101,
      "👏": 102,
      "💳": 103,
      "💸": 104,
      "📱": 105,
      "📲": 106,
      "📺": 107,
      "🔄": 108,
      "🔋": 109,
      "🔒": 110,
      "😀": 111,
      "😒": 112,
      "😤": 113,
      "😱": 114,
      "🙌": 115,
      "🧐": 116,
      "##e": 117,
      "##s": 118,
      "##i": 119,
      "##n": 120,
      "##l": 121,
      "##k": 122,
      "##̈": 123,
      "##r": 124,
      "##t": 125,
      "##a": 126,
      "##p": 127,
      "##ı": 128,
      "##y": 129,
      "##o": 130,
      "##d": 131,
      "##u": 132,
      "##c": 133,
      "##̧": 134,
      "##g": 135,
      "##z": 136,
      "##f": 137,
      "##̆": 138,
      "##m": 139,
      "##0": 140,
      "##5": 141,
      "##2": 142,
      "##9": 143,
      "##4": 144,
      "##b": 145,
      "##v": 146,
      "##̇": 147,
      "##3": 148,
      "##7": 149,
      "##8": 150,
      "##h": 151,
      "##6": 152,
      "##j": 153,
      "##1": 154,
      "##w": 155,
      "##₺": 156,
      "##̂": 157,
      "##x": 158,
      "##̦": 159,
      "##😒": 160,
      "##q": 161,
      "##❌": 162,
      "##́": 163,
      "##⌛": 164,
      "##️": 165,
      "##💸": 166,
      "##‬": 167,
      "##̀": 168,
      "##​": 169,
      "##🔄": 170,
      "##°": 171,
      "##🏻": 172,
      "##×": 173,
      "##🍏": 174,
      "##🍿": 175,
      "##﻿": 176,
      "##✨": 177,
      "##🔒": 178,
      "##❤": 179,
      "##̌": 180,
      "##²": 181,
      "##er": 182,
      "##ar": 183,
      "##ü": 184,
      "##li": 185,
      "##ş": 186,
      "##an": 187,
      "##en": 188,
      "##or": 189,
      "##ğ": 190,
      "##in": 191,
      "##le": 192,
      "##ler": 193,
      "##ma": 194,
      "##yor": 195,
      "##la": 196,
      "##ın": 197,
      "##lar": 198,
      "##ir": 199,
      "##un": 200,
      "##ç": 201,
      "##ek": 202,
      "##et": 203,
      "##lı": 204,
      "##ak": 205,
      "##at": 206,
      "ve": 207,
      "##im": 208,
      "##de": 209,
      "##el": 210,
      "##dı": 211,
      "da": 212,
      "##es": 213,
      "##ün": 214,
      "##az": 215,
      "##di": 216,
      "##ili": 217,
      "##da": 218,
      "##on": 219,
      "##iz": 220,
      "ç": 221,
      "##ha": 222,
      "ü": 223,
      "##ö": 224,
      "##leri": 225,
      "ka": 226,
      "daha": 227,
      "##lan": 228,
      "##um": 229,
      "##iş": 230,
      "bir": 231,
      "##as": 232,
      "##il": 233,
      "##ul": 234,
      "##ur": 235,
      "##lik": 236,
      "##iy": 237,
      "##ım": 238,
      "##me": 239,
      "##ik": 240,
      "ya": 241,
      "##bili": 242,
      "de": 243,
      "##rün": 244,
      "gen": 245,
      "##am": 246,
      "##ür": 247,
      "##it": 248,
      "ol": 249,
      "##ları": 250,
      "ürün": 251,
      "##ay": 252,
      "sun": 253,
      "ar": 254,
      "##şt": 255,
      "in": 256,
      "##eri": 257,
      "##ız": 258,
      "##ağ": 259,
      "##ır": 260,
      "##ık": 261,
      "bu": 262,
      "##st": 263,
      "ş": 264,
      "baz": 265,
      "##ellik": 266,
      "ö": 267,
      "kar": 268,
      "##cı": 269,
      "iç": 270,
      "kul": 271,
      "##ük": 272,
      "##du": 273,
      "kullan": 274,
      "##ıyor": 275,
      "al": 276,
      "##bilir": 277,
      "##ta": 278,
      "##ellikle": 279,
      "##em": 280,
      "an": 281,
      "et": 282,
      "##ya": 283,
      "##is": 284,
      "##ok": 285,
      "genellikle": 286,
      "##dığ": 287,
      "yap": 288,
      "bazı": 289,
      "##den": 290,
      "##izm": 291,
      "##ip": 292,
      "##ce": 293,
      "##iyor": 294,
      "##izmet": 295,
      "##ıl": 296,
      "ola": 297,
      "hizmet": 298,
      "##ında": 299,
      "##uyor": 300,
      "##ıcı": 301,
      "##ol": 302,
      "gö": 303,
      "mü": 304,
      "##lerin": 305,
      "##dan": 306,
      "##cak": 307,
      "##ci": 308,
      "i̇": 309,
      "##ti": 310,
      "##ey": 311,
      "##al": 312,
      "için": 313,
      "##esi": 314,
      "ay": 315,
      "müşt": 316,
      "##eli": 317,
      "müşteri": 318,
      "##dir": 319,
      "kullanıcı": 320,
      "##eç": 321,
      "##dım": 322,
      "##ark": 323,
      "sa": 324,
      "sür": 325,
      "##duğ": 326,
      "olabilir": 327,
      "ın": 328,
      "##lit": 329,
      "##aş": 330,
      "ver": 331,
      "gün": 332,
      "##ış": 333,
      "ancak": 334,
      "kalit": 335,
      "ha": 336,
      "sunuyor": 337,
      "##ara": 338,
      "sor": 339,
      "te": 340,
      "##ile": 341,
      "fiy": 342,
      "##üz": 343,
      "ara": 344,
      "fiyat": 345,
      "##ası": 346,
      "##tı": 347,
      "##unu": 348,
      "##re": 349,
      "##lama": 350,
      "nin": 351,
      "##sı": 352,
      "hizmetleri": 353,
      "##go": 354,
      "un": 355,
      "##ro": 356,
      "yük": 357,
      "##ine": 358,
      "son": 359,
      "nın": 360,
      "yet": 361,
      "değ": 362,
      "mo": 363,
      "##ği": 364,
      "##lış": 365,
      "##ank": 366,
      "kon": 367,
      "ben": 368,
      "yüks": 369,
      "uy": 370,
      "##iye": 371,
      "##üş": 372,
      "gel": 373,
      "##ların": 374,
      "yüksek": 375,
      "##biliyor": 376,
      "##dır": 377,
      "##yi": 378,
      "kargo": 379,
      "##lık": 380,
      "##der": 381,
      "ama": 382,
      "20": 383,
      "edi": 384,
      "##for": 385,
      "##inde": 386,
      "etk": 387,
      "##eş": 388,
      "##ini": 389,
      "##sın": 390,
      "den": 391,
      "sip": 392,
      "##ariş": 393,
      "sipariş": 394,
      "bil": 395,
      "do": 396,
      "ne": 397,
      "##üm": 398,
      "##yle": 399,
      "tek": 400,
      "##ca": 401,
      "ko": 402,
      "kullanıcılar": 403,
      "##man": 404,
      "mark": 405,
      "##uz": 406,
      "##ra": 407,
      "##ut": 408,
      "ön": 409,
      "##dim": 410,
      "uyg": 411,
      "hız": 412,
      "yeter": 413,
      "bek": 414,
      "ek": 415,
      "ile": 416,
      "##ğim": 417,
      "fak": 418,
      "ta": 419,
      "##dığım": 420,
      "##ez": 421,
      "ma": 422,
      "tele": 423,
      "baş": 424,
      "##laş": 425,
      "sağ": 426,
      "##us": 427,
      "fakat": 428,
      "##ih": 429,
      "olduğ": 430,
      "##est": 431,
      "##eti": 432,
      "olma": 433,
      "##ps": 434,
      "##ev": 435,
      "##dığında": 436,
      "##ib": 437,
      "##eşit": 438,
      "en": 439,
      "kı": 440,
      "geniş": 441,
      "##eçen": 442,
      "çeşit": 443,
      "gü": 444,
      "hızlı": 445,
      "sorun": 446,
      "##öz": 447,
      "tes": 448,
      "##lem": 449,
      "##fon": 450,
      "pro": 451,
      "iyi": 452,
      "##imi": 453,
      "tar": 454,
      "##ade": 455,
      "çok": 456,
      "aç": 457,
      "çeşitli": 458,
      "per": 459,
      "##ön": 460,
      "##uk": 461,
      "##dar": 462,
      "tür": 463,
      "##ye": 464,
      "yok": 465,
      "zam": 466,
      "##ab": 467,
      "seçen": 468,
      "##ver": 469,
      "ürünleri": 470,
      "di": 471,
      "iş": 472,
      "##ıyorum": 473,
      "ist": 474,
      "##miş": 475,
      "süre": 476,
      "##ana": 477,
      "öz": 478,
      "düş": 479,
      "##erv": 480,
      "##os": 481,
      "ger": 482,
      "her": 483,
      "##medi": 484,
      "##te": 485,
      "##ub": 486,
      "zaman": 487,
      "##ap": 488,
      "##mak": 489,
      "##lıyor": 490,
      "##men": 491,
      "tesli": 492,
      "bilg": 493,
      "seçenek": 494,
      "##len": 495,
      "yaş": 496,
      "dur": 497,
      "ak": 498,
      "bul": 499,
      "bank": 500,
      "##yon": 501,
      "##ven": 502,
      "tarih": 503,
      "türk": 504,
      "##siz": 505,
      "mağ": 506,
      "##iç": 507,
      "##ını": 508,
      "##ğı": 509,
      "##om": 510,
      "çık": 511,
      "par": 512,
      "çek": 513,
      "or": 514,
      "bile": 515,
      "##ştır": 516,
      "dest": 517,
      "si": 518,
      "##öyle": 519,
      "bazen": 520,
      "çöz": 521,
      "##tr": 522,
      "##ah": 523,
      "güven": 524,
      "##mek": 525,
      "##lg": 526,
      "##zer": 527,
      "ça": 528,
      "##ter": 529,
      "##larak": 530,
      "##şı": 531,
      "yen": 532,
      "oldu": 533,
      "##tir": 534,
      "telefon": 535,
      "serv": 536,
      "tekn": 537,
      "etkili": 538,
      "##duğu": 539,
      "yaz": 540,
      "yan": 541,
      "olarak": 542,
      "##miyor": 543,
      "##sa": 544,
      "##forman": 545,
      "##ret": 546,
      "##ayı": 547,
      "##20": 548,
      "performan": 549,
      "##mış": 550,
      "var": 551,
      "tl": 552,
      "##yas": 553,
      "karşı": 554,
      "marka": 555,
      "##leme": 556,
      "bo": 557,
      "##arı": 558,
      "sunduğu": 559,
      "alış": 560,
      "servis": 561,
      "tat": 562,
      "kam": 563,
      "##pta": 564,
      "##veriş": 565,
      "##mıyor": 566,
      "##ura": 567,
      "##ka": 568,
      "mer": 569,
      "on": 570,
      "geç": 571,
      "alışveriş": 572,
      "##pan": 573,
      "ter": 574,
      "##cel": 575,
      "uz": 576,
      "destek": 577,
      "##tan": 578,
      "##lin": 579,
      "gar": 580,
      "üc": 581,
      "aldığım": 582,
      "hiç": 583,
      "##se": 584,
      "yar": 585,
      "sonra": 586,
      "##liği": 587,
      "##lay": 588,
      "##uş": 589,
      "rağ": 590,
      "##ından": 591,
      "rağmen": 592,
      "##asar": 593,
      "ürünler": 594,
      "saat": 595,
      "##kç": 596,
      "##net": 597,
      "aldım": 598,
      "durum": 599,
      "ev": 600,
      "kre": 601,
      "gön": 602,
      "##elir": 603,
      "kadar": 604,
      "##lü": 605,
      "uygun": 606,
      "garan": 607,
      "sık": 608,
      "değiş": 609,
      "##tım": 610,
      "önce": 611,
      "deney": 612,
      "##liyor": 613,
      "2020": 614,
      "##inden": 615,
      "##cek": 616,
      "kredi": 617,
      "tur": 618,
      "##dur": 619,
      "##unda": 620,
      "bulun": 621,
      "iade": 622,
      "şek": 623,
      "su": 624,
      "##si": 625,
      "##eb": 626,
      "##lu": 627,
      "##cih": 628,
      "kıyas": 629,
      "##ji": 630,
      "##lek": 631,
      "tercih": 632,
      "öde": 633,
      "##edi": 634,
      "düşük": 635,
      "sunar": 636,
      "düz": 637,
      "##lerini": 638,
      "yer": 639,
      "dön": 640,
      "sat": 641,
      "##araf": 642,
      "uygu": 643,
      "fat": 644,
      "kaliteli": 645,
      "taraf": 646,
      "##tim": 647,
      "at": 648,
      "##ibi": 649,
      "##lat": 650,
      "##üt": 651,
      "belir": 652,
      "mem": 653,
      "kampan": 654,
      "##ğer": 655,
      "tem": 656,
      "tak": 657,
      "mağaz": 658,
      "##landığında": 659,
      "kıyaslandığında": 660,
      "##madı": 661,
      "değil": 662,
      "tarihinde": 663,
      "##ptal": 664,
      "gönder": 665,
      "kur": 666,
      "kalitesi": 667,
      "yüz": 668,
      "##ımı": 669,
      "##dece": 670,
      "nun": 671,
      "faz": 672,
      "fazla": 673,
      "çalış": 674,
      "##to": 675,
      "##ken": 676,
      "##laştır": 677,
      "ulaş": 678,
      "##kez": 679,
      "geri": 680,
      "geldi": 681,
      "##fa": 682,
      "tasar": 683,
      "uygulama": 684,
      "##bil": 685,
      "##mat": 686,
      "##ternet": 687,
      "bekliyor": 688,
      "yak": 689,
      "memn": 690,
      "memnun": 691,
      "##ki": 692,
      "mi": 693,
      "hat": 694,
      "hala": 695,
      "diğer": 696,
      "gerek": 697,
      "ücret": 698,
      "yıl": 699,
      "merkez": 700,
      "ilg": 701,
      "##isi": 702,
      "gör": 703,
      "olduğunu": 704,
      "tr": 705,
      "##va": 706,
      "çözüm": 707,
      "##00": 708,
      "num": 709,
      "av": 710,
      "##lam": 711,
      "şub": 712,
      "yetersiz": 713,
      "kaps": 714,
      "##ına": 715,
      "##üyor": 716,
      "seçenekleri": 717,
      "git": 718,
      "sadece": 719,
      "yapı": 720,
      "kö": 721,
      "kampanya": 722,
      "##yla": 723,
      "##maya": 724,
      "##sun": 725,
      "##dirim": 726,
      "uzun": 727,
      "dan": 728,
      "gibi": 729,
      "zor": 730,
      "##sik": 731,
      "##ması": 732,
      "##sız": 733,
      "belirt": 734,
      "türkiye": 735,
      "sorunu": 736,
      "##dak": 737,
      "kap": 738,
      "performans": 739,
      "garanti": 740,
      "araç": 741,
      "##ilen": 742,
      "##çe": 743,
      "doğ": 744,
      "##lığı": 745,
      "##ten": 746,
      "hal": 747,
      "kır": 748,
      "##dık": 749,
      "az": 750,
      "para": 751,
      "karşılaştır": 752,
      "##diler": 753,
      "yapıl": 754,
      "yeterli": 755,
      "##ilde": 756,
      "##ber": 757,
      "ürünlerin": 758,
      "##ere": 759,
      "##ing": 760,
      "##ıldığında": 761,
      "diye": 762,
      "##iyorum": 763,
      "##lk": 764,
      "##min": 765,
      "##lerde": 766,
      "##ba": 767,
      "##bir": 768,
      "##let": 769,
      "##stu": 770,
      "geli": 771,
      "şekilde": 772,
      "dostu": 773,
      "##larda": 774,
      "fiyatları": 775,
      "kapsam": 776,
      "karşılaştırıldığında": 777,
      "iptal": 778,
      "##mes": 779,
      "aray": 780,
      "se": 781,
      "##üy": 782,
      "genel": 783,
      "mak": 784,
      "##art": 785,
      "oy": 786,
      "##abiliyor": 787,
      "bak": 788,
      "rek": 789,
      "kes": 790,
      "##if": 791,
      "##cağ": 792,
      "##malı": 793,
      "bankası": 794,
      "##bank": 795,
      "teslim": 796,
      "##diğim": 797,
      "##san": 798,
      "teslimat": 799,
      "he": 800,
      "ki": 801,
      "##yan": 802,
      "eksik": 803,
      "fir": 804,
      "ayn": 805,
      "internet": 806,
      "sağlıyor": 807,
      "po": 808,
      "söyle": 809,
      "düzen": 810,
      "kay": 811,
      "kalite": 812,
      "##tü": 813,
      "fark": 814,
      "süreci": 815,
      "aynı": 816,
      "biz": 817,
      "pak": 818,
      "##iniz": 819,
      "##olo": 820,
      "##line": 821,
      "sit": 822,
      "##ed": 823,
      "büy": 824,
      "hiçbir": 825,
      "##lektr": 826,
      "##gor": 827,
      "şey": 828,
      "ken": 829,
      "##mesi": 830,
      "neden": 831,
      "haf": 832,
      "moder": 833,
      "elektr": 834,
      "##sınız": 835,
      "mağaza": 836,
      "edil": 837,
      "ad": 838,
      "üzer": 839,
      "dik": 840,
      "201": 841,
      "benzer": 842,
      "##dik": 843,
      "işlem": 844,
      "to": 845,
      "güncel": 846,
      "büyük": 847,
      "yat": 848,
      "tv": 849,
      "olan": 850,
      "tan": 851,
      "##aya": 852,
      "##ilir": 853,
      "memnuniy": 854,
      "##çi": 855,
      "er": 856,
      "##mi": 857,
      "fatura": 858,
      "##ıt": 859,
      "ediyor": 860,
      "modern": 861,
      "bağ": 862,
      "##gün": 863,
      "böyle": 864,
      "konu": 865,
      "yardım": 866,
      "teknolo": 867,
      "be": 868,
      "sam": 869,
      "##ran": 870,
      "##pp": 871,
      "deneyim": 872,
      "##kat": 873,
      "##rı": 874,
      "##ira": 875,
      "##ınır": 876,
      "dikkat": 877,
      "10": 878,
      "tasarım": 879,
      "##dür": 880,
      "gir": 881,
      "samsun": 882,
      "##lerim": 883,
      "##ılı": 884,
      "olabiliyor": 885,
      "##asyon": 886,
      "etme": 887,
      "plat": 888,
      "sah": 889,
      "bilgi": 890,
      "yön": 891,
      "##lerine": 892,
      "##form": 893,
      "yenili": 894,
      "ge": 895,
      "hak": 896,
      "##üp": 897,
      "##stem": 898,
      "göz": 899,
      "##paz": 900,
      "##kça": 901,
      "platform": 902,
      "##inin": 903,
      "##ama": 904,
      "##lerinde": 905,
      "samsung": 906,
      "sp": 907,
      "kapsamlı": 908,
      "paket": 909,
      "göre": 910,
      "oldukça": 911,
      "içer": 912,
      "##dum": 913,
      "kal": 914,
      "##ram": 915,
      "belirtiyor": 916,
      "hay": 917,
      "get": 918,
      "bana": 919,
      "##ikay": 920,
      "getir": 921,
      "##tır": 922,
      "güvenilir": 923,
      "dış": 924,
      "yüzden": 925,
      "##oğ": 926,
      "sınır": 927,
      "haber": 928,
      "hafta": 929,
      "##ğini": 930,
      "yol": 931,
      "##ch": 932,
      "dönüş": 933,
      "konus": 934,
      "veril": 935,
      "tarafından": 936,
      "özellikle": 937,
      "bır": 938,
      "gi": 939,
      "bırak": 940,
      "sistem": 941,
      "veri": 942,
      "##tık": 943,
      "##masın": 944,
      "##ıza": 945,
      "yeni": 946,
      "elektrik": 947,
      "içerik": 948,
      "##ans": 949,
      "mode": 950,
      "ödeme": 951,
      "etkile": 952,
      "##eki": 953,
      "şikay": 954,
      "co": 955,
      "ho": 956,
      "pr": 957,
      "tale": 958,
      "yaşana": 959,
      "etti": 960,
      "i̇ş": 961,
      "##ince": 962,
      "i̇st": 963,
      "defa": 964,
      "##bul": 965,
      "kiş": 966,
      "##abilir": 967,
      "olduğum": 968,
      "##gi": 969,
      "sigor": 970,
      "tut": 971,
      "##mı": 972,
      "##çek": 973,
      "##ika": 974,
      "bilet": 975,
      "mobil": 976,
      "edici": 977,
      "siz": 978,
      "tren": 979,
      "sınırlı": 980,
      "##yın": 981,
      "##unuz": 982,
      "##maş": 983,
      "oyun": 984,
      "dün": 985,
      "gerçek": 986,
      "##siy": 987,
      "konusunda": 988,
      "##ekli": 989,
      "ala": 990,
      "##dy": 991,
      "##eleri": 992,
      "şikayet": 993,
      "banka": 994,
      "##tığ": 995,
      "es": 996,
      "st": 997,
      "online": 998,
      "fiyatlı": 999,
      "bun": 1000,
      "sürekli": 1001,
      "##ici": 1002,
      "turk": 1003,
      "app": 1004,
      "numara": 1005,
      "bit": 1006,
      "temiz": 1007,
      "yel": 1008,
      "##za": 1009,
      "##lerle": 1010,
      "özellik": 1011,
      "yelpaz": 1012,
      "fiyatlar": 1013,
      "bilgis": 1014,
      "apple": 1015,
      "##ül": 1016,
      "sahip": 1017,
      "ses": 1018,
      "sev": 1019,
      "##ve": 1020,
      "bugün": 1021,
      "i̇n": 1022,
      "##anta": 1023,
      "as": 1024,
      "hem": 1025,
      "##yen": 1026,
      "hes": 1027,
      "##ros": 1028,
      "##lara": 1029,
      "tatmin": 1030,
      "##ck": 1031,
      "##yici": 1032,
      "##rar": 1033,
      "##ıma": 1034,
      "diyor": 1035,
      "sunmalı": 1036,
      "kırık": 1037,
      "##öy": 1038,
      "indirim": 1039,
      "##cell": 1040,
      "heps": 1041,
      "##iyle": 1042,
      "##ad": 1043,
      "oran": 1044,
      "mayı": 1045,
      "##ıp": 1046,
      "ener": 1047,
      "##cu": 1048,
      "##lere": 1049,
      "##tel": 1050,
      "##tik": 1051,
      "##larını": 1052,
      "##eme": 1053,
      "bilgisay": 1054,
      "15": 1055,
      "alt": 1056,
      "yenilikç": 1057,
      "##suz": 1058,
      "##daş": 1059,
      "ekran": 1060,
      "##olu": 1061,
      "sonu": 1062,
      "iz": 1063,
      "caz": 1064,
      "bay": 1065,
      "##laşık": 1066,
      "parç": 1067,
      "cazip": 1068,
      "##ht": 1069,
      "çeşitliliği": 1070,
      "reklam": 1071,
      "proj": 1072,
      "##gram": 1073,
      "##asıl": 1074,
      "gelen": 1075,
      "op": 1076,
      "kargoya": 1077,
      "yenilikçi": 1078,
      "ürünü": 1079,
      "orta": 1080,
      "##eye": 1081,
      "mağdur": 1082,
      "trendy": 1083,
      "pe": 1084,
      "##liy": 1085,
      "nasıl": 1086,
      "trendyol": 1087,
      "i̇ade": 1088,
      "##anın": 1089,
      "çekici": 1090,
      "merkezli": 1091,
      "dev": 1092,
      "sunabiliyor": 1093,
      "bilgisayar": 1094,
      "net": 1095,
      "deneyimi": 1096,
      "##vaş": 1097,
      "yeterince": 1098,
      "fil": 1099,
      "##mam": 1100,
      "##larına": 1101,
      "##siyon": 1102,
      "cih": 1103,
      "siparişim": 1104,
      "fa": 1105,
      "##ic": 1106,
      "##ştir": 1107,
      "##asında": 1108,
      "memnuniyeti": 1109,
      "bekle": 1110,
      "tam": 1111,
      "üst": 1112,
      "yavaş": 1113,
      "ac": 1114,
      "for": 1115,
      "tekrar": 1116,
      "başv": 1117,
      "ayrı": 1118,
      "istiyorum": 1119,
      "yayın": 1120,
      "şık": 1121,
      "##dığını": 1122,
      "performansı": 1123,
      "##deki": 1124,
      "cihaz": 1125,
      "haz": 1126,
      "aradım": 1127,
      "am": 1128,
      "farklı": 1129,
      "model": 1130,
      "##lıdır": 1131,
      "avm": 1132,
      "spor": 1133,
      "bur": 1134,
      "boz": 1135,
      "##üs": 1136,
      "ün": 1137,
      "##iya": 1138,
      "fin": 1139,
      "mes": 1140,
      "stan": 1141,
      "cev": 1142,
      "talep": 1143,
      "dayan": 1144,
      "##ımda": 1145,
      "##sel": 1146,
      "ettim": 1147,
      "teknoloji": 1148,
      "kendi": 1149,
      "##vi": 1150,
      "görün": 1151,
      "sab": 1152,
      "firma": 1153,
      "dak": 1154,
      "süp": 1155,
      "##ecek": 1156,
      "##ua": 1157,
      "##irk": 1158,
      "gelmedi": 1159,
      "olduğu": 1160,
      "##sunuz": 1161,
      "teknik": 1162,
      "##urada": 1163,
      "kullanış": 1164,
      "05": 1165,
      "dayanık": 1166,
      "##ge": 1167,
      "##şim": 1168,
      "##ör": 1169,
      "##old": 1170,
      "##htiya": 1171,
      "##res": 1172,
      "süreç": 1173,
      "başvur": 1174,
      "##dığı": 1175,
      "ren": 1176,
      "kart": 1177,
      "##mesini": 1178,
      "numaralı": 1179,
      "yelpazesi": 1180,
      "##ının": 1181,
      "şirk": 1182,
      "ilgili": 1183,
      "enerji": 1184,
      "kan": 1185,
      "kötü": 1186,
      "arayüz": 1187,
      "eli": 1188,
      "bağlan": 1189,
      "##han": 1190,
      "makin": 1191,
      "##ia": 1192,
      "verdim": 1193,
      "alan": 1194,
      "##gaz": 1195,
      "##liyet": 1196,
      "alın": 1197,
      "##emek": 1198,
      "dışarı": 1199,
      "##oo": 1200,
      "##lerinin": 1201,
      "içinde": 1202,
      "mayıs": 1203,
      "##uy": 1204,
      "güvenlik": 1205,
      "##reti": 1206,
      "güncelleme": 1207,
      "cevap": 1208,
      "##iyet": 1209,
      "yapıyor": 1210,
      "başarı": 1211,
      "bekliyoruz": 1212,
      "mesa": 1213,
      "ede": 1214,
      "iki": 1215,
      "##amıyorum": 1216,
      "##taş": 1217,
      "karmaş": 1218,
      "günü": 1219,
      "##oda": 1220,
      "##ınız": 1221,
      "parça": 1222,
      "##uşt": 1223,
      "ik": 1224,
      "oto": 1225,
      "der": 1226,
      "##of": 1227,
      "süpür": 1228,
      "##hat": 1229,
      "açık": 1230,
      "kesin": 1231,
      "##fen": 1232,
      "çev": 1233,
      "söy": 1234,
      "sorunları": 1235,
      "has": 1236,
      "##fer": 1237,
      "##erek": 1238,
      "det": 1239,
      "kit": 1240,
      "mu": 1241,
      "açı": 1242,
      "##ru": 1243,
      "##anbul": 1244,
      "##etçi": 1245,
      "##işim": 1246,
      "##we": 1247,
      "##kom": 1248,
      "##daki": 1249,
      "##son": 1250,
      "kor": 1251,
      "şu": 1252,
      "telekom": 1253,
      "başka": 1254,
      "uç": 1255,
      "##maz": 1256,
      "##stel": 1257,
      "yardımcı": 1258,
      "##lerimde": 1259,
      "yetk": 1260,
      "i̇stanbul": 1261,
      "sunmalısınız": 1262,
      "vestel": 1263,
      "arçe": 1264,
      "halde": 1265,
      "##olding": 1266,
      "arçelik": 1267,
      "yemek": 1268,
      "konuda": 1269,
      "odak": 1270,
      "##eği": 1271,
      "seçenekler": 1272,
      "hepsib": 1273,
      "##elik": 1274,
      "kim": 1275,
      "##ola": 1276,
      "karmaşık": 1277,
      "hepsiburada": 1278,
      "sigorta": 1279,
      "arıza": 1280,
      "çıktı": 1281,
      "##ıntı": 1282,
      "##ahat": 1283,
      "##lak": 1284,
      "##ğr": 1285,
      "rahat": 1286,
      "numar": 1287,
      "alı": 1288,
      "##tür": 1289,
      "##antaj": 1290,
      "söz": 1291,
      "##muş": 1292,
      "##izi": 1293,
      "fatur": 1294,
      "ihtiya": 1295,
      "##larıyla": 1296,
      "##inema": 1297,
      "##larının": 1298,
      "satın": 1299,
      "##ıf": 1300,
      "##amıyor": 1301,
      "gündür": 1302,
      "##larında": 1303,
      "sen": 1304,
      "ürünün": 1305,
      "ayrıca": 1306,
      "voda": 1307,
      "##laj": 1308,
      "kah": 1309,
      "vodafon": 1310,
      "ortalama": 1311,
      "kolay": 1312,
      "hata": 1313,
      "fır": 1314,
      "##ildi": 1315,
      "##ılım": 1316,
      "standar": 1317,
      "yetkili": 1318,
      "##ladı": 1319,
      "2019": 1320,
      "dayanıklı": 1321,
      "rak": 1322,
      "kara": 1323,
      "hua": 1324,
      "ilet": 1325,
      "##wei": 1326,
      "huawei": 1327,
      "ot": 1328,
      "bulunabilir": 1329,
      "turkcell": 1330,
      "vodafone": 1331,
      "ilk": 1332,
      "##balaj": 1333,
      "ambalaj": 1334,
      "standart": 1335,
      "mesaj": 1336,
      "aş": 1337,
      "san": 1338,
      "##bo": 1339,
      "konfor": 1340,
      "program": 1341,
      "mal": 1342,
      "##ımız": 1343,
      "##raf": 1344,
      "##umu": 1345,
      "yatır": 1346,
      "holding": 1347,
      "##iyim": 1348,
      "ab": 1349,
      "eğ": 1350,
      "süresi": 1351,
      "gitti": 1352,
      "odaklı": 1353,
      "##larla": 1354,
      "özel": 1355,
      "sır": 1356,
      "verdiğim": 1357,
      "mail": 1358,
      "dışarıda": 1359,
      "##layı": 1360,
      "etmemi": 1361,
      "##lük": 1362,
      "benim": 1363,
      "tutar": 1364,
      "##yal": 1365,
      "kat": 1366,
      "hizmetlerini": 1367,
      "##trol": 1368,
      "üzerinden": 1369,
      "mar": 1370,
      "##mama": 1371,
      "sağlık": 1372,
      "12": 1373,
      "değer": 1374,
      "##esine": 1375,
      "nis": 1376,
      "##lo": 1377,
      "göst": 1378,
      "sonuç": 1379,
      "hakk": 1380,
      "ten": 1381,
      "##muyor": 1382,
      "##meye": 1383,
      "sm": 1384,
      "##dü": 1385,
      "##sta": 1386,
      "##isiz": 1387,
      "etkileyici": 1388,
      "##amı": 1389,
      "tab": 1390,
      "lüt": 1391,
      "##per": 1392,
      "öm": 1393,
      "##10": 1394,
      "30": 1395,
      "##sından": 1396,
      "bas": 1397,
      "##eyi": 1398,
      "dakika": 1399,
      "dediler": 1400,
      "yaklaşık": 1401,
      "üye": 1402,
      "tercihlerimde": 1403,
      "yönet": 1404,
      "bel": 1405,
      "tük": 1406,
      "sonr": 1407,
      "mig": 1408,
      "##eler": 1409,
      "finans": 1410,
      "aldık": 1411,
      "kontrol": 1412,
      "dolayı": 1413,
      "##omi": 1414,
      "migros": 1415,
      "vi": 1416,
      "zira": 1417,
      "##fes": 1418,
      "ro": 1419,
      "düşün": 1420,
      "karaca": 1421,
      "bey": 1422,
      "##sit": 1423,
      "lütfen": 1424,
      "##ştı": 1425,
      "##imli": 1426,
      "değiştir": 1427,
      "özellikleri": 1428,
      "##jit": 1429,
      "kolek": 1430,
      "yaşanabiliyor": 1431,
      "koleksiyon": 1432,
      "ziraat": 1433,
      "##sına": 1434,
      "dijit": 1435,
      "##eh": 1436,
      "istedi": 1437,
      "adet": 1438,
      "va": 1439,
      "##lığ": 1440,
      "mı": 1441,
      "med": 1442,
      "oluyor": 1443,
      "nisan": 1444,
      "kartı": 1445,
      "market": 1446,
      "kısa": 1447,
      "sıkıntı": 1448,
      "ku": 1449,
      "no": 1450,
      "seb": 1451,
      "rakip": 1452,
      "arka": 1453,
      "aks": 1454,
      "bili": 1455,
      "pay": 1456,
      "içeri": 1457,
      "don": 1458,
      "moda": 1459,
      "bb": 1460,
      "##yı": 1461,
      "garant": 1462,
      "artık": 1463,
      "süreleri": 1464,
      "avantaj": 1465,
      "com": 1466,
      "gr": 1467,
      "li": 1468,
      "hesab": 1469,
      "ise": 1470,
      "koç": 1471,
      "##mos": 1472,
      "şube": 1473,
      "can": 1474,
      "arayüzü": 1475,
      "medya": 1476,
      "almış": 1477,
      "##yu": 1478,
      "uygulaması": 1479,
      "##ov": 1480,
      "ediyorum": 1481,
      "##esinden": 1482,
      "##lendir": 1483,
      "satış": 1484,
      "geliyor": 1485,
      "bbva": 1486,
      "yine": 1487,
      "##edim": 1488,
      "##ıldı": 1489,
      "##landır": 1490,
      "##ştım": 1491,
      "##masını": 1492,
      "say": 1493,
      "sos": 1494,
      "kargom": 1495,
      "içi": 1496,
      "##yası": 1497,
      "##viz": 1498,
      "önem": 1499,
      "el": 1500,
      "ço": 1501,
      "çağ": 1502,
      "##uma": 1503,
      "##blem": 1504,
      "##mal": 1505,
      "gaz": 1506,
      "insan": 1507,
      "hayal": 1508,
      "düzenli": 1509,
      "res": 1510,
      "rekab": 1511,
      "problem": 1512,
      "top": 1513,
      "##tor": 1514,
      "dol": 1515,
      "piş": 1516,
      "çıkar": 1517,
      "har": 1518,
      "üret": 1519,
      "##isel": 1520,
      "yaptım": 1521,
      "hayat": 1522,
      "bö": 1523,
      "##lardan": 1524,
      "ihtiyaç": 1525,
      "car": 1526,
      "##usu": 1527,
      "beni": 1528,
      "projeleri": 1529,
      "söylen": 1530,
      "##zon": 1531,
      "oluşt": 1532,
      "yaşa": 1533,
      "detay": 1534,
      "bor": 1535,
      "lez": 1536,
      "##sil": 1537,
      "almak": 1538,
      "yanlış": 1539,
      "##vizyon": 1540,
      "i̇z": 1541,
      "takip": 1542,
      "##tar": 1543,
      "veriyor": 1544,
      "aradığım": 1545,
      "ayak": 1546,
      "ücreti": 1547,
      "##cağım": 1548,
      "##düm": 1549,
      "##mk": 1550,
      "şar": 1551,
      "etmek": 1552,
      "lo": 1553,
      "##leriyle": 1554,
      "vak": 1555,
      "bankacı": 1556,
      "rekabetçi": 1557,
      "yazılım": 1558,
      "söylediler": 1559,
      "kez": 1560,
      "medi": 1561,
      "##esinde": 1562,
      "şarj": 1563,
      "kü": 1564,
      "##sat": 1565,
      "##lus": 1566,
      "##madan": 1567,
      "kapat": 1568,
      "kahve": 1569,
      "sal": 1570,
      "##laya": 1571,
      "yaşanabilir": 1572,
      "büt": 1573,
      "yo": 1574,
      "ağ": 1575,
      "televizyon": 1576,
      "##id": 1577,
      "stok": 1578,
      "##emi": 1579,
      "##ğren": 1580,
      "##git": 1581,
      "##ona": 1582,
      "mac": 1583,
      "sta": 1584,
      "lezz": 1585,
      "eğit": 1586,
      "kaz": 1587,
      "bırakıyorum": 1588,
      "##ebilir": 1589,
      "kartım": 1590,
      "bildirim": 1591,
      "yerine": 1592,
      "##imum": 1593,
      "##one": 1594,
      "boy": 1595,
      "servise": 1596,
      "##ebek": 1597,
      "eski": 1598,
      "##ağı": 1599,
      "seviye": 1600,
      "##bile": 1601,
      "##leştir": 1602,
      "##abı": 1603,
      "sosyal": 1604,
      "##mir": 1605,
      "##iliyor": 1606,
      "ok": 1607,
      "devam": 1608,
      "##mesine": 1609,
      "11": 1610,
      "##luk": 1611,
      "##larca": 1612,
      "sefer": 1613,
      "met": 1614,
      "çalışan": 1615,
      "vide": 1616,
      "##ceğim": 1617,
      "durumlarda": 1618,
      "##ğen": 1619,
      "##una": 1620,
      "##ime": 1621,
      "aydır": 1622,
      "hava": 1623,
      "olmasına": 1624,
      "elime": 1625,
      "dijital": 1626,
      "taş": 1627,
      "##ton": 1628,
      "kişisel": 1629,
      "04": 1630,
      "ph": 1631,
      "sin": 1632,
      "olur": 1633,
      "kalites": 1634,
      "goo": 1635,
      "mart": 1636,
      "##utub": 1637,
      "rez": 1638,
      "üç": 1639,
      "etkin": 1640,
      "mil": 1641,
      "öğren": 1642,
      "bunun": 1643,
      "cinema": 1644,
      "kut": 1645,
      "##pe": 1646,
      "arac": 1647,
      "##iver": 1648,
      "##uluk": 1649,
      "youtub": 1650,
      "youtube": 1651,
      "##arak": 1652,
      "##ize": 1653,
      "saç": 1654,
      "fo": 1655,
      "kol": 1656,
      "##üne": 1657,
      "kr": 1658,
      "##cü": 1659,
      "kıs": 1660,
      "19": 1661,
      "##ag": 1662,
      "maliyet": 1663,
      "teknoloj": 1664,
      "buz": 1665,
      "siparişi": 1666,
      "tasarımı": 1667,
      "beğen": 1668,
      "##imdi": 1669,
      "verimli": 1670,
      "güç": 1671,
      "##sinde": 1672,
      "##ızı": 1673,
      "14": 1674,
      "vaat": 1675,
      "lezzet": 1676,
      "mon": 1677,
      "##gle": 1678,
      "olum": 1679,
      "temizlik": 1680,
      "##iversit": 1681,
      "##ximum": 1682,
      "anad": 1683,
      "fırsat": 1684,
      "google": 1685,
      "taz": 1686,
      "yoğ": 1687,
      "ürünüm": 1688,
      "ank": 1689,
      "gidi": 1690,
      "beri": 1691,
      "##tu": 1692,
      "##atan": 1693,
      "şirket": 1694,
      "eder": 1695,
      "yarat": 1696,
      "kırıklığı": 1697,
      "açısından": 1698,
      "hedi": 1699,
      "kok": 1700,
      "sorunlar": 1701,
      "değişim": 1702,
      "anadolu": 1703,
      "ye": 1704,
      "veya": 1705,
      "##asını": 1706,
      "person": 1707,
      "uzak": 1708,
      "üniversit": 1709,
      "ayakk": 1710,
      "vatan": 1711,
      "##yip": 1712,
      "içecek": 1713,
      "13": 1714,
      "ri": 1715,
      "istedim": 1716,
      "memnuniyet": 1717,
      "video": 1718,
      "##af": 1719,
      "cinemaximum": 1720,
      "site": 1721,
      "kaç": 1722,
      "##ilmiş": 1723,
      "smart": 1724,
      "ürünlerinin": 1725,
      "##ko": 1726,
      "arıyorum": 1727,
      "markası": 1728,
      "merkezi": 1729,
      "sabah": 1730,
      "şeker": 1731,
      "olmadı": 1732,
      "##ehir": 1733,
      "##leş": 1734,
      "i̇ç": 1735,
      "film": 1736,
      "başvuru": 1737,
      "iletişim": 1738,
      "##ep": 1739,
      "bah": 1740,
      "nere": 1741,
      "pan": 1742,
      "xia": 1743,
      "doğru": 1744,
      "arkadaş": 1745,
      "xiaomi": 1746,
      "piz": 1747,
      "süt": 1748,
      "##ger": 1749,
      "halk": 1750,
      "oranı": 1751,
      "kullanıcıların": 1752,
      "tasarımları": 1753,
      "bi": 1754,
      "hazır": 1755,
      "şimdi": 1756,
      "kurul": 1757,
      "gec": 1758,
      "kala": 1759,
      "##cede": 1760,
      "arama": 1761,
      "alıyor": 1762,
      "##arken": 1763,
      "men": 1764,
      "herhan": 1765,
      "temsil": 1766,
      "16": 1767,
      "##peti": 1768,
      "##miyorum": 1769,
      "herhangi": 1770,
      "çekiyor": 1771,
      "polit": 1772,
      "##ilips": 1773,
      "başladı": 1774,
      "super": 1775,
      "philips": 1776,
      "üy": 1777,
      "ayında": 1778,
      "ülk": 1779,
      "yaptığ": 1780,
      "18": 1781,
      "bin": 1782,
      "biraz": 1783,
      "##ımın": 1784,
      "03": 1785,
      "zat": 1786,
      "araçları": 1787,
      "gerekli": 1788,
      "stabil": 1789,
      "##up": 1790,
      "anlaş": 1791,
      "i̇ptal": 1792,
      "çalı": 1793,
      "##cisi": 1794,
      "dedi": 1795,
      "sorunsuz": 1796,
      "ayakkabı": 1797,
      "zaten": 1798,
      "a10": 1799,
      "bim": 1800,
      "durumu": 1801,
      "edildi": 1802,
      "üyelik": 1803,
      "kalıyor": 1804,
      "bağlantı": 1805,
      "##cuk": 1806,
      "promos": 1807,
      "bekledik": 1808,
      "kullanışlı": 1809,
      "promosyon": 1810,
      "##stik": 1811,
      "profes": 1812,
      "gerçekten": 1813,
      "üniversitesi": 1814,
      "sene": 1815,
      "profesyon": 1816,
      "25": 1817,
      "len": 1818,
      "##fo": 1819,
      "##lamadım": 1820,
      "faiz": 1821,
      "şiş": 1822,
      "haberleri": 1823,
      "pa": 1824,
      "ürünlerde": 1825,
      "##oft": 1826,
      "pizza": 1827,
      "yapa": 1828,
      "etkinlik": 1829,
      "##siniz": 1830,
      "yaptır": 1831,
      "gözük": 1832,
      "kas": 1833,
      "kullanım": 1834,
      "çözümler": 1835,
      "##ilendir": 1836,
      "kere": 1837,
      "lira": 1838,
      "##ef": 1839,
      "##tif": 1840,
      "sağlama": 1841,
      "tarafıma": 1842,
      "hesap": 1843,
      "ford": 1844,
      "##asından": 1845,
      "açıl": 1846,
      "geçti": 1847,
      "platformu": 1848,
      "kitap": 1849,
      "bunu": 1850,
      "##lix": 1851,
      "yaptı": 1852,
      "##osa": 1853,
      "a101": 1854,
      "doğal": 1855,
      "çay": 1856,
      "verdi": 1857,
      "bozul": 1858,
      "nor": 1859,
      "soğ": 1860,
      "abon": 1861,
      "aylık": 1862,
      "teknosa": 1863,
      "arayan": 1864,
      "mek": 1865,
      "##lecek": 1866,
      "##meyen": 1867,
      "park": 1868,
      "onay": 1869,
      "kişi": 1870,
      "asla": 1871,
      "##ök": 1872,
      "bilgilendir": 1873,
      "uçuş": 1874,
      "bos": 1875,
      "ulus": 1876,
      "##ot": 1877,
      "evde": 1878,
      "##toğ": 1879,
      "i̇nternet": 1880,
      "bankacılık": 1881,
      "##üşt": 1882,
      "renk": 1883,
      "güçlü": 1884,
      "defalarca": 1885,
      "##ex": 1886,
      "yani": 1887,
      "süreçleri": 1888,
      "##iv": 1889,
      "##fit": 1890,
      "gecik": 1891,
      "17": 1892,
      "sunan": 1893,
      "i̇zmir": 1894,
      "##sıt": 1895,
      "##lemleri": 1896,
      "hatası": 1897,
      "100": 1898,
      "amazon": 1899,
      "olması": 1900,
      "macfit": 1901,
      "##urk": 1902,
      "##ürlü": 1903,
      "alma": 1904,
      "sürat": 1905,
      "tav": 1906,
      "nerede": 1907,
      "eş": 1908,
      "is": 1909,
      "##pa": 1910,
      "##meden": 1911,
      "detaylı": 1912,
      "eğitim": 1913,
      "##ij": 1914,
      "##atif": 1915,
      "##medim": 1916,
      "digit": 1917,
      "köf": 1918,
      "sigort": 1919,
      "süpürg": 1920,
      "06": 1921,
      "##fe": 1922,
      "##enin": 1923,
      "##ort": 1924,
      "hizmetlerine": 1925,
      "olmadığını": 1926,
      "taze": 1927,
      "akbank": 1928,
      "ort": 1929,
      "yazıyor": 1930,
      "düzel": 1931,
      "çözümleri": 1932,
      "hazir": 1933,
      "##ıda": 1934,
      "##ity": 1935,
      "dağı": 1936,
      "##ğimde": 1937,
      "ettiği": 1938,
      "hakkında": 1939,
      "basit": 1940,
      "yatırım": 1941,
      "02": 1942,
      "kabul": 1943,
      "##likle": 1944,
      "##tern": 1945,
      "aldığımız": 1946,
      "yapılmadı": 1947,
      "lezzetli": 1948,
      "##eniz": 1949,
      "sağlar": 1950,
      "vakıf": 1951,
      "normal": 1952,
      "yi": 1953,
      "kab": 1954,
      "bekleme": 1955,
      "bakım": 1956,
      "çekicidir": 1957,
      "##ovo": 1958,
      "lenovo": 1959,
      "##sh": 1960,
      "motor": 1961,
      "kick": 1962,
      "içerisinde": 1963,
      "aradığımda": 1964,
      "mas": 1965,
      "tw": 1966,
      "kom": 1967,
      "işle": 1968,
      "köfte": 1969,
      "##flix": 1970,
      "##bi": 1971,
      "##ate": 1972,
      "kayıt": 1973,
      "adres": 1974,
      "netflix": 1975,
      "paz": 1976,
      "##ilebilir": 1977,
      "kod": 1978,
      "sebeb": 1979,
      "çocuk": 1980,
      "mekan": 1981,
      "##yo": 1982,
      "birka": 1983,
      "vermiyor": 1984,
      "##refo": 1985,
      "kanal": 1986,
      "hastan": 1987,
      "carrefo": 1988,
      "oluştur": 1989,
      "birkaç": 1990,
      "carrefour": 1991,
      "##atik": 1992,
      "benz": 1993,
      "ağı": 1994,
      "makinesi": 1995,
      "haziran": 1996,
      "##dola": 1997,
      "##lamıyor": 1998,
      "##dem": 1999,
      "sorum": 2000,
      "##makta": 2001,
      "##ayıp": 2002,
      "##lamıyorum": 2003,
      "makine": 2004,
      "zara": 2005,
      "##ınar": 2006,
      "götür": 2007,
      "istiyor": 2008,
      "izle": 2009,
      "buzdola": 2010,
      "paha": 2011,
      "sh": 2012,
      "##lilik": 2013,
      "boş": 2014,
      "geçen": 2015,
      "##tal": 2016,
      "tarihi": 2017,
      "##ptali": 2018,
      "peps": 2019,
      "tüm": 2020,
      "##emiyorum": 2021,
      "gider": 2022,
      "##masına": 2023,
      "metro": 2024,
      "param": 2025,
      "yanıt": 2026,
      "bekliyorum": 2027,
      "fotoğ": 2028,
      "hediye": 2029,
      "ülker": 2030,
      "bat": 2031,
      "i̇lg": 2032,
      "üyeli": 2033,
      "pahalı": 2034,
      "00": 2035,
      "emek": 2036,
      "beklediklerini": 2037,
      "##sin": 2038,
      "##uar": 2039,
      "yanıl": 2040,
      "ürünlerinde": 2041,
      "hemen": 2042,
      "ömürlü": 2043,
      "fotoğraf": 2044,
      "mut": 2045,
      "##ğimiz": 2046,
      "ber": 2047,
      "##lısınız": 2048,
      "##memiş": 2049,
      "pratik": 2050,
      "göster": 2051,
      "lc": 2052,
      "vermiş": 2053,
      "iyidir": 2054,
      "çalışıyor": 2055,
      "küç": 2056,
      "yoğun": 2057,
      "##müyor": 2058,
      "dah": 2059,
      "biri": 2060,
      "çevre": 2061,
      "şef": 2062,
      "ilgilen": 2063,
      "burger": 2064,
      "bosch": 2065,
      "21": 2066,
      "est": 2067,
      "yık": 2068,
      "eti": 2069,
      "sürec": 2070,
      "gam": 2071,
      "pınar": 2072,
      "##mez": 2073,
      "hale": 2074,
      "markanın": 2075,
      "bulunan": 2076,
      "em": 2077,
      "artır": 2078,
      "dönem": 2079,
      "şirketi": 2080,
      "pişman": 2081,
      "digiturk": 2082,
      "##mem": 2083,
      "arayıp": 2084,
      "verilmedi": 2085,
      "açıklama": 2086,
      "mavi": 2087,
      "iadesi": 2088,
      "sahiptir": 2089,
      "profesyonel": 2090,
      "müşteriler": 2091,
      "##duğum": 2092,
      "tane": 2093,
      "numarası": 2094,
      "man": 2095,
      "##fak": 2096,
      "##sını": 2097,
      "##ğimi": 2098,
      "kla": 2099,
      "kum": 2100,
      "sıf": 2101,
      "##baş": 2102,
      "arz": 2103,
      "telefonu": 2104,
      "home": 2105,
      "##mkan": 2106,
      "kalitesiz": 2107,
      "halkbank": 2108,
      "pat": 2109,
      "aras": 2110,
      "tedar": 2111,
      "##mekte": 2112,
      "süpürge": 2113,
      "sıfır": 2114,
      "atas": 2115,
      "diyorlar": 2116,
      "duy": 2117,
      "str": 2118,
      "##larım": 2119,
      "##etik": 2120,
      "##onik": 2121,
      "kazan": 2122,
      "##50": 2123,
      "##lanıyor": 2124,
      "bildir": 2125,
      "eriş": 2126,
      "yanılt": 2127,
      "##inci": 2128,
      "bize": 2129,
      "otur": 2130,
      "koleksiyonları": 2131,
      "konut": 2132,
      "programları": 2133,
      "sağlamalısınız": 2134,
      "ex": 2135,
      "##lerinden": 2136,
      "zorunda": 2137,
      "bölg": 2138,
      "##nb": 2139,
      "##gan": 2140,
      "kapan": 2141,
      "##sızlık": 2142,
      "50": 2143,
      "imkan": 2144,
      "##ult": 2145,
      "oldum": 2146,
      "##larından": 2147,
      "kayn": 2148,
      "twit": 2149,
      "buzdolab": 2150,
      "##ladım": 2151,
      "##ell": 2152,
      "hizmetler": 2153,
      "konuş": 2154,
      "çıkıyor": 2155,
      "mercede": 2156,
      "eksiklik": 2157,
      "kulak": 2158,
      "saçma": 2159,
      "mercedes": 2160,
      "güz": 2161,
      "giyim": 2162,
      "yur": 2163,
      "beklen": 2164,
      "cola": 2165,
      "size": 2166,
      "tüketi": 2167,
      "değişik": 2168,
      "sitesinden": 2169,
      "sistemi": 2170,
      "##mıştım": 2171,
      "malz": 2172,
      "wat": 2173,
      "yakıt": 2174,
      "gıda": 2175,
      "king": 2176,
      "##gı": 2177,
      "vardı": 2178,
      "turizm": 2179,
      "hotel": 2180,
      "oranları": 2181,
      "kullanışlıdır": 2182,
      "yönetimi": 2183,
      "mic": 2184,
      "verildi": 2185,
      "bilin": 2186,
      "çağrı": 2187,
      "rezerv": 2188,
      "tedarik": 2189,
      "seç": 2190,
      "##leti": 2191,
      "yazı": 2192,
      "ocak": 2193,
      "##tuk": 2194,
      "##fi": 2195,
      "şok": 2196,
      "##faf": 2197,
      "geliş": 2198,
      "dedim": 2199,
      "##madım": 2200,
      "##hal": 2201,
      "şif": 2202,
      "bende": 2203,
      "ankara": 2204,
      "promosyonları": 2205,
      "şeffaf": 2206,
      "ga": 2207,
      "yor": 2208,
      "##manın": 2209,
      "desteği": 2210,
      "küçük": 2211,
      "ban": 2212,
      "kız": 2213,
      "##arası": 2214,
      "bulaşık": 2215,
      "suyu": 2216,
      "beko": 2217,
      "güncellemeleri": 2218,
      "pt": 2219,
      "##alı": 2220,
      "##arb": 2221,
      "##iki": 2222,
      "##ırı": 2223,
      "kamer": 2224,
      "dünyası": 2225,
      "##ist": 2226,
      "##din": 2227,
      "hizmeti": 2228,
      "bileti": 2229,
      "nedeniyle": 2230,
      "coca": 2231,
      "##tığımda": 2232,
      "##kü": 2233,
      "##liğ": 2234,
      "hotels": 2235,
      "##lebilir": 2236,
      "tercihlerinde": 2237,
      "gittim": 2238,
      "esn": 2239,
      "i̇adesi": 2240,
      "bez": 2241,
      "##lub": 2242,
      "##üc": 2243,
      "otob": 2244,
      "teknolojik": 2245,
      "mev": 2246,
      "ser": 2247,
      "zar": 2248,
      "arız": 2249,
      "##top": 2250,
      "görüş": 2251,
      "##luluk": 2252,
      "olun": 2253,
      "düzenleme": 2254,
      "kimse": 2255,
      "konforlu": 2256,
      "eb": 2257,
      "yazık": 2258,
      "tatil": 2259,
      "etkileye": 2260,
      "tamir": 2261,
      "##oran": 2262,
      "##ınca": 2263,
      "##lüyor": 2264,
      "giriş": 2265,
      "##rosoft": 2266,
      "microsoft": 2267,
      "##sında": 2268,
      "##ciye": 2269,
      "##unun": 2270,
      "##imiz": 2271,
      "tasarımlar": 2272,
      "malzeme": 2273,
      "rezervasyon": 2274,
      "22": 2275,
      "23": 2276,
      "bm": 2277,
      "##sini": 2278,
      "##asus": 2279,
      "##yahat": 2280,
      "##ceğini": 2281,
      "##mediler": 2282,
      "çalışmıyor": 2283,
      "seyahat": 2284,
      "asus": 2285,
      "th": 2286,
      "##kur": 2287,
      "##landı": 2288,
      "##asına": 2289,
      "##lemek": 2290,
      "aktar": 2291,
      "acil": 2292,
      "tutarlı": 2293,
      "sı": 2294,
      "##uan": 2295,
      "##ünde": 2296,
      "gerekti": 2297,
      "rest": 2298,
      "so": 2299,
      "##cd": 2300,
      "##maları": 2301,
      "gerekiyor": 2302,
      "ücretleri": 2303,
      "##sanız": 2304,
      "söyledi": 2305,
      "tenc": 2306,
      "adi": 2307,
      "ba": 2308,
      "##rü": 2309,
      "##ıyoruz": 2310,
      "aldı": 2311,
      "koltuk": 2312,
      "emeklilik": 2313,
      "vol": 2314,
      "##aik": 2315,
      "##po": 2316,
      "##lerimi": 2317,
      "ulaşamıyorum": 2318,
      "içerikleri": 2319,
      "mobilya": 2320,
      "peg": 2321,
      "çevr": 2322,
      "mars": 2323,
      "sonrası": 2324,
      "##aikiki": 2325,
      "sok": 2326,
      "##ry": 2327,
      "##duk": 2328,
      "i̇lk": 2329,
      "koton": 2330,
      "çamaş": 2331,
      "doğuş": 2332,
      "##mıştır": 2333,
      "##landırma": 2334,
      "bmw": 2335,
      "pegasus": 2336,
      "plan": 2337,
      "##üğ": 2338,
      "##ünden": 2339,
      "tamam": 2340,
      "sıra": 2341,
      "##ner": 2342,
      "##par": 2343,
      "##ğu": 2344,
      "##lerden": 2345,
      "##ceği": 2346,
      "##yasında": 2347,
      "##cağını": 2348,
      "beyaz": 2349,
      "işlev": 2350,
      "carrefoursa": 2351,
      "ste": 2352,
      "tor": 2353,
      "##deri": 2354,
      "##ancı": 2355,
      "ana": 2356,
      "ulaşmadı": 2357,
      "halen": 2358,
      "sistemleri": 2359,
      "canlı": 2360,
      "uluslar": 2361,
      "çamaşır": 2362,
      "diy": 2363,
      "mey": 2364,
      "koy": 2365,
      "hep": 2366,
      "elim": 2367,
      "personel": 2368,
      "uluslararası": 2369,
      "han": 2370,
      "yas": 2371,
      "##lıklar": 2372,
      "servisi": 2373,
      "poli": 2374,
      "yenilik": 2375,
      "rahatsız": 2376,
      "##onda": 2377,
      "gönderdim": 2378,
      "##matik": 2379,
      "başarılı": 2380,
      "games": 2381,
      "restoran": 2382,
      "29": 2383,
      "au": 2384,
      "bar": 2385,
      "dok": 2386,
      "yapmıyor": 2387,
      "eve": 2388,
      "akses": 2389,
      "bütün": 2390,
      "vakıfbank": 2391,
      "fi": 2392,
      "waikiki": 2393,
      "##lian": 2394,
      "##meme": 2395,
      "altern": 2396,
      "alır": 2397,
      "##düğ": 2398,
      "##ale": 2399,
      "görünüyor": 2400,
      "twitch": 2401,
      "aksesuar": 2402,
      "alternatif": 2403,
      "eşim": 2404,
      "##ışı": 2405,
      "oyn": 2406,
      "kayb": 2407,
      "üzerine": 2408,
      "01": 2409,
      "oda": 2410,
      "##pı": 2411,
      "sunamıyor": 2412,
      "allian": 2413,
      "geniştir": 2414,
      "batar": 2415,
      "24": 2416,
      "##ilim": 2417,
      "##emiyor": 2418,
      "yapmak": 2419,
      "##evi": 2420,
      "resmen": 2421,
      "kaynak": 2422,
      "club": 2423,
      "tah": 2424,
      "kend": 2425,
      "kartımdan": 2426,
      "seviyelerde": 2427,
      "##bar": 2428,
      "##imin": 2429,
      "kullanıyorum": 2430,
      "cas": 2431,
      "##fal": 2432,
      "deniz": 2433,
      "ekon": 2434,
      "türlü": 2435,
      "standartları": 2436,
      "aşırı": 2437,
      "ebebek": 2438,
      "re": 2439,
      "##irüs": 2440,
      "etmiyor": 2441,
      "organ": 2442,
      "görüntü": 2443,
      "audi": 2444,
      "çiç": 2445,
      "beklet": 2446,
      "##ever": 2447,
      "dünyasında": 2448,
      "dağıtım": 2449,
      "cam": 2450,
      "##laştı": 2451,
      "gelmiyor": 2452,
      "öneri": 2453,
      "kurum": 2454,
      "##gin": 2455,
      "##ceğ": 2456,
      "mah": 2457,
      "atm": 2458,
      "danone": 2459,
      "geliştir": 2460,
      "değerlendir": 2461,
      "arzum": 2462,
      "fab": 2463,
      "domin": 2464,
      "arayanlar": 2465,
      "tüketici": 2466,
      "dair": 2467,
      "yapma": 2468,
      "##ılmış": 2469,
      "##ibu": 2470,
      "tatlı": 2471,
      "elektrikli": 2472,
      "altında": 2473,
      "##book": 2474,
      "garantisi": 2475,
      "yorum": 2476,
      "çiçek": 2477,
      "bl": 2478,
      "hasar": 2479,
      "red": 2480,
      "##11": 2481,
      "##online": 2482,
      "yatak": 2483,
      "mağduriyet": 2484,
      "bozuk": 2485,
      "superonline": 2486,
      "otobüs": 2487,
      "lit": 2488,
      "##ng": 2489,
      "##esini": 2490,
      "##ulu": 2491,
      "ilgi": 2492,
      "paketleme": 2493,
      "yönetim": 2494,
      "finansal": 2495,
      "rica": 2496,
      "güzel": 2497,
      "du": 2498,
      "dolu": 2499,
      "fiyatlarla": 2500,
      "kesinlikle": 2501,
      "pepsi": 2502,
      "estetik": 2503,
      "28": 2504,
      "mng": 2505,
      "##cut": 2506,
      "önlemleri": 2507,
      "yaşan": 2508,
      "telefonum": 2509,
      "hatalı": 2510,
      "mevcut": 2511,
      "ip": 2512,
      "züc": 2513,
      "##sever": 2514,
      "olsun": 2515,
      "kullandığım": 2516,
      "aracı": 2517,
      "##caciye": 2518,
      "züccaciye": 2519,
      "##iri": 2520,
      "boyner": 2521,
      "bilgilendirme": 2522,
      "pazar": 2523,
      "##tör": 2524,
      "ettir": 2525,
      "yüksektir": 2526,
      "önemli": 2527,
      "27": 2528,
      "##yse": 2529,
      "##jistik": 2530,
      "sizin": 2531,
      "sözleş": 2532,
      "lojistik": 2533,
      "mutfak": 2534,
      "air": 2535,
      "##park": 2536,
      "##inc": 2537,
      "##ilmesini": 2538,
      "sony": 2539,
      "fakir": 2540,
      "olmadan": 2541,
      "erişilebilir": 2542,
      "işlevsel": 2543,
      "hızlıdır": 2544,
      "zamanlar": 2545,
      "yapıla": 2546,
      "toyo": 2547,
      "yardımsever": 2548,
      "toyota": 2549,
      "hit": 2550,
      "##pres": 2551,
      "olmuyor": 2552,
      "kullanma": 2553,
      "yıllık": 2554,
      "beş": 2555,
      "##cto": 2556,
      "##̇m": 2557,
      "karar": 2558,
      "tefal": 2559,
      "olmaya": 2560,
      "kampanyaları": 2561,
      "defacto": 2562,
      "rekabetçidir": 2563,
      "of": 2564,
      "##bal": 2565,
      "##jan": 2566,
      "##atis": 2567,
      "olacak": 2568,
      "akş": 2569,
      "bede": 2570,
      "gratis": 2571,
      "olumsuz": 2572,
      "düzelt": 2573,
      "strate": 2574,
      "kül": 2575,
      "lek": 2576,
      "lik": 2577,
      "##yım": 2578,
      "##undan": 2579,
      "herk": 2580,
      "paramı": 2581,
      "##ahçe": 2582,
      "##amadım": 2583,
      "söylendi": 2584,
      "bölge": 2585,
      "07": 2586,
      "pet": 2587,
      "##lıkları": 2588,
      "etkilidir": 2589,
      "çalışma": 2590,
      "##ılır": 2591,
      "ettiğim": 2592,
      "düşünüyor": 2593,
      "sank": 2594,
      "##ea": 2595,
      "##acak": 2596,
      "##şe": 2597,
      "##ındaki": 2598,
      "##lardır": 2599,
      "posta": 2600,
      "form": 2601,
      "otel": 2602,
      "##eğ": 2603,
      "ann": 2604,
      "##ştırma": 2605,
      "markadır": 2606,
      "##linde": 2607,
      "##sepeti": 2608,
      "yere": 2609,
      "haftadır": 2610,
      "ömrü": 2611,
      "##tre": 2612,
      "##ault": 2613,
      "ekibi": 2614,
      "gördüm": 2615,
      "##ikaları": 2616,
      "renault": 2617,
      "eşya": 2618,
      "yı": 2619,
      "##ks": 2620,
      "maale": 2621,
      "zamanda": 2622,
      "takımı": 2623,
      "2018": 2624,
      "bağlı": 2625,
      "##dürü": 2626,
      "salon": 2627,
      "sek": 2628,
      "seri": 2629,
      "um": 2630,
      "##uck": 2631,
      "##lah": 2632,
      "şubat": 2633,
      "kapak": 2634,
      "##press": 2635,
      "ora": 2636,
      "yed": 2637,
      "ziy": 2638,
      "##tity": 2639,
      "##land": 2640,
      "entity": 2641,
      "kırıldı": 2642,
      "getiriyor": 2643,
      "faturam": 2644,
      "sonrasında": 2645,
      "alet": 2646,
      "##sef": 2647,
      "maalesef": 2648,
      "##ec": 2649,
      "##seri": 2650,
      "öden": 2651,
      "##zacı": 2652,
      "##oz": 2653,
      "yaklaş": 2654,
      "muhat": 2655,
      "tüket": 2656,
      "yaptığım": 2657,
      "##sal": 2658,
      "olmadığı": 2659,
      "dünya": 2660,
      "proje": 2661,
      "yedek": 2662,
      "mis": 2663,
      "##amark": 2664,
      "ettik": 2665,
      "gönderi": 2666,
      "sabancı": 2667,
      "başarılıdır": 2668,
      "gözüküyor": 2669,
      "kli": 2670,
      "zayı": 2671,
      "##eket": 2672,
      "##iyi": 2673,
      "eng": 2674,
      "##teg": 2675,
      "markalar": 2676,
      "yanıltıcı": 2677,
      "zayıf": 2678,
      "zen": 2679,
      "zinc": 2680,
      "##co": 2681,
      "i̇çe": 2682,
      "bizim": 2683,
      "indirimleri": 2684,
      "problemi": 2685,
      "mediamark": 2686,
      "bozuldu": 2687,
      "hitap": 2688,
      "mediamarkt": 2689,
      "08": 2690,
      "40": 2691,
      "##üks": 2692,
      "sağlaya": 2693,
      "kredisi": 2694,
      "dondur": 2695,
      "koçtaş": 2696,
      "i̇çecek": 2697,
      "gelir": 2698,
      "key": 2699,
      "sinema": 2700,
      "##od": 2701,
      "üreti": 2702,
      "##miştir": 2703,
      "kısm": 2704,
      "ziyar": 2705,
      "muhatap": 2706,
      "virüs": 2707,
      "##ilik": 2708,
      "çik": 2709,
      "benden": 2710,
      "uyum": 2711,
      "ikea": 2712,
      "herkes": 2713,
      "cum": 2714,
      "ele": 2715,
      "iti": 2716,
      "puan": 2717,
      "##meli": 2718,
      "i̇ptali": 2719,
      "edilmedi": 2720,
      "kamera": 2721,
      "diz": 2722,
      "lüks": 2723,
      "nest": 2724,
      "##dük": 2725,
      "##atı": 2726,
      "enteg": 2727,
      "seçenekleriyle": 2728,
      "ikinci": 2729,
      "##das": 2730,
      "mağazasından": 2731,
      "uygulamaları": 2732,
      "düzeni": 2733,
      "kesint": 2734,
      "adidas": 2735,
      "kültür": 2736,
      "##na": 2737,
      "kutu": 2738,
      "olumlu": 2739,
      "neredeyse": 2740,
      "nestle": 2741,
      "ec": 2742,
      "honda": 2743,
      "sü": 2744,
      "seçeneği": 2745,
      "boya": 2746,
      "durumda": 2747,
      "##cağı": 2748,
      "üretim": 2749,
      "dere": 2750,
      "fib": 2751,
      "kira": 2752,
      "ran": 2753,
      "##sine": 2754,
      "##23": 2755,
      "##dağ": 2756,
      "deyip": 2757,
      "##apor": 2758,
      "devlet": 2759,
      "yapmış": 2760,
      "yakın": 2761,
      "yönlendir": 2762,
      "starb": 2763,
      "tablet": 2764,
      "starbuck": 2765,
      "lg": 2766,
      "##üst": 2767,
      "##ora": 2768,
      "##lini": 2769,
      "faturası": 2770,
      "aksak": 2771,
      "allianz": 2772,
      "tok": 2773,
      "##ıyorlar": 2774,
      "yaparken": 2775,
      "ürünleriyle": 2776,
      "kampanyalar": 2777,
      "yapıldı": 2778,
      "turknet": 2779,
      "kesinti": 2780,
      "milliyet": 2781,
      "verimliliği": 2782,
      "kurulum": 2783,
      "##başı": 2784,
      "batarya": 2785,
      "starbucks": 2786,
      "aile": 2787,
      "hen": 2788,
      "##para": 2789,
      "##dia": 2790,
      "çar": 2791,
      "verdik": 2792,
      "kodu": 2793,
      "mad": 2794,
      "görev": 2795,
      "optik": 2796,
      "üstelik": 2797,
      "sebebiyle": 2798,
      "arızası": 2799,
      "bab": 2800,
      "set": 2801,
      "##ly": 2802,
      "endi": 2803,
      "enpara": 2804,
      "gereken": 2805,
      "pop": 2806,
      "kork": 2807,
      "avantajlar": 2808,
      "aid": 2809,
      "##wag": 2810,
      "##isa": 2811,
      "yaptık": 2812,
      "boğ": 2813,
      "volks": 2814,
      "ziyaretçi": 2815,
      "##wagen": 2816,
      "volkswagen": 2817,
      "din": 2818,
      "rapor": 2819,
      "sur": 2820,
      "##onal": 2821,
      "##taj": 2822,
      "siparişimi": 2823,
      "koş": 2824,
      "olmayan": 2825,
      "##omik": 2826,
      "parayı": 2827,
      "bi̇m": 2828,
      "kalabiliyor": 2829,
      "tencere": 2830,
      "hür": 2831,
      "kad": 2832,
      "bula": 2833,
      "öyle": 2834,
      "kaldı": 2835,
      "hasta": 2836,
      "ambalajları": 2837,
      "hij": 2838,
      "ulaştı": 2839,
      "##mel": 2840,
      "##ley": 2841,
      "çiz": 2842,
      "şehir": 2843,
      "anda": 2844,
      "günler": 2845,
      "günden": 2846,
      "güvenli": 2847,
      "##lüğ": 2848,
      "alalı": 2849,
      "doğalgaz": 2850,
      "boğaz": 2851,
      "hürr": 2852,
      "hijyen": 2853,
      "nok": 2854,
      "almıştım": 2855,
      "hizmetleriyle": 2856,
      "gönderil": 2857,
      "yıldır": 2858,
      "bundan": 2859,
      "kontrolü": 2860,
      "henüz": 2861,
      "hürriyet": 2862,
      "dar": 2863,
      "##gdaş": 2864,
      "##ike": 2865,
      "i̇gdaş": 2866,
      "##manız": 2867,
      "##osu": 2868,
      "ilgisiz": 2869,
      "paketleri": 2870,
      "altya": 2871,
      "dir": 2872,
      "sar": 2873,
      "çoğ": 2874,
      "değilim": 2875,
      "##app": 2876,
      "takım": 2877,
      "kitle": 2878,
      "beğeni": 2879,
      "çikola": 2880,
      "bes": 2881,
      "mik": 2882,
      "##arım": 2883,
      "##ink": 2884,
      "##dev": 2885,
      "yağ": 2886,
      "ets": 2887,
      "kaliteyi": 2888,
      "zorlu": 2889,
      "gelip": 2890,
      "sitesi": 2891,
      "bilgileri": 2892,
      "izleyici": 2893,
      "gerektiğini": 2894,
      "randev": 2895,
      "altyapı": 2896,
      "##can": 2897,
      "##ayım": 2898,
      "öd": 2899,
      "hav": 2900,
      "attım": 2901,
      "yeterlidir": 2902,
      "hareket": 2903,
      "ptt": 2904,
      "##ledi": 2905,
      "##ılma": 2906,
      "##uyorum": 2907,
      "sürdürü": 2908,
      "##abank": 2909,
      "yapılan": 2910,
      "gelecek": 2911,
      "hoş": 2912,
      "buna": 2913,
      "bitti": 2914,
      "yayıncı": 2915,
      "çalıştı": 2916,
      "thy": 2917,
      "denizbank": 2918,
      "sürdürülebilir": 2919,
      "##met": 2920,
      "çün": 2921,
      "olup": 2922,
      "mümk": 2923,
      "ücretsiz": 2924,
      "elektronik": 2925,
      "45": 2926,
      "ait": 2927,
      "fen": 2928,
      "tu": 2929,
      "web": 2930,
      "birç": 2931,
      "##diğimde": 2932,
      "paylaş": 2933,
      "domino": 2934,
      "sütaş": 2935,
      "mümkün": 2936,
      "ila": 2937,
      "pas": 2938,
      "ekip": 2939,
      "yapılmasını": 2940,
      "deneyimini": 2941,
      "politik": 2942,
      "yurti": 2943,
      "birçok": 2944,
      "pen": 2945,
      "yeri": 2946,
      "##lon": 2947,
      "##lum": 2948,
      "çözül": 2949,
      "##ahh": 2950,
      "söylüyor": 2951,
      "politikaları": 2952,
      "sayı": 2953,
      "##sam": 2954,
      "##ku": 2955,
      "##ath": 2956,
      "##imde": 2957,
      "##ünü": 2958,
      "ark": 2959,
      "##eyim": 2960,
      "günde": 2961,
      "çeşitlilik": 2962,
      "atasun": 2963,
      "gelişmiş": 2964,
      "itibar": 2965,
      "çünkü": 2966,
      "ada": 2967,
      "acı": 2968,
      "bebek": 2969,
      "##liz": 2970,
      "##indeki": 2971,
      "##larımı": 2972,
      "almaya": 2973,
      "##layıcı": 2974,
      "değişken": 2975,
      "yapılma": 2976,
      "sepeti": 2977,
      "abonelik": 2978,
      "i̇lgisiz": 2979,
      "çikolata": 2980,
      "civ": 2981,
      "laz": 2982,
      "##ebiliyor": 2983,
      "##ow": 2984,
      "##esinin": 2985,
      "ayı": 2986,
      "geçmiş": 2987,
      "trt": 2988,
      "menü": 2989,
      "bölgelerde": 2990,
      "zinciri": 2991,
      "sak": 2992,
      "##lor": 2993,
      "art": 2994,
      "##içi": 2995,
      "değişimi": 2996,
      "gözlük": 2997,
      "seviyede": 2998,
      "nike": 2999,
      "raz": 3000,
      "##su": 3001,
      "##ena": 3002,
      "dalg": 3003,
      "verilen": 3004,
      "sorunlu": 3005,
      "tesla": 3006,
      "bulmak": 3007,
      "içerikler": 3008,
      "i̇nsan": 3009,
      "alıp": 3010,
      "doldur": 3011,
      "efes": 3012,
      "hp": 3013,
      "akıl": 3014,
      "çözmek": 3015,
      "derim": 3016,
      "gidiyor": 3017,
      "akşam": 3018,
      "por": 3019,
      "##rasyon": 3020,
      "##imes": 3021,
      "çat": 3022,
      "##lanma": 3023,
      "paketi": 3024,
      "sms": 3025,
      "bis": 3026,
      "ch": 3027,
      "eden": 3028,
      "hy": 3029,
      "iy": 3030,
      "pla": 3031,
      "uğr": 3032,
      "##sp": 3033,
      "çö": 3034,
      "dendi": 3035,
      "sürede": 3036,
      "dışında": 3037,
      "eczacı": 3038,
      "yurtiçi": 3039,
      "adı": 3040,
      "##ucu": 3041,
      "##hub": 3042,
      "##üler": 3043,
      "##ğinde": 3044,
      "##aki": 3045,
      "üz": 3046,
      "##ımdan": 3047,
      "arasında": 3048,
      "taahh": 3049,
      "##dığımız": 3050,
      "github": 3051,
      "indirimler": 3052,
      "acer": 3053,
      "otomatik": 3054,
      "grub": 3055,
      "hesabıma": 3056,
      "çocu": 3057,
      "dahi": 3058,
      "etkileyebiliyor": 3059,
      "entegrasyon": 3060,
      "ziyaretçiler": 3061,
      "boğaziçi": 3062,
      "politikası": 3063,
      "##gın": 3064,
      "depo": 3065,
      "etkisiz": 3066,
      "olmak": 3067,
      "kapalı": 3068,
      "gece": 3069,
      "çağır": 3070,
      "bildirimlerine": 3071,
      "##tesi": 3072,
      "##zik": 3073,
      "##şık": 3074,
      "##izasyon": 3075,
      "##emin": 3076,
      "maç": 3077,
      "##medik": 3078,
      "yüzünden": 3079,
      "özellikler": 3080,
      "altın": 3081,
      "deter": 3082,
      "belli": 3083,
      "aksaklıklar": 3084,
      "koşul": 3085,
      "eczacıbaşı": 3086,
      "beb": 3087,
      "mcd": 3088,
      "dav": 3089,
      "##ilin": 3090,
      "##eysel": 3091,
      "edip": 3092,
      "##imiçi": 3093,
      "##kalı": 3094,
      "##kent": 3095,
      "bayi": 3096,
      "derin": 3097,
      "artırıyor": 3098,
      "klasik": 3099,
      "kumtel": 3100,
      "çevrimiçi": 3101,
      "nestlé": 3102,
      "##onald": 3103,
      "lazım": 3104,
      "mcdonald": 3105,
      "alamadım": 3106,
      "dimes": 3107,
      "eur": 3108,
      "##dız": 3109,
      "tarif": 3110,
      "##madılar": 3111,
      "gerçekleştir": 3112,
      "borc": 3113,
      "açılmıyor": 3114,
      "soğut": 3115,
      "beklenti": 3116,
      "derimod": 3117,
      "cor": 3118,
      "##cis": 3119,
      "ütü": 3120,
      "tadı": 3121,
      "geçmesine": 3122,
      "görüşt": 3123,
      "taleb": 3124,
      "montaj": 3125,
      "köfteci": 3126,
      "kendine": 3127,
      "mük": 3128,
      "##ech": 3129,
      "200": 3130,
      "bilgisi": 3131,
      "yaşıyorum": 3132,
      "##sizlik": 3133,
      "kuryen": 3134,
      "enerj": 3135,
      "bayram": 3136,
      "garantiye": 3137,
      "buzdolabı": 3138,
      "sıcak": 3139,
      "sözleşme": 3140,
      "qnb": 3141,
      "##gon": 3142,
      "##ğiniz": 3143,
      "##aksi": 3144,
      "yerde": 3145,
      "gelin": 3146,
      "bitaksi": 3147,
      "kandır": 3148,
      "aşama": 3149,
      "gidip": 3150,
      "hazırlanıyor": 3151,
      "anlaşılır": 3152,
      "sürecinde": 3153,
      "kulaklık": 3154,
      "aktarma": 3155,
      "siy": 3156,
      "##uge": 3157,
      "##mac": 3158,
      "##esti": 3159,
      "##izde": 3160,
      "##örün": 3161,
      "hızı": 3162,
      "geçer": 3163,
      "peuge": 3164,
      "##maktadır": 3165,
      "şifre": 3166,
      "deterjan": 3167,
      "peugeot": 3168,
      "tt": 3169,
      "##lüm": 3170,
      "##umuz": 3171,
      "ince": 3172,
      "anlay": 3173,
      "##ılması": 3174,
      "verir": 3175,
      "##rab": 3176,
      "yıldız": 3177,
      "görmedim": 3178,
      "yapılmıyor": 3179,
      "üzere": 3180,
      "ettiler": 3181,
      "bekledim": 3182,
      "alanı": 3183,
      "saygı": 3184,
      "içecekleri": 3185,
      "sigortası": 3186,
      "razer": 3187,
      "alamıyorum": 3188,
      "ıs": 3189,
      "##emmel": 3190,
      "##elin": 3191,
      "sürü": 3192,
      "aralık": 3193,
      "fiyatı": 3194,
      "dola": 3195,
      "yoksa": 3196,
      "kendim": 3197,
      "modellerde": 3198,
      "koku": 3199,
      "aletleri": 3200,
      "klima": 3201,
      "sağlayabilir": 3202,
      "mükemmel": 3203,
      "26": 3204,
      "##ier": 3205,
      "##tur": 3206,
      "##jet": 3207,
      "çekim": 3208,
      "markaların": 3209,
      "performanslı": 3210,
      "üzerinde": 3211,
      "olanak": 3212,
      "uçak": 3213,
      "ep": 3214,
      "edin": 3215,
      "pey": 3216,
      "##larımız": 3217,
      "insta": 3218,
      "bilmiyorum": 3219,
      "gele": 3220,
      "çocuğ": 3221,
      "dizi": 3222,
      "##erb": 3223,
      "##anız": 3224,
      "##ish": 3225,
      "ayda": 3226,
      "##adem": 3227,
      "köşe": 3228,
      "kapsamında": 3229,
      "##amıyoruz": 3230,
      "meyve": 3231,
      "grubu": 3232,
      "kuryenet": 3233,
      "instagram": 3234,
      "alama": 3235,
      "le": 3236,
      "##ede": 3237,
      "##anda": 3238,
      "arası": 3239,
      "günlük": 3240,
      "fiyatlandırma": 3241,
      "araçlarının": 3242,
      "mayısta": 3243,
      "forum": 3244,
      "##mektedir": 3245,
      "esnek": 3246,
      "doktor": 3247,
      "strateji": 3248,
      "sanki": 3249,
      "zengin": 3250,
      "ileri": 3251,
      "tik": 3252,
      "##seniz": 3253,
      "olmuş": 3254,
      "##tiler": 3255,
      "ayar": 3256,
      "iadesini": 3257,
      "##madık": 3258,
      "hatta": 3259,
      "kims": 3260,
      "ortam": 3261,
      "##ceğiz": 3262,
      "görevli": 3263,
      "fay": 3264,
      "n11": 3265,
      "yay": 3266,
      "ath": 3267,
      "erişim": 3268,
      "edebilir": 3269,
      "torku": 3270,
      "aca": 3271,
      "edece": 3272,
      "ney": 3273,
      "nvi": 3274,
      "what": 3275,
      "##lamış": 3276,
      "##lım": 3277,
      "##demi": 3278,
      "ayr": 3279,
      "açmıyor": 3280,
      "ödedim": 3281,
      "yönelik": 3282,
      "spo": 3283,
      "etkileşim": 3284,
      "göstere": 3285,
      "ihtiyaçlarına": 3286,
      "hastanesi": 3287,
      "alırken": 3288,
      "beşik": 3289,
      "randevu": 3290,
      "31": 3291,
      "fanta": 3292,
      "jb": 3293,
      "##sapp": 3294,
      "##acağım": 3295,
      "##bis": 3296,
      "##hizmet": 3297,
      "yapan": 3298,
      "şubesine": 3299,
      "##tify": 3300,
      "diyerek": 3301,
      "çoğu": 3302,
      "nvidia": 3303,
      "whatsapp": 3304,
      "spotify": 3305,
      "jbl": 3306,
      "##hizmetleri": 3307,
      "atı": 3308,
      "huk": 3309,
      "sına": 3310,
      "##muşt": 3311,
      "##life": 3312,
      "verme": 3313,
      "tama": 3314,
      "##mişler": 3315,
      "aktif": 3316,
      "telefonda": 3317,
      "onu": 3318,
      "opet": 3319,
      "pandemi": 3320,
      "##letic": 3321,
      "popüler": 3322,
      "beğenilere": 3323,
      "akıllı": 3324,
      "athletic": 3325,
      "hukuk": 3326,
      "500": 3327,
      "##aken": 3328,
      "evkur": 3329,
      "sep": 3330,
      "deneyimimi": 3331,
      "korona": 3332,
      "##rafik": 3333,
      "dalga": 3334,
      "hyunda": 3335,
      "09": 3336,
      "##yin": 3337,
      "##yesi": 3338,
      "##culuk": 3339,
      "##40": 3340,
      "##hur": 3341,
      "##dılar": 3342,
      "oluş": 3343,
      "aran": 3344,
      "##ılmıyor": 3345,
      "müşterihizmetleri": 3346,
      "ulaşım": 3347,
      "trans": 3348,
      "bizi": 3349,
      "yataş": 3350,
      "premi": 3351,
      "şikayetç": 3352,
      "opena": 3353,
      "medic": 3354,
      "yaratıyor": 3355,
      "watson": 3356,
      "##düğüm": 3357,
      "fayda": 3358,
      "hyundai": 3359,
      "openai": 3360,
      "trab": 3361,
      "##ıla": 3362,
      "##lanmadı": 3363,
      "şart": 3364,
      "müzik": 3365,
      "yıllardır": 3366,
      "sebep": 3367,
      "şekerbank": 3368,
      "##ılan": 3369,
      "##ue": 3370,
      "##arlı": 3371,
      "##ina": 3372,
      "##tılar": 3373,
      "nedir": 3374,
      "maaş": 3375,
      "olmaz": 3376,
      "telefonla": 3377,
      "telefonları": 3378,
      "##asaray": 3379,
      "##latasaray": 3380,
      "dostudur": 3381,
      "daki": 3382,
      "makineleri": 3383,
      "şirketidir": 3384,
      "galatasaray": 3385,
      "kurumsal": 3386,
      "bedeli": 3387,
      "üreticisi": 3388,
      "peyn": 3389,
      "trabzon": 3390,
      "cep": 3391,
      "oğ": 3392,
      "saya": 3393,
      "uber": 3394,
      "##likte": 3395,
      "##lamak": 3396,
      "##utv": 3397,
      "##mediğim": 3398,
      "parasını": 3399,
      "teknof": 3400,
      "yerel": 3401,
      "yakış": 3402,
      "dikkatli": 3403,
      "paycell": 3404,
      "markasıdır": 3405,
      "blutv": 3406,
      "cumhur": 3407,
      "fenerb": 3408,
      "siyah": 3409,
      "##uc": 3410,
      "##be": 3411,
      "##üme": 3412,
      "##unca": 3413,
      "gelmiş": 3414,
      "deng": 3415,
      "kop": 3416,
      "markalara": 3417,
      "kaldım": 3418,
      "alanları": 3419,
      "##shka": 3420,
      "bershka": 3421,
      "ttnet": 3422,
      "premium": 3423,
      "watsons": 3424,
      "jol": 3425,
      "levi": 3426,
      "oya": 3427,
      "seti": 3428,
      "tic": 3429,
      "##sor": 3430,
      "##ılıyor": 3431,
      "##gs": 3432,
      "yalan": 3433,
      "##cağız": 3434,
      "firmaya": 3435,
      "haksız": 3436,
      "sizi": 3437,
      "konforu": 3438,
      "eğlen": 3439,
      "bilişim": 3440,
      "##usuf": 3441,
      "yaşadım": 3442,
      "sorumsuz": 3443,
      "götürdüm": 3444,
      "teknofest": 3445,
      "la": 3446,
      "##bol": 3447,
      "##aret": 3448,
      "##diyor": 3449,
      "##urt": 3450,
      "##memesi": 3451,
      "##ılmaz": 3452,
      "önüne": 3453,
      "sağlam": 3454,
      "temel": 3455,
      "güvenilirdir": 3456,
      "avantajlı": 3457,
      "sayf": 3458,
      "ederim": 3459,
      "mango": 3460,
      "bebe": 3461,
      "tikt": 3462,
      "fenerbahçe": 3463,
      "jolly": 3464,
      "na": 3465,
      "##ke": 3466,
      "##faş": 3467,
      "##asının": 3468,
      "kullandım": 3469,
      "i̇ki": 3470,
      "arab": 3471,
      "işlemi": 3472,
      "tofaş": 3473,
      "deneyimleri": 3474,
      "yolcu": 3475,
      "donan": 3476,
      "gecikme": 3477,
      "organizasyon": 3478,
      "beşiktaş": 3479,
      "000": 3480,
      "lu": 3481,
      "kullanıyor": 3482,
      "ediliyor": 3483,
      "duruyor": 3484,
      "insanları": 3485,
      "temsilcis": 3486,
      "99": 3487,
      "dile": 3488,
      "sız": 3489,
      "##spa": 3490,
      "çab": 3491,
      "##ilmesi": 3492,
      "sonunda": 3493,
      "çeşitleri": 3494,
      "çıkan": 3495,
      "araçlar": 3496,
      "reklamları": 3497,
      "başarısızlık": 3498,
      "direk": 3499,
      "aşamasında": 3500,
      "acaba": 3501,
      "mus": 3502,
      "port": 3503,
      "##var": 3504,
      "##erat": 3505,
      "##umun": 3506,
      "dedik": 3507,
      "##ırken": 3508,
      "müşter": 3509,
      "##tepe": 3510,
      "yaşıyor": 3511,
      "##layan": 3512,
      "face": 3513,
      "kahv": 3514,
      "gösteri": 3515,
      "bahan": 3516,
      "soğuk": 3517,
      "açıklamaları": 3518,
      "zarif": 3519,
      "çiçeksepeti": 3520,
      "eğlence": 3521,
      "eğer": 3522,
      "je": 3523,
      "##diniz": 3524,
      "##gun": 3525,
      "##las": 3526,
      "sunabilir": 3527,
      "##ilever": 3528,
      "unilever": 3529,
      "edebiliyor": 3530,
      "fabr": 3531,
      "kültürel": 3532,
      "endiş": 3533,
      "chan": 3534,
      "ham": 3535,
      "tuş": 3536,
      "tiv": 3537,
      "##eyt": 3538,
      "mahal": 3539,
      "kısıt": 3540,
      "tatlar": 3541,
      "prime": 3542,
      "presti": 3543,
      "##tığım": 3544,
      "bütçe": 3545,
      "fırsatları": 3546,
      "##demy": 3547,
      "airb": 3548,
      "şikayetçiyim": 3549,
      "tivibu": 3550,
      "kir": 3551,
      "ulu": 3552,
      "vs": 3553,
      "yarı": 3554,
      "##ula": 3555,
      "##leyici": 3556,
      "def": 3557,
      "hızları": 3558,
      "##osan": 3559,
      "olduk": 3560,
      "servist": 3561,
      "yılında": 3562,
      "kaldır": 3563,
      "bırakmama": 3564,
      "bölüm": 3565,
      "shell": 3566,
      "##liğinden": 3567,
      "##üstü": 3568,
      "çalıştığ": 3569,
      "stratejileri": 3570,
      "düşt": 3571,
      "fiş": 3572,
      "fut": 3573,
      "gedi": 3574,
      "il": 3575,
      "kin": 3576,
      "ısın": 3577,
      "##sman": 3578,
      "##müş": 3579,
      "##bur": 3580,
      "##80": 3581,
      "##xen": 3582,
      "##elseri": 3583,
      "##meyi": 3584,
      "etik": 3585,
      "edilen": 3586,
      "##lemesi": 3587,
      "çözün": 3588,
      "##berry": 3589,
      "bakan": 3590,
      "firması": 3591,
      "i̇şlem": 3592,
      "indirimli": 3593,
      "filtre": 3594,
      "katılım": 3595,
      "bell": 3596,
      "i̇çin": 3597,
      "tavuk": 3598,
      "steelseri": 3599,
      "yaklaşımı": 3600,
      "ilaç": 3601,
      "tamamen": 3602,
      "steelseries": 3603,
      "dök": 3604,
      "düğ": 3605,
      "yusuf": 3606,
      "##malar": 3607,
      "kalk": 3608,
      "##lanmış": 3609,
      "olay": 3610,
      "##dana": 3611,
      "i̇p": 3612,
      "teş": 3613,
      "uyarı": 3614,
      "##dığımda": 3615,
      "prof": 3616,
      "parası": 3617,
      "kampanyası": 3618,
      "yolları": 3619,
      "alabiliyor": 3620,
      "burberry": 3621,
      "oluştu": 3622,
      "klav": 3623,
      "değişiklik": 3624,
      "airbnb": 3625,
      "uludağ": 3626,
      "gediz": 3627,
      "ic": 3628,
      "##vit": 3629,
      "##30": 3630,
      "##mayan": 3631,
      "aradık": 3632,
      "gelmesi": 3633,
      "##rada": 3634,
      "sıkıcı": 3635,
      "ertesi": 3636,
      "i̇stik": 3637,
      "falan": 3638,
      "arızalı": 3639,
      "fırın": 3640,
      "sorumluluk": 3641,
      "çök": 3642,
      "##ırım": 3643,
      "kullanmak": 3644,
      "aygaz": 3645,
      "##elim": 3646,
      "konak": 3647,
      "dos": 3648,
      "yoktu": 3649,
      "yarım": 3650,
      "kurye": 3651,
      "kurumu": 3652,
      "şubesinden": 3653,
      "##mayabilir": 3654,
      "sevin": 3655,
      "corona": 3656,
      "cid": 3657,
      "kış": 3658,
      "obile": 3659,
      "##muz": 3660,
      "##ant": 3661,
      "##enter": 3662,
      "##ore": 3663,
      "birlikte": 3664,
      "##amp": 3665,
      "##ster": 3666,
      "vermedi": 3667,
      "kıyasla": 3668,
      "ilgisi": 3669,
      "##artesi": 3670,
      "trend": 3671,
      "otosan": 3672,
      "sanal": 3673,
      "sırma": 3674,
      "yıkama": 3675,
      "exxen": 3676,
      "ekonomik": 3677,
      "##athlon": 3678,
      "facebook": 3679,
      "chanel": 3680,
      "obilet": 3681,
      "ipta": 3682,
      "uğ": 3683,
      "##oy": 3684,
      "##dınız": 3685,
      "##cathlon": 3686,
      "decathlon": 3687,
      "yapar": 3688,
      "temmuz": 3689,
      "taksit": 3690,
      "gerçekle": 3691,
      "sport": 3692,
      "otopark": 3693,
      "martı": 3694,
      "##talya": 3695,
      "serisi": 3696,
      "bellona": 3697,
      "dis": 3698,
      "fon": 3699,
      "guc": 3700,
      "ni": 3701,
      "yır": 3702,
      "##hone": 3703,
      "##wer": 3704,
      "almıyor": 3705,
      "aramama": 3706,
      "araştırma": 3707,
      "başla": 3708,
      "görsel": 3709,
      "kapı": 3710,
      "iletişime": 3711,
      "atasay": 3712,
      "penti": 3713,
      "i̇stikbal": 3714,
      "55": 3715,
      "60": 3716,
      "flor": 3717,
      "link": 3718,
      "nes": 3719,
      "##ion": 3720,
      "##enta": 3721,
      "##irim": 3722,
      "kağı": 3723,
      "madem": 3724,
      "seçeneklerle": 3725,
      "mağazası": 3726,
      "şubeye": 3727,
      "pron": 3728,
      "oyunları": 3729,
      "stanley": 3730,
      "##box": 3731,
      "yaptırdım": 3732,
      "biletix": 3733,
      "aidat": 3734,
      "mahalle": 3735,
      "ajet": 3736,
      "dr": 3737,
      "lap": 3738,
      "prada": 3739,
      "sol": 3740,
      "##pad": 3741,
      "##vim": 3742,
      "##matı": 3743,
      "öl": 3744,
      "yapamıyorum": 3745,
      "istasyon": 3746,
      "bulundum": 3747,
      "ödediğim": 3748,
      "##000": 3749,
      "##pazarı": 3750,
      "olduğumuz": 3751,
      "sonucu": 3752,
      "dayanıklılığı": 3753,
      "fırsatlar": 3754,
      "fiat": 3755,
      "futbol": 3756,
      "fer": 3757,
      "iptali": 3758,
      "piy": 3759,
      "ışık": 3760,
      "##ent": 3761,
      "kasa": 3762,
      "##isini": 3763,
      "ayın": 3764,
      "zamanında": 3765,
      "değişti": 3766,
      "gözlem": 3767,
      "baymak": 3768,
      "##vid": 3769,
      "note": 3770,
      "sinir": 3771,
      "elimde": 3772,
      "sınav": 3773,
      "donanım": 3774,
      "gucci": 3775,
      "peş": 3776,
      "raf": 3777,
      "olsa": 3778,
      "ayıp": 3779,
      "enuy": 3780,
      "peraken": 3781,
      "##omo": 3782,
      "##dıktan": 3783,
      "söyledim": 3784,
      "mağazaları": 3785,
      "2017": 3786,
      "##masından": 3787,
      "siparişimin": 3788,
      "show": 3789,
      "üyeliğimi": 3790,
      "##fix": 3791,
      "enerjisa": 3792,
      "cumhuriyet": 3793,
      "endişeler": 3794,
      "enuygun": 3795,
      "perakende": 3796,
      "bür": 3797,
      "dil": 3798,
      "##con": 3799,
      "##vm": 3800,
      "kav": 3801,
      "şah": 3802,
      "karde": 3803,
      "hizmetlerinde": 3804,
      "##etix": 3805,
      "çeşitlidir": 3806,
      "gerekir": 3807,
      "alakalı": 3808,
      "acilen": 3809,
      "alternatifler": 3810,
      "##spor": 3811,
      "peynir": 3812,
      "kinetix": 3813,
      "pap": 3814,
      "sesi": 3815,
      "##ıştır": 3816,
      "##ızda": 3817,
      "ör": 3818,
      "anlam": 3819,
      "süreli": 3820,
      "önc": 3821,
      "ekst": 3822,
      "tarihli": 3823,
      "suy": 3824,
      "takdir": 3825,
      "şubesi": 3826,
      "##mayacak": 3827,
      "kapsamlıdır": 3828,
      "verip": 3829,
      "covid": 3830,
      "cihazları": 3831,
      "beypazarı": 3832,
      "topluluk": 3833,
      "pişir": 3834,
      "logit": 3835,
      "aboneli": 3836,
      "steam": 3837,
      "taahhüt": 3838,
      "konaklama": 3839,
      "piyas": 3840,
      "logitech": 3841,
      "ler": 3842,
      "tit": 3843,
      "tık": 3844,
      "udemy": 3845,
      "##ele": 3846,
      "##19": 3847,
      "##lish": 3848,
      "##inal": 3849,
      "##laştım": 3850,
      "bireysel": 3851,
      "##ştık": 3852,
      "öğ": 3853,
      "##araç": 3854,
      "fiyatların": 3855,
      "markalardan": 3856,
      "ona": 3857,
      "projeler": 3858,
      "dijitsu": 3859,
      "söylenebilir": 3860,
      "bankacılığı": 3861,
      "kısmı": 3862,
      "temsilcisi": 3863,
      "kablo": 3864,
      "saçmalık": 3865,
      "gay": 3866,
      "ups": 3867,
      "##i̇": 3868,
      "##rol": 3869,
      "##fc": 3870,
      "##dex": 3871,
      "##ıyorsunuz": 3872,
      "algor": 3873,
      "dior": 3874,
      "geçiş": 3875,
      "makul": 3876,
      "getiraraç": 3877,
      "dışı": 3878,
      "yolu": 3879,
      "cihazı": 3880,
      "modalife": 3881,
      "yapacak": 3882,
      "üyeliğim": 3883,
      "poliçe": 3884,
      "geliştirme": 3885,
      "gösterebilir": 3886,
      "cin": 3887,
      "hut": 3888,
      "mat": 3889,
      "pil": 3890,
      "##tv": 3891,
      "##70": 3892,
      "##iyeti": 3893,
      "##tavm": 3894,
      "##dığınız": 3895,
      "verdiler": 3896,
      "öne": 3897,
      "ekş": 3898,
      "max": 3899,
      "uzat": 3900,
      "atmos": 3901,
      "geribil": 3902,
      "firmanın": 3903,
      "verilmiyor": 3904,
      "bursa": 3905,
      "gittiğimde": 3906,
      "yoğunluk": 3907,
      "kumanda": 3908,
      "kesintisi": 3909,
      "algorit": 3910,
      "geribildirim": 3911,
      "eca": 3912,
      "yür": 3913,
      "##sem": 3914,
      "##do": 3915,
      "##lerken": 3916,
      "çanta": 3917,
      "kullanmaya": 3918,
      "##abile": 3919,
      "evim": 3920,
      "atv": 3921,
      "işlemleri": 3922,
      "alak": 3923,
      "üstüne": 3924,
      "finish": 3925,
      "alındığında": 3926,
      "sigortam": 3927,
      "düzenlemeleri": 3928,
      "analiz": 3929,
      "trabzonspor": 3930,
      "laptop": 3931,
      "ros": 3932,
      "##lör": 3933,
      "##feri": 3934,
      "##ağa": 3935,
      "##star": 3936,
      "kullanımı": 3937,
      "içindeki": 3938,
      "tema": 3939,
      "tedaş": 3940,
      "denet": 3941,
      "merha": 3942,
      "milan": 3943,
      "kapsama": 3944,
      "kapağı": 3945,
      "beledi": 3946,
      "trendyolgo": 3947,
      "eksiklikler": 3948,
      "hangi": 3949,
      "duo": 3950,
      "english": 3951,
      "epic": 3952,
      "des": 3953,
      "kızı": 3954,
      "lak": 3955,
      "##paş": 3956,
      "##44": 3957,
      "##ens": 3958,
      "olamaz": 3959,
      "içinden": 3960,
      "teb": 3961,
      "##sıyla": 3962,
      "##lıkla": 3963,
      "##lemesine": 3964,
      "##yeceğim": 3965,
      "##mediği": 3966,
      "yapılıyor": 3967,
      "##inizi": 3968,
      "edilmiş": 3969,
      "gözlüğ": 3970,
      "hepsi": 3971,
      "ekranı": 3972,
      "optim": 3973,
      "##üsü": 3974,
      "saygısız": 3975,
      "keş": 3976,
      "kus": 3977,
      "##city": 3978,
      "ing": 3979,
      "yapın": 3980,
      "denildi": 3981,
      "güvenliği": 3982,
      "##lingo": 3983,
      "ulaşı": 3984,
      "doğa": 3985,
      "platformdur": 3986,
      "##gidiyor": 3987,
      "##zav": 3988,
      "koruma": 3989,
      "gittigidiyor": 3990,
      "alıyorum": 3991,
      "yurt": 3992,
      "##topya": 3993,
      "aldılar": 3994,
      "aksesuarları": 3995,
      "portf": 3996,
      "prestij": 3997,
      "milangaz": 3998,
      "duolingo": 3999,
      "lim": 4000,
      "pal": 4001,
      "##bana": 4002,
      "##diği": 4003,
      "##lanan": 4004,
      "dezav": 4005,
      "##ürlük": 4006,
      "i̇le": 4007,
      "yaşat": 4008,
      "markalı": 4009,
      "ürünlerle": 4010,
      "##ceklerini": 4011,
      "ulaşmak": 4012,
      "gittik": 4013,
      "yapıp": 4014,
      "konuyla": 4015,
      "kişilik": 4016,
      "i̇nce": 4017,
      "ders": 4018,
      "ihtiyac": 4019,
      "istedik": 4020,
      "yaratıcı": 4021,
      "bahis": 4022,
      "##express": 4023,
      "şifr": 4024,
      "litre": 4025,
      "keyif": 4026,
      "medical": 4027,
      "klavye": 4028,
      "ciddi": 4029,
      "sc": 4030,
      "##yız": 4031,
      "##mamış": 4032,
      "##esel": 4033,
      "##ast": 4034,
      "##ildim": 4035,
      "##uluyor": 4036,
      "etmiş": 4037,
      "versa": 4038,
      "kargoyu": 4039,
      "özen": 4040,
      "düşür": 4041,
      "paribu": 4042,
      "yandex": 4043,
      "geçir": 4044,
      "turna": 4045,
      "düzgün": 4046,
      "##üyorum": 4047,
      "##tell": 4048,
      "opel": 4049,
      "alınan": 4050,
      "güncellemeler": 4051,
      "marketten": 4052,
      "boyunca": 4053,
      "kokusu": 4054,
      "bimcell": 4055,
      "faber": 4056,
      "yapılacak": 4057,
      "fibabank": 4058,
      "madde": 4059,
      "nokta": 4060,
      "merhaba": 4061,
      "dezavantaj": 4062,
      "versace": 4063,
      "fibabanka": 4064,
      "con": 4065,
      "deki": 4066,
      "giz": 4067,
      "les": 4068,
      "mor": 4069,
      "ntv": 4070,
      "##nn": 4071,
      "##ct": 4072,
      "##bat": 4073,
      "##hes": 4074,
      "##ene": 4075,
      "yapmaya": 4076,
      "arada": 4077,
      "edile": 4078,
      "parf": 4079,
      "##tiraz": 4080,
      "temin": 4081,
      "mağazaya": 4082,
      "baktığımda": 4083,
      "yeniden": 4084,
      "hopar": 4085,
      "seviy": 4086,
      "teknolojileri": 4087,
      "##ruf": 4088,
      "sanırım": 4089,
      "rock": 4090,
      "hesabımdan": 4091,
      "gazoz": 4092,
      "yardımseverdir": 4093,
      "davran": 4094,
      "derinlemesine": 4095,
      "sevinirim": 4096,
      "lescon": 4097,
      "bura": 4098,
      "kfc": 4099,
      "pır": 4100,
      "##eceğim": 4101,
      "##kan": 4102,
      "##vest": 4103,
      "##lidir": 4104,
      "##liliği": 4105,
      "##ori": 4106,
      "##ledim": 4107,
      "anlamadım": 4108,
      "teh": 4109,
      "##ümü": 4110,
      "çekmiyor": 4111,
      "tasarruf": 4112,
      "genelde": 4113,
      "kaydı": 4114,
      "sitesinde": 4115,
      "oyuncu": 4116,
      "programı": 4117,
      "dolce": 4118,
      "aracım": 4119,
      "##ague": 4120,
      "şişe": 4121,
      "kasko": 4122,
      "watt": 4123,
      "lite": 4124,
      "petrol": 4125,
      "iyile": 4126,
      "uğraş": 4127,
      "hoparlör": 4128,
      "his": 4129,
      "lip": 4130,
      "nün": 4131,
      "ue": 4132,
      "##yerek": 4133,
      "##invest": 4134,
      "##çuk": 4135,
      "##iliç": 4136,
      "##asız": 4137,
      "altı": 4138,
      "##iyorlar": 4139,
      "fiyas": 4140,
      "tekli": 4141,
      "##abbana": 4142,
      "##lenic": 4143,
      "satıcı": 4144,
      "operat": 4145,
      "finansinvest": 4146,
      "##lığında": 4147,
      "kartıma": 4148,
      "seferinde": 4149,
      "millenic": 4150,
      "yorumları": 4151,
      "günlerdir": 4152,
      "portföy": 4153,
      "millenicom": 4154,
      "küt": 4155,
      "vit": 4156,
      "##rak": 4157,
      "##op": 4158,
      "##badem": 4159,
      "haier": 4160,
      "konya": 4161,
      "##derspa": 4162,
      "enza": 4163,
      "bull": 4164,
      "yenile": 4165,
      "karşılaş": 4166,
      "##kale": 4167,
      "gefor": 4168,
      "##üphan": 4169,
      "yolculuk": 4170,
      "coderspa": 4171,
      "tutarsız": 4172,
      "bilinir": 4173,
      "kaynaklı": 4174,
      "iphone": 4175,
      "acıbadem": 4176,
      "uğra": 4177,
      "kardeşim": 4178,
      "lipton": 4179,
      "coderspace": 4180,
      "blen": 4181,
      "yu": 4182,
      "##ft": 4183,
      "##ğa": 4184,
      "kalan": 4185,
      "indir": 4186,
      "almam": 4187,
      "anlat": 4188,
      "veren": 4189,
      "vermek": 4190,
      "2023": 4191,
      "siparişlerim": 4192,
      "##ümüz": 4193,
      "parex": 4194,
      "##tring": 4195,
      "yansıt": 4196,
      "saati": 4197,
      "sunarak": 4198,
      "gönderdiler": 4199,
      "hede": 4200,
      "dayanıklıdır": 4201,
      "alanında": 4202,
      "mesajı": 4203,
      "rotring": 4204,
      "canva": 4205,
      "etkileyebilir": 4206,
      "transfer": 4207,
      "##gsm": 4208,
      "çabuk": 4209,
      "wattpad": 4210,
      "kütüphan": 4211,
      "gru": 4212,
      "ili": 4213,
      "##ksiyon": 4214,
      "##tayım": 4215,
      "##pit": 4216,
      "##şehir": 4217,
      "##elli": 4218,
      "inan": 4219,
      "inov": 4220,
      "##emens": 4221,
      "etki": 4222,
      "çekildi": 4223,
      "siemens": 4224,
      "çalışıyorum": 4225,
      "zorluk": 4226,
      "şeyi": 4227,
      "platformun": 4228,
      "talebi": 4229,
      "ekranda": 4230,
      "netgsm": 4231,
      "sözde": 4232,
      "otomo": 4233,
      "tabi": 4234,
      "sıkıntısı": 4235,
      "çıkarıyor": 4236,
      "şişec": 4237,
      "istiyoruz": 4238,
      "dahil": 4239,
      "duyarlı": 4240,
      "görüşme": 4241,
      "düşünüyorum": 4242,
      "dizüstü": 4243,
      "değişkenlik": 4244,
      "bebeğim": 4245,
      "şişecam": 4246,
      "tub": 4247,
      "ww": 4248,
      "##dium": 4249,
      "kaba": 4250,
      "genç": 4251,
      "arko": 4252,
      "karış": 4253,
      "antalya": 4254,
      "hizmetlerin": 4255,
      "aradan": 4256,
      "kargoda": 4257,
      "sağlayıcı": 4258,
      "açtım": 4259,
      "teslimatı": 4260,
      "bulma": 4261,
      "ürünlerim": 4262,
      "gönderildi": 4263,
      "sizden": 4264,
      "özelliği": 4265,
      "belki": 4266,
      "##lığına": 4267,
      "kuv": 4268,
      "yasal": 4269,
      "mahk": 4270,
      "sızdır": 4271,
      "fonksiyon": 4272,
      "i̇ncehes": 4273,
      "parfüm": 4274,
      "i̇ncehesap": 4275,
      "nak": 4276,
      "tcd": 4277,
      "ubis": 4278,
      "##gu": 4279,
      "##fet": 4280,
      "##60": 4281,
      "##ğin": 4282,
      "gener": 4283,
      "buh": 4284,
      "##cılar": 4285,
      "deneme": 4286,
      "olmama": 4287,
      "açtığımda": 4288,
      "istemiyorum": 4289,
      "önceden": 4290,
      "doğr": 4291,
      "bizde": 4292,
      "gide": 4293,
      "etkileyicidir": 4294,
      "##lığını": 4295,
      "etkinlikler": 4296,
      "##emiyoruz": 4297,
      "hasarlı": 4298,
      "jeans": 4299,
      "tcdd": 4300,
      "ubisoft": 4301,
      "dek": 4302,
      "ısıt": 4303,
      "##ne": 4304,
      "##ni": 4305,
      "##törün": 4306,
      "##ydı": 4307,
      "##şa": 4308,
      "##org": 4309,
      "olmuşt": 4310,
      "kullanamıyorum": 4311,
      "çıkma": 4312,
      "güvenerek": 4313,
      "yarar": 4314,
      "##layıp": 4315,
      "zorlaştır": 4316,
      "tanın": 4317,
      "##ppo": 4318,
      "etmeme": 4319,
      "izlemek": 4320,
      "belg": 4321,
      "sıkıntılar": 4322,
      "now": 4323,
      "kargomu": 4324,
      "sebebi": 4325,
      "kapanıyor": 4326,
      "##uluğu": 4327,
      "derecede": 4328,
      "tokat": 4329,
      "ekipman": 4330,
      "adam": 4331,
      "pronet": 4332,
      "rockstar": 4333,
      "uefa": 4334,
      "hedef": 4335,
      "las": 4336,
      "##sas": 4337,
      "kalemleri": 4338,
      "##tiğim": 4339,
      "biletim": 4340,
      "telefona": 4341,
      "book": 4342,
      "bulunuyor": 4343,
      "adına": 4344,
      "haberler": 4345,
      "##meyecek": 4346,
      "taşıma": 4347,
      "kalaba": 4348,
      "casper": 4349,
      "castell": 4350,
      "depolama": 4351,
      "çözünürlük": 4352,
      "pırlan": 4353,
      "blender": 4354,
      "tuborg": 4355,
      "niye": 4356,
      "oppo": 4357,
      "##kı": 4358,
      "##endi": 4359,
      "sunexpress": 4360,
      "##tiv": 4361,
      "verin": 4362,
      "başlat": 4363,
      "gücü": 4364,
      "açan": 4365,
      "bilgim": 4366,
      "sıkı": 4367,
      "modem": 4368,
      "ortada": 4369,
      "sözcü": 4370,
      "rakiplerinin": 4371,
      "taşın": 4372,
      "çalıştır": 4373,
      "konuşma": 4374,
      "pttavm": 4375,
      "sokak": 4376,
      "değerlendirme": 4377,
      "formu": 4378,
      "eşyaları": 4379,
      "görüştüm": 4380,
      "oğlum": 4381,
      "papara": 4382,
      "kuveyt": 4383,
      "booking": 4384,
      "diyorum": 4385,
      "##ym": 4386,
      "##ban": 4387,
      "##ladium": 4388,
      "##aka": 4389,
      "i̇htiya": 4390,
      "sap": 4391,
      "kalitesine": 4392,
      "iste": 4393,
      "##lenmiş": 4394,
      "orij": 4395,
      "kamil": 4396,
      "kesildi": 4397,
      "edicidir": 4398,
      "gerçekleş": 4399,
      "esk": 4400,
      "##ico": 4401,
      "##uyu": 4402,
      "toplam": 4403,
      "riot": 4404,
      "kabl": 4405,
      "fotoğrafları": 4406,
      "emlak": 4407,
      "sürdürülebilirlik": 4408,
      "olanakları": 4409,
      "edeceğim": 4410,
      "gösteriyor": 4411,
      "bürosu": 4412,
      "palladium": 4413,
      "iyileştir": 4414,
      "90": 4415,
      "gabbana": 4416,
      "km": 4417,
      "sez": 4418,
      "##ça": 4419,
      "çap": 4420,
      "demek": 4421,
      "##şta": 4422,
      "buçuk": 4423,
      "öncek": 4424,
      "yazar": 4425,
      "2016": 4426,
      "toz": 4427,
      "sahib": 4428,
      "giden": 4429,
      "alacak": 4430,
      "izleme": 4431,
      "rengi": 4432,
      "##ofi": 4433,
      "hassas": 4434,
      "ihtiyaçlarını": 4435,
      "kronik": 4436,
      "temsilci": 4437,
      "verdiği": 4438,
      "banvit": 4439,
      "ekonomi": 4440,
      "dondurma": 4441,
      "soğutma": 4442,
      "düştü": 4443,
      "##smann": 4444,
      "pırlanta": 4445,
      "ray": 4446,
      "sk": 4447,
      "##eceğiz": 4448,
      "damac": 4449,
      "güneş": 4450,
      "gelmeyen": 4451,
      "aksa": 4452,
      "köy": 4453,
      "kapağ": 4454,
      "##cağımı": 4455,
      "numaram": 4456,
      "row": 4457,
      "avantajları": 4458,
      "yaşadık": 4459,
      "borç": 4460,
      "media": 4461,
      "aracın": 4462,
      "teknolojisi": 4463,
      "kasım": 4464,
      "normalde": 4465,
      "değişikliği": 4466,
      "tiktak": 4467,
      "iptalini": 4468,
      "örn": 4469,
      "kızılay": 4470,
      "geforce": 4471,
      "ali": 4472,
      "glo": 4473,
      "mini": 4474,
      "##pal": 4475,
      "##piliç": 4476,
      "kalı": 4477,
      "bulamıyorum": 4478,
      "şaş": 4479,
      "##oker": 4480,
      "sorduğum": 4481,
      "bankanın": 4482,
      "uygula": 4483,
      "kurs": 4484,
      "ücretli": 4485,
      "ücretler": 4486,
      "köp": 4487,
      "platformları": 4488,
      "istediğimde": 4489,
      "paypal": 4490,
      "kaza": 4491,
      "personeli": 4492,
      "memnuniyetini": 4493,
      "menüsü": 4494,
      "kombi": 4495,
      "yazıları": 4496,
      "plastik": 4497,
      "optimum": 4498,
      "önceki": 4499,
      "damacana": 4500,
      "rowenta": 4501,
      "ih": 4502,
      "joker": 4503,
      "mate": 4504,
      "##amik": 4505,
      "sunmanız": 4506,
      "and": 4507,
      "magaz": 4508,
      "olmasını": 4509,
      "açma": 4510,
      "zamanlarda": 4511,
      "çıkmadı": 4512,
      "yazıyorum": 4513,
      "varsa": 4514,
      "yapılmış": 4515,
      "edilmesini": 4516,
      "bankalar": 4517,
      "alındı": 4518,
      "muay": 4519,
      "alım": 4520,
      "maltepe": 4521,
      "sağlıklı": 4522,
      "istediğim": 4523,
      "bütç": 4524,
      "aracımın": 4525,
      "pepsico": 4526,
      "poliç": 4527,
      "bardak": 4528,
      "sektörün": 4529,
      "baby": 4530,
      "rossmann": 4531,
      "meş": 4532,
      "pi": 4533,
      "##kek": 4534,
      "##16": 4535,
      "##aktör": 4536,
      "kullanımda": 4537,
      "hizmetlerle": 4538,
      "##lamaya": 4539,
      "##ragaz": 4540,
      "yazdım": 4541,
      "tatları": 4542,
      "saatler": 4543,
      "durumdan": 4544,
      "evime": 4545,
      "memori": 4546,
      "edilmiyor": 4547,
      "##oğlu": 4548,
      "##ımızda": 4549,
      "finansbank": 4550,
      "paramın": 4551,
      "toki̇": 4552,
      "bulabiliyor": 4553,
      "altyapısı": 4554,
      "paylaşım": 4555,
      "i̇pragaz": 4556,
      "orijinal": 4557,
      "magazin": 4558,
      "memorial": 4559,
      "center": 4560,
      "deri": 4561,
      "im": 4562,
      "yal": 4563,
      "günlerde": 4564,
      "##erve": 4565,
      "##maktan": 4566,
      "##lenebilir": 4567,
      "karşılamıyor": 4568,
      "alışverişlerde": 4569,
      "arayarak": 4570,
      "erkek": 4571,
      "bilgisayarları": 4572,
      "##resh": 4573,
      "süreçlerinde": 4574,
      "mall": 4575,
      "istediler": 4576,
      "ağır": 4577,
      "kişiselleştir": 4578,
      "olunmalı": 4579,
      "blok": 4580,
      "kadın": 4581,
      "kimseye": 4582,
      "etiket": 4583,
      "ekstra": 4584,
      "kusur": 4585,
      "iliş": 4586,
      "global": 4587,
      "bık": 4588,
      "flo": 4589,
      "##maj": 4590,
      "##izin": 4591,
      "arıyor": 4592,
      "##str": 4593,
      "allah": 4594,
      "etmiyorum": 4595,
      "soru": 4596,
      "##mışlar": 4597,
      "yapılı": 4598,
      "baktım": 4599,
      "internetten": 4600,
      "tanesi": 4601,
      "mağduriyeti": 4602,
      "biliyor": 4603,
      "superbox": 4604,
      "planda": 4605,
      "yaşanıyor": 4606,
      "tüketim": 4607,
      "35": 4608,
      "burada": 4609,
      "gez": 4610,
      "pam": 4611,
      "via": 4612,
      "yana": 4613,
      "##say": 4614,
      "##dın": 4615,
      "##zen": 4616,
      "##lerek": 4617,
      "##dit": 4618,
      "demir": 4619,
      "##ipto": 4620,
      "olabile": 4621,
      "araba": 4622,
      "markt": 4623,
      "sorunun": 4624,
      "tesis": 4625,
      "aksi": 4626,
      "nedenle": 4627,
      "edilmesi": 4628,
      "sesli": 4629,
      "üstün": 4630,
      "edemiyorum": 4631,
      "özelleştir": 4632,
      "kripto": 4633,
      "emsan": 4634,
      "pişmanım": 4635,
      "bisik": 4636,
      "league": 4637,
      "belediyesi": 4638,
      "ca": 4639,
      "nde": 4640,
      "##yim": 4641,
      "##imleri": 4642,
      "##ikli": 4643,
      "##ita": 4644,
      "ard": 4645,
      "yapmam": 4646,
      "##ipo": 4647,
      "i̇let": 4648,
      "halinde": 4649,
      "denedim": 4650,
      "##manı": 4651,
      "beklemek": 4652,
      "açıp": 4653,
      "işi": 4654,
      "gereğ": 4655,
      "geçiyor": 4656,
      "##ayabilir": 4657,
      "hakları": 4658,
      "##tikten": 4659,
      "kendilerine": 4660,
      "rezil": 4661,
      "monster": 4662,
      "##afak": 4663,
      "sert": 4664,
      "orada": 4665,
      "gönderiyor": 4666,
      "arkasında": 4667,
      "anlayışı": 4668,
      "lakin": 4669,
      "##şaat": 4670,
      "300": 4671,
      "75": 4672,
      "cez": 4673,
      "dell": 4674,
      "sim": 4675,
      "ton": 4676,
      "tuz": 4677,
      "yedi": 4678,
      "##fresh": 4679,
      "##25": 4680,
      "##hipo": 4681,
      "bulamadım": 4682,
      "mobile": 4683,
      "teki": 4684,
      "çözme": 4685,
      "telefonun": 4686,
      "saatleri": 4687,
      "şeklinde": 4688,
      "##latıcı": 4689,
      "kurut": 4690,
      "hafif": 4691,
      "tanı": 4692,
      "##mıştı": 4693,
      "##emeye": 4694,
      "kartları": 4695,
      "yemeksepeti": 4696,
      "dayanıklılık": 4697,
      "##layabiliyor": 4698,
      "stokta": 4699,
      "sorunsuzdur": 4700,
      "masraf": 4701,
      "##ğimizde": 4702,
      "misaf": 4703,
      "koşulları": 4704,
      "euro": 4705,
      "morhipo": 4706,
      "buradan": 4707,
      "pamuk": 4708,
      "ul": 4709,
      "##siye": 4710,
      "##24": 4711,
      "##75": 4712,
      "kafa": 4713,
      "markaya": 4714,
      "##lenme": 4715,
      "yaşam": 4716,
      "çıkmıyor": 4717,
      "siv": 4718,
      "yanında": 4719,
      "##luğu": 4720,
      "ödemesi": 4721,
      "düzey": 4722,
      "doğum": 4723,
      "kalitede": 4724,
      "şeyler": 4725,
      "bein": 4726,
      "biletimi": 4727,
      "kolayca": 4728,
      "sırasında": 4729,
      "elde": 4730,
      "harika": 4731,
      "memnuniyetine": 4732,
      "oturma": 4733,
      "eksikliklerle": 4734,
      "kısmında": 4735,
      "ödül": 4736,
      "itibaren": 4737,
      "çöpe": 4738,
      "yararlan": 4739,
      "min": 4740,
      "ra": 4741,
      "sil": 4742,
      "sine": 4743,
      "yum": 4744,
      "##tum": 4745,
      "##mıyorum": 4746,
      "##90": 4747,
      "aro": 4748,
      "##ıldım": 4749,
      "##tığı": 4750,
      "##eşil": 4751,
      "new": 4752,
      "olduğundan": 4753,
      "tarz": 4754,
      "yarın": 4755,
      "yerli": 4756,
      "kampanyas": 4757,
      "hatt": 4758,
      "farkı": 4759,
      "total": 4760,
      "modeli": 4761,
      "150": 4762,
      "##selen": 4763,
      "sonuçları": 4764,
      "yaşadığım": 4765,
      "öğrendim": 4766,
      "fox": 4767,
      "süpürgesi": 4768,
      "soy": 4769,
      "yaşanan": 4770,
      "leke": 4771,
      "derece": 4772,
      "porselen": 4773,
      "kalabalık": 4774,
      "sektöründe": 4775,
      "misafir": 4776,
      "ap": 4777,
      "cuma": 4778,
      "lar": 4779,
      "##gul": 4780,
      "##45": 4781,
      "##ölen": 4782,
      "inter": 4783,
      "şamp": 4784,
      "##cılık": 4785,
      "siparişin": 4786,
      "tali": 4787,
      "##lemiyor": 4788,
      "##sizliği": 4789,
      "adr": 4790,
      "erken": 4791,
      "verici": 4792,
      "bayan": 4793,
      "başvurdum": 4794,
      "##fendi": 4795,
      "aşağı": 4796,
      "projeleriyle": 4797,
      "taşı": 4798,
      "kuruluş": 4799,
      "ayakkabıları": 4800,
      "yaptılar": 4801,
      "giderilmesini": 4802,
      "imkanı": 4803,
      "zarar": 4804,
      "hanım": 4805,
      "kullanmadığım": 4806,
      "umur": 4807,
      "kitlesine": 4808,
      "ticaret": 4809,
      "bahane": 4810,
      "profil": 4811,
      "limit": 4812,
      "teklif": 4813,
      "general": 4814,
      "48": 4815,
      "sını": 4816,
      "silin": 4817,
      "##ust": 4818,
      "##car": 4819,
      "##lim": 4820,
      "##ull": 4821,
      "intern": 4822,
      "bulama": 4823,
      "kargon": 4824,
      "i̇k": 4825,
      "yükleme": 4826,
      "kos": 4827,
      "başkent": 4828,
      "güler": 4829,
      "çıkart": 4830,
      "##miyorlar": 4831,
      "geldik": 4832,
      "geldiğinde": 4833,
      "kök": 4834,
      "erikli": 4835,
      "##mamıza": 4836,
      "ürünümü": 4837,
      "express": 4838,
      "yazıklar": 4839,
      "umarım": 4840,
      "çöp": 4841,
      "aktarmada": 4842,
      "sepet": 4843,
      "sports": 4844,
      "seviyesi": 4845,
      "grup": 4846,
      "uygulamanın": 4847,
      "apar": 4848,
      "diş": 4849,
      "itopya": 4850,
      "led": 4851,
      "##mo": 4852,
      "##ekk": 4853,
      "##ure": 4854,
      "##amet": 4855,
      "şölen": 4856,
      "yapay": 4857,
      "fiyatlarına": 4858,
      "##tılı": 4859,
      "koca": 4860,
      "başlık": 4861,
      "durex": 4862,
      "akıt": 4863,
      "saatte": 4864,
      "##amaz": 4865,
      "store": 4866,
      "##ood": 4867,
      "alıcı": 4868,
      "koleksiyonu": 4869,
      "garantili": 4870,
      "bununla": 4871,
      "ankas": 4872,
      "bağlantısı": 4873,
      "kodlu": 4874,
      "oluşturdum": 4875,
      "kaybet": 4876,
      "kaybol": 4877,
      "söylüyorlar": 4878,
      "biskü": 4879,
      "yaygın": 4880,
      "mater": 4881,
      "yürüt": 4882,
      "i̇letişim": 4883,
      "bam": 4884,
      "ege": 4885,
      "ode": 4886,
      "pis": 4887,
      "yiye": 4888,
      "yeşil": 4889,
      "##tası": 4890,
      "##aliyet": 4891,
      "##ulan": 4892,
      "##mar": 4893,
      "##xy": 4894,
      "##mayın": 4895,
      "##ilmedi": 4896,
      "anla": 4897,
      "i̇s": 4898,
      "sade": 4899,
      "araştır": 4900,
      "geldim": 4901,
      "deniyor": 4902,
      "mav": 4903,
      "sağlan": 4904,
      "olmaması": 4905,
      "##200": 4906,
      "bulunduğum": 4907,
      "hattı": 4908,
      "şubeleri": 4909,
      "düzensiz": 4910,
      "kayseri": 4911,
      "girdim": 4912,
      "etmeye": 4913,
      "bırakın": 4914,
      "faaliyet": 4915,
      "insanlar": 4916,
      "küf": 4917,
      "öğrenci": 4918,
      "kiralama": 4919,
      "sarar": 4920,
      "havay": 4921,
      "gelince": 4922,
      "dengeli": 4923,
      "gayet": 4924,
      "atmosferi": 4925,
      "sınıf": 4926,
      "ankastre": 4927,
      "grafik": 4928,
      "iken": 4929,
      "sey": 4930,
      "test": 4931,
      "uc": 4932,
      "##ee": 4933,
      "##ri": 4934,
      "##amadı": 4935,
      "##fs": 4936,
      "##bet": 4937,
      "##ari": 4938,
      "##çeşit": 4939,
      "##ünün": 4940,
      "ürünlerini": 4941,
      "##vense": 4942,
      "geldiği": 4943,
      "star": 4944,
      "kullanışsız": 4945,
      "yapıyorlar": 4946,
      "kolaylaştır": 4947,
      "vivense": 4948,
      "rakipleri": 4949,
      "gazet": 4950,
      "bildirimleri": 4951,
      "öğrenme": 4952,
      "çalıştım": 4953,
      "imkansız": 4954,
      "gala": 4955,
      "neyse": 4956,
      "üreticisidir": 4957,
      "kısıtlı": 4958,
      "gözlemlenebilir": 4959,
      "##nica": 4960,
      "i̇htiyaç": 4961,
      "materyal": 4962,
      "odeabank": 4963,
      "##çeşitliliği": 4964,
      "cad": 4965,
      "lir": 4966,
      "ris": 4967,
      "ulaştır": 4968,
      "##nız": 4969,
      "##th": 4970,
      "##21": 4971,
      "##33": 4972,
      "ürünçeşitliliği": 4973,
      "yapım": 4974,
      "içine": 4975,
      "##duğunu": 4976,
      "unut": 4977,
      "edileme": 4978,
      "işlet": 4979,
      "sist": 4980,
      "yenilen": 4981,
      "merkezini": 4982,
      "doğtaş": 4983,
      "temizliği": 4984,
      "severek": 4985,
      "##emedim": 4986,
      "##ört": 4987,
      "okey": 4988,
      "sinbo": 4989,
      "eksiklikleri": 4990,
      "şeffaflık": 4991,
      "olmayabilir": 4992,
      "korkmaz": 4993,
      "civar": 4994,
      "altınbaş": 4995,
      "atıştırma": 4996,
      "sayaç": 4997,
      "ekşi": 4998,
      "inovasyon": 4999,
      "yalnız": 5000,
      "70": 5001,
      "adana": 5002,
      "go": 5003,
      "lev": 5004,
      "##süz": 5005,
      "##köy": 5006,
      "##dd": 5007,
      "##düz": 5008,
      "##fam": 5009,
      "##29": 5010,
      "##28": 5011,
      "##beri": 5012,
      "##elsan": 5013,
      "##uldu": 5014,
      "##amba": 5015,
      "arnica": 5016,
      "şafak": 5017,
      "karş": 5018,
      "müdür": 5019,
      "gününde": 5020,
      "##reen": 5021,
      "değeri": 5022,
      "ekim": 5023,
      "olmamasına": 5024,
      "sorunlarda": 5025,
      "işe": 5026,
      "sürelerinin": 5027,
      "özgün": 5028,
      "##mıyoruz": 5029,
      "merak": 5030,
      "evrak": 5031,
      "yerden": 5032,
      "azal": 5033,
      "siteye": 5034,
      "hakem": 5035,
      "bugüne": 5036,
      "i̇ndirim": 5037,
      "taban": 5038,
      "değiştirmek": 5039,
      "marketler": 5040,
      "üreten": 5041,
      "yaratabiliyor": 5042,
      "etkinlikleri": 5043,
      "etmiyorlar": 5044,
      "sürücü": 5045,
      "serviste": 5046,
      "notebook": 5047,
      "peşin": 5048,
      "ekipmanları": 5049,
      "kili": 5050,
      "puma": 5051,
      "ufak": 5052,
      "vur": 5053,
      "vfs": 5054,
      "##ima": 5055,
      "##uv": 5056,
      "##mer": 5057,
      "##mini": 5058,
      "##ğine": 5059,
      "##inye": 5060,
      "##mayı": 5061,
      "##allah": 5062,
      "sordum": 5063,
      "bilkent": 5064,
      "öncü": 5065,
      "çıkış": 5066,
      "şubesinde": 5067,
      "nedeni": 5068,
      "işlemler": 5069,
      "büyükşehir": 5070,
      "dikkate": 5071,
      "i̇stinye": 5072,
      "temizleme": 5073,
      "parçası": 5074,
      "üstü": 5075,
      "buraya": 5076,
      "kendiliğinden": 5077,
      "süreçte": 5078,
      "sonuçlar": 5079,
      "şubede": 5080,
      "yoğurt": 5081,
      "kokuyor": 5082,
      "komp": 5083,
      "kızım": 5084,
      "sıradan": 5085,
      "ofisi": 5086,
      "stratej": 5087,
      "miktar": 5088,
      "dolap": 5089,
      "yolcular": 5090,
      "çöküyor": 5091,
      "ölç": 5092,
      "algoritması": 5093,
      "buhar": 5094,
      "köklü": 5095,
      "ey": 5096,
      "ed": 5097,
      "kip": 5098,
      "msi": 5099,
      "vade": 5100,
      "##erken": 5101,
      "##dest": 5102,
      "##dular": 5103,
      "hac": 5104,
      "tekzen": 5105,
      "telegram": 5106,
      "##menizi": 5107,
      "alışverişi": 5108,
      "bulunabiliyor": 5109,
      "kuru": 5110,
      "görül": 5111,
      "çözümlerle": 5112,
      "danış": 5113,
      "kesilmiş": 5114,
      "poş": 5115,
      "mağazalar": 5116,
      "tost": 5117,
      "esen": 5118,
      "numarasını": 5119,
      "kalitesini": 5120,
      "maliyetli": 5121,
      "ulusoy": 5122,
      "masa": 5123,
      "vermiyorlar": 5124,
      "biliniyor": 5125,
      "ettirmek": 5126,
      "anneler": 5127,
      "temsilcisine": 5128,
      "dosya": 5129,
      "ardından": 5130,
      "galaxy": 5131,
      "ide": 5132,
      "jet": 5133,
      "pek": 5134,
      "trafik": 5135,
      "##dz": 5136,
      "##ates": 5137,
      "##onsor": 5138,
      "üründen": 5139,
      "olacağını": 5140,
      "##olland": 5141,
      "teda": 5142,
      "##laması": 5143,
      "yetiş": 5144,
      "siparişler": 5145,
      "düşüyor": 5146,
      "telefonlara": 5147,
      "geçtim": 5148,
      "bulunmayabilir": 5149,
      "gönderdik": 5150,
      "yüzlü": 5151,
      "kapsamı": 5152,
      "seg": 5153,
      "##diğimiz": 5154,
      "##pazar": 5155,
      "sponsor": 5156,
      "konusu": 5157,
      "bırakıyor": 5158,
      "yayınları": 5159,
      "##ımızı": 5160,
      "mıs": 5161,
      "harca": 5162,
      "arkadaşım": 5163,
      "##memiştir": 5164,
      "organik": 5165,
      "aracılığı": 5166,
      "aidatı": 5167,
      "beklentilerin": 5168,
      "sanalpazar": 5169,
      "andro": 5170,
      "imza": 5171,
      "bp": 5172,
      "bal": 5173,
      "blu": 5174,
      "dy": 5175,
      "imaj": 5176,
      "kıl": 5177,
      "##sinin": 5178,
      "##iği": 5179,
      "##71": 5180,
      "##lâ": 5181,
      "##esiz": 5182,
      "çal": 5183,
      "##meleri": 5184,
      "##ayla": 5185,
      "arıyoruz": 5186,
      "##stan": 5187,
      "etmediler": 5188,
      "başladım": 5189,
      "##leniyor": 5190,
      "bulut": 5191,
      "karşılaştım": 5192,
      "onarım": 5193,
      "uygulamalar": 5194,
      "görür": 5195,
      "haftada": 5196,
      "sistemde": 5197,
      "acun": 5198,
      "ambalajlar": 5199,
      "sayfa": 5200,
      "ağına": 5201,
      "eğitimli": 5202,
      "oku": 5203,
      "sinyal": 5204,
      "aracımı": 5205,
      "gidiş": 5206,
      "profesyonellik": 5207,
      "platformudur": 5208,
      "renkli": 5209,
      "süpürgenin": 5210,
      "i̇lgilen": 5211,
      "berbat": 5212,
      "sankom": 5213,
      "wwf": 5214,
      "zorlaştırabiliyor": 5215,
      "bag": 5216,
      "gran": 5217,
      "play": 5218,
      "##sey": 5219,
      "##kin": 5220,
      "##pon": 5221,
      "##ıç": 5222,
      "##yiz": 5223,
      "##ud": 5224,
      "##hya": 5225,
      "##ord": 5226,
      "##maması": 5227,
      "##ata": 5228,
      "##ella": 5229,
      "dam": 5230,
      "##ilip": 5231,
      "kaş": 5232,
      "yam": 5233,
      "üründe": 5234,
      "anka": 5235,
      "yapış": 5236,
      "yapıyorum": 5237,
      "##tive": 5238,
      "hâ": 5239,
      "halı": 5240,
      "##ümde": 5241,
      "ekmek": 5242,
      "tad": 5243,
      "tart": 5244,
      "servisine": 5245,
      "##ebile": 5246,
      "gönderdi": 5247,
      "ulaşmaya": 5248,
      "ulaşamadım": 5249,
      "ücretini": 5250,
      "zorla": 5251,
      "yapılması": 5252,
      "##inize": 5253,
      "adlı": 5254,
      "ediyorlar": 5255,
      "gerçekçi": 5256,
      "sessiz": 5257,
      "modelleri": 5258,
      "##ınızı": 5259,
      "sözlük": 5260,
      "içeriği": 5261,
      "##mall": 5262,
      "ağust": 5263,
      "çalışanlar": 5264,
      "komb": 5265,
      "stres": 5266,
      "mahv": 5267,
      "i̇lgisizliği": 5268,
      "bakanlığı": 5269,
      "öğret": 5270,
      "muayene": 5271,
      "meşgul": 5272,
      "sisteme": 5273,
      "##destek": 5274,
      "android": 5275,
      "fr": 5276,
      "gold": 5277,
      "itiraz": 5278,
      "kek": 5279,
      "lok": 5280,
      "pf": 5281,
      "rol": 5282,
      "tüp": 5283,
      "vaz": 5284,
      "##yince": 5285,
      "##gn": 5286,
      "##99": 5287,
      "##ance": 5288,
      "##ünüz": 5289,
      "##iliği": 5290,
      "##ump": 5291,
      "##urken": 5292,
      "inşaat": 5293,
      "anlamış": 5294,
      "##ılmasını": 5295,
      "##uyorlar": 5296,
      "i̇yi": 5297,
      "verecek": 5298,
      "kaliteye": 5299,
      "hali": 5300,
      "haberi": 5301,
      "kons": 5302,
      "kıya": 5303,
      "##aber": 5304,
      "karşılığında": 5305,
      "##edin": 5306,
      "kalmadı": 5307,
      "yolladım": 5308,
      "şikayetim": 5309,
      "şıktır": 5310,
      "açılıyor": 5311,
      "açığa": 5312,
      "sanat": 5313,
      "##bileceğim": 5314,
      "siteden": 5315,
      "kalıyorum": 5316,
      "senedir": 5317,
      "pazartesi": 5318,
      "beraber": 5319,
      "odası": 5320,
      "misiniz": 5321,
      "uyumlu": 5322,
      "elec": 5323,
      "çarp": 5324,
      "çözülmesini": 5325,
      "uyarısı": 5326,
      "fiyasko": 5327,
      "kütüphanesi": 5328,
      "şaşır": 5329,
      "bisiklet": 5330,
      "bisküvi": 5331,
      "imajı": 5332,
      "hâlâ": 5333,
      "dört": 5334,
      "emin": 5335,
      "idi": 5336,
      "jo": 5337,
      "mol": 5338,
      "nda": 5339,
      "ore": 5340,
      "us": 5341,
      "wif": 5342,
      "yola": 5343,
      "##ght": 5344,
      "##26": 5345,
      "##bb": 5346,
      "##36": 5347,
      "##́al": 5348,
      "##ülüyor": 5349,
      "##ınıza": 5350,
      "##eks": 5351,
      "çer": 5352,
      "##asya": 5353,
      "##iyon": 5354,
      "almaz": 5355,
      "##tahya": 5356,
      "aydın": 5357,
      "veriliyor": 5358,
      "##sının": 5359,
      "yaşında": 5360,
      "akasya": 5361,
      "çekilmiş": 5362,
      "onun": 5363,
      "ödemesini": 5364,
      "taraftar": 5365,
      "sefam": 5366,
      "kesiliyor": 5367,
      "kırıklığına": 5368,
      "filtr": 5369,
      "##ladılar": 5370,
      "katı": 5371,
      "dolayısıyla": 5372,
      "kütahya": 5373,
      "mondi": 5374,
      "liralık": 5375,
      "ortak": 5376,
      "yazıyordu": 5377,
      "yenilikleri": 5378,
      "i̇nsanları": 5379,
      "musunuz": 5380,
      "piyasa": 5381,
      "lastik": 5382,
      "electr": 5383,
      "oréal": 5384,
      "wifi": 5385,
      "sefamerve": 5386,
      "34": 5387,
      "adım": 5388,
      "elin": 5389,
      "gor": 5390,
      "giş": 5391,
      "leri": 5392,
      "sök": 5393,
      "##yol": 5394,
      "##ga": 5395,
      "##gg": 5396,
      "##gü": 5397,
      "##76": 5398,
      "##madığı": 5399,
      "##eka": 5400,
      "birden": 5401,
      "##ilmiyor": 5402,
      "ürüne": 5403,
      "arıt": 5404,
      "##embe": 5405,
      "##manızı": 5406,
      "istey": 5407,
      "süredir": 5408,
      "paraya": 5409,
      "çekti": 5410,
      "telefonuma": 5411,
      "evet": 5412,
      "##edia": 5413,
      "belirsiz": 5414,
      "trump": 5415,
      "zorun": 5416,
      "söyledik": 5417,
      "yönt": 5418,
      "kalmadım": 5419,
      "habersiz": 5420,
      "verilecek": 5421,
      "i̇şkur": 5422,
      "alabilir": 5423,
      "firmadan": 5424,
      "arayüzler": 5425,
      "kitab": 5426,
      "standartlarına": 5427,
      "katılı": 5428,
      "tabak": 5429,
      "roch": 5430,
      "hayatımda": 5431,
      "aradığımızda": 5432,
      "kutus": 5433,
      "krem": 5434,
      "maliyetleri": 5435,
      "beğeniyor": 5436,
      "binance": 5437,
      "biridir": 5438,
      "sürecini": 5439,
      "ipad": 5440,
      "gönderilmedi": 5441,
      "talebinde": 5442,
      "dilekç": 5443,
      "fabrika": 5444,
      "linkedin": 5445,
      "keşke": 5446,
      "karışık": 5447,
      "gereğinin": 5448,
      "bambi": 5449,
      "ağustos": 5450,
      "gdz": 5451,
      "kana": 5452,
      "kuy": 5453,
      "plus": 5454,
      "yara": 5455,
      "yılı": 5456,
      "##sü": 5457,
      "##yken": 5458,
      "##cık": 5459,
      "##ff": 5460,
      "##mızı": 5461,
      "##eko": 5462,
      "##elen": 5463,
      "##ess": 5464,
      "##iliş": 5465,
      "##izer": 5466,
      "##iydi": 5467,
      "##dığıma": 5468,
      "##ılmadı": 5469,
      "##altı": 5470,
      "kullanıcısı": 5471,
      "##larınız": 5472,
      "kargolan": 5473,
      "siparişiniz": 5474,
      "##ibahçe": 5475,
      "ister": 5476,
      "yaşay": 5477,
      "tarihinden": 5478,
      "parmak": 5479,
      "güvenip": 5480,
      "yansı": 5481,
      "aldığımda": 5482,
      "gönderimi": 5483,
      "memnunum": 5484,
      "gitmesi": 5485,
      "##abiliyorum": 5486,
      "kesilen": 5487,
      "tanınır": 5488,
      "verile": 5489,
      "makinem": 5490,
      "ürününüz": 5491,
      "standartlarından": 5492,
      "abone": 5493,
      "sonraki": 5494,
      "istediğimi": 5495,
      "etmekte": 5496,
      "arkadaşlar": 5497,
      "kurulumu": 5498,
      "gözükmüyor": 5499,
      "tavsiye": 5500,
      "köftecisi": 5501,
      "kalitesizliği": 5502,
      "oradan": 5503,
      "eureko": 5504,
      "borcum": 5505,
      "##wers": 5506,
      "mahallesi": 5507,
      "sağlayıcısı": 5508,
      "mavibahçe": 5509,
      "poşet": 5510,
      "mısır": 5511,
      "aw": 5512,
      "food": 5513,
      "kele": 5514,
      "##eder": 5515,
      "##gar": 5516,
      "##15": 5517,
      "##xx": 5518,
      "##mada": 5519,
      "##dion": 5520,
      "çor": 5521,
      "sunmuyor": 5522,
      "##elit": 5523,
      "yüksel": 5524,
      "olmalı": 5525,
      "akıcı": 5526,
      "çözüme": 5527,
      "yazılı": 5528,
      "kamu": 5529,
      "atıyor": 5530,
      "takibi": 5531,
      "##ınabilir": 5532,
      "##ift": 5533,
      "moderasyon": 5534,
      "towers": 5535,
      "şikayeti": 5536,
      "yelpazesine": 5537,
      "bayis": 5538,
      "yayınevi": 5539,
      "fincan": 5540,
      "görünmüyor": 5541,
      "avantajı": 5542,
      "list": 5543,
      "satışı": 5544,
      "vatandaş": 5545,
      "dönemde": 5546,
      "dokun": 5547,
      "annem": 5548,
      "yaklaşım": 5549,
      "üretici": 5550,
      "hijyenik": 5551,
      "izleyiciler": 5552,
      "keyifli": 5553,
      "yapılır": 5554,
      "yürütüyor": 5555,
      "i̇stinyepark": 5556,
      "dyson": 5557,
      "profesyonellikten": 5558,
      "pfizer": 5559,
      "kıyafet": 5560,
      "molfix": 5561,
      "gordion": 5562,
      "80": 5563,
      "me": 5564,
      "pre": 5565,
      "pelit": 5566,
      "##sk": 5567,
      "##sak": 5568,
      "##iel": 5569,
      "##hh": 5570,
      "##anak": 5571,
      "endü": 5572,
      "kıv": 5573,
      "##lendi": 5574,
      "yandı": 5575,
      "belirgin": 5576,
      "gönderim": 5577,
      "şubeniz": 5578,
      "edilmeyen": 5579,
      "tanım": 5580,
      "ergon": 5581,
      "girdiğimde": 5582,
      "##masının": 5583,
      "şikayetimi": 5584,
      "filmi": 5585,
      "otok": 5586,
      "abar": 5587,
      "sonuçta": 5588,
      "aldıktan": 5589,
      "gazi": 5590,
      "yaşadığını": 5591,
      "sinpaş": 5592,
      "koltu": 5593,
      "serg": 5594,
      "önerileri": 5595,
      "olmayabiliyor": 5596,
      "sektör": 5597,
      "itibariyle": 5598,
      "zinciridir": 5599,
      "çocuğum": 5600,
      "takdirde": 5601,
      "ulaşılamıyor": 5602,
      "olmuştur": 5603,
      "cadde": 5604,
      "endüstr": 5605,
      "49": 5606,
      "fah": 5607,
      "mür": 5608,
      "nut": 5609,
      "tır": 5610,
      "##set": 5611,
      "##teyim": 5612,
      "##aj": 5613,
      "##gk": 5614,
      "##mm": 5615,
      "##hmet": 5616,
      "##liğini": 5617,
      "üm": 5618,
      "bira": 5619,
      "##mevim": 5620,
      "etmedi": 5621,
      "mod": 5622,
      "amaç": 5623,
      "edilecek": 5624,
      "bilmiyor": 5625,
      "eks": 5626,
      "##usuz": 5627,
      "##lenen": 5628,
      "akışı": 5629,
      "tarihine": 5630,
      "telefonumu": 5631,
      "geçmedi": 5632,
      "öncelikle": 5633,
      "azından": 5634,
      "firmasından": 5635,
      "söyleyip": 5636,
      "##rosu": 5637,
      "izin": 5638,
      "bayat": 5639,
      "başvura": 5640,
      "teknikdestek": 5641,
      "başvurusu": 5642,
      "yapıyorsunuz": 5643,
      "aşk": 5644,
      "benimle": 5645,
      "sıkıntılı": 5646,
      "lider": 5647,
      "okul": 5648,
      "devamlı": 5649,
      "reza": 5650,
      "personelin": 5651,
      "onaylandı": 5652,
      "isim": 5653,
      "dağıtı": 5654,
      "motoru": 5655,
      "yıka": 5656,
      "sokağa": 5657,
      "mağduriyetimin": 5658,
      "endişe": 5659,
      "dinamik": 5660,
      "kadrosu": 5661,
      "mikro": 5662,
      "yayıncılara": 5663,
      "ısrar": 5664,
      "sorumsuzluk": 5665,
      "vermediğini": 5666,
      "yırt": 5667,
      "pişirme": 5668,
      "gözlüğü": 5669,
      "ihtiyacım": 5670,
      "tehdit": 5671,
      "sorduğumda": 5672,
      "bütçemi": 5673,
      "ilişki": 5674,
      "vialand": 5675,
      "talimat": 5676,
      "kocaeli": 5677,
      "kipa": 5678,
      "katılımevim": 5679,
      "nutella": 5680,
      "bk": 5681,
      "ci": 5682,
      "cnn": 5683,
      "dü": 5684,
      "far": 5685,
      "green": 5686,
      "id": 5687,
      "pom": 5688,
      "##fı": 5689,
      "##van": 5690,
      "##13": 5691,
      "##way": 5692,
      "##dil": 5693,
      "##dal": 5694,
      "##amın": 5695,
      "şen": 5696,
      "yapabilir": 5697,
      "##eyiz": 5698,
      "aralığı": 5699,
      "servisin": 5700,
      "suç": 5701,
      "yerinden": 5702,
      "uygulamasından": 5703,
      "ücretinin": 5704,
      "turkuv": 5705,
      "cihazım": 5706,
      "teknolojiler": 5707,
      "verdiğimiz": 5708,
      "nisanda": 5709,
      "resim": 5710,
      "salgın": 5711,
      "okun": 5712,
      "sitede": 5713,
      "panora": 5714,
      "gecikmesi": 5715,
      "1000": 5716,
      "boşuna": 5717,
      "metrocity": 5718,
      "the": 5719,
      "dominos": 5720,
      "cumartesi": 5721,
      "çarş": 5722,
      "civarı": 5723,
      "inceleme": 5724,
      "ayrıntı": 5725,
      "düğün": 5726,
      "kağıt": 5727,
      "ciner": 5728,
      "alakası": 5729,
      "çapında": 5730,
      "kurutma": 5731,
      "gazetesi": 5732,
      "materyalleri": 5733,
      "turkuvaz": 5734,
      "agor": 5735,
      "bt": 5736,
      "bıç": 5737,
      "fan": 5738,
      "fast": 5739,
      "gür": 5740,
      "luk": 5741,
      "mec": 5742,
      "out": 5743,
      "sarı": 5744,
      "zeka": 5745,
      "##sen": 5746,
      "##taki": 5747,
      "##det": 5748,
      "##bek": 5749,
      "##ho": 5750,
      "##18": 5751,
      "##lav": 5752,
      "##esiyim": 5753,
      "üt": 5754,
      "kullanıyoruz": 5755,
      "anlaya": 5756,
      "yapmadı": 5757,
      "tespit": 5758,
      "dia": 5759,
      "##miştim": 5760,
      "çalık": 5761,
      "telefonlar": 5762,
      "evin": 5763,
      "döner": 5764,
      "atıyorum": 5765,
      "değildi": 5766,
      "ücretlerinin": 5767,
      "çözümleriyle": 5768,
      "araya": 5769,
      "bizden": 5770,
      "girip": 5771,
      "ödemeyi": 5772,
      "turkey": 5773,
      "reklamsız": 5774,
      "süper": 5775,
      "arızalandı": 5776,
      "tüken": 5777,
      "olursanız": 5778,
      "kutusu": 5779,
      "alıyoruz": 5780,
      "i̇nternetten": 5781,
      "güçlüdür": 5782,
      "##alım": 5783,
      "sıv": 5784,
      "sırada": 5785,
      "tahsil": 5786,
      "tüketimi": 5787,
      "eleman": 5788,
      "sayılı": 5789,
      "cepa": 5790,
      "kusurlu": 5791,
      "pamukkale": 5792,
      "sivil": 5793,
      "kargonun": 5794,
      "havayol": 5795,
      "ergonomik": 5796,
      "dağıtıma": 5797,
      "agora": 5798,
      "cay": 5799,
      "ez": 5800,
      "fit": 5801,
      "hort": 5802,
      "ram": 5803,
      "##ds": 5804,
      "##cc": 5805,
      "##cord": 5806,
      "##gal": 5807,
      "##ze": 5808,
      "##48": 5809,
      "##mail": 5810,
      "##madığını": 5811,
      "kale": 5812,
      "##ilme": 5813,
      "sunula": 5814,
      "anlamıyorum": 5815,
      "##ciler": 5816,
      "sürüş": 5817,
      "koz": 5818,
      "##maktayım": 5819,
      "akmer": 5820,
      "onlar": 5821,
      "bulunmuyor": 5822,
      "bulunamadı": 5823,
      "kural": 5824,
      "merkezine": 5825,
      "belirtti": 5826,
      "makro": 5827,
      "power": 5828,
      "haft": 5829,
      "2015": 5830,
      "bear": 5831,
      "beden": 5832,
      "getirmiyor": 5833,
      "verilmiş": 5834,
      "ettiğimde": 5835,
      "tutarı": 5836,
      "yelpazeye": 5837,
      "reklamlar": 5838,
      "##örü": 5839,
      "kanyon": 5840,
      "düşünmüyor": 5841,
      "lig": 5842,
      "kargomun": 5843,
      "merkezidir": 5844,
      "250": 5845,
      "kanalları": 5846,
      "bildirdim": 5847,
      "gerektiği": 5848,
      "yapmıyorlar": 5849,
      "##düğü": 5850,
      "lekeler": 5851,
      "engel": 5852,
      "sayısı": 5853,
      "oyalıyor": 5854,
      "kahvaltı": 5855,
      "doğadan": 5856,
      "dekor": 5857,
      "aq": 5858,
      "hikay": 5859,
      "pull": 5860,
      "sult": 5861,
      "##ss": 5862,
      "##ser": 5863,
      "##ıyla": 5864,
      "##hale": 5865,
      "defor": 5866,
      "şans": 5867,
      "##leriniz": 5868,
      "##cafe": 5869,
      "##rah": 5870,
      "başlığı": 5871,
      "sorunum": 5872,
      "##yebilir": 5873,
      "##anahmet": 5874,
      "telefondan": 5875,
      "yazan": 5876,
      "geçmeden": 5877,
      "yarış": 5878,
      "kredim": 5879,
      "gönül": 5880,
      "gönderilmiş": 5881,
      "belirttim": 5882,
      "siteniz": 5883,
      "ediyorsunuz": 5884,
      "konuşt": 5885,
      "deneyimli": 5886,
      "##lerimiz": 5887,
      "kaldık": 5888,
      "yolda": 5889,
      "prima": 5890,
      "şikayette": 5891,
      "sonuc": 5892,
      "siparişimde": 5893,
      "makinenin": 5894,
      "numaramı": 5895,
      "adeta": 5896,
      "insanların": 5897,
      "superfresh": 5898,
      "yaptığı": 5899,
      "isimli": 5900,
      "maske": 5901,
      "patladı": 5902,
      "patates": 5903,
      "adil": 5904,
      "başta": 5905,
      "çevrem": 5906,
      "eşimin": 5907,
      "düşünüyoruz": 5908,
      "projelerle": 5909,
      "herkese": 5910,
      "çatlak": 5911,
      "uğrat": 5912,
      "ıslak": 5913,
      "çantaları": 5914,
      "operatör": 5915,
      "şampiyon": 5916,
      "risk": 5917,
      "bagaj": 5918,
      "ankamall": 5919,
      "sıvı": 5920,
      "akmerkez": 5921,
      "sultanahmet": 5922,
      "32": 5923,
      "camı": 5924,
      "sofi": 5925,
      "##sek": 5926,
      "##nu": 5927,
      "##kk": 5928,
      "##ace": 5929,
      "##yıp": 5930,
      "##yurt": 5931,
      "##oil": 5932,
      "##gisel": 5933,
      "##zerv": 5934,
      "##hn": 5935,
      "dağ": 5936,
      "##ulmuş": 5937,
      "##ımıza": 5938,
      "sunuluyor": 5939,
      "şof": 5940,
      "karıştır": 5941,
      "kullanmış": 5942,
      "hizmetlerinin": 5943,
      "saf": 5944,
      "sav": 5945,
      "vermeye": 5946,
      "ted": 5947,
      "mogaz": 5948,
      "başında": 5949,
      "##iber": 5950,
      "isten": 5951,
      "gereği": 5952,
      "paranın": 5953,
      "evden": 5954,
      "görmek": 5955,
      "gördüğüm": 5956,
      "sean": 5957,
      "teslimi": 5958,
      "düzenlemesi": 5959,
      "beyan": 5960,
      "özellikleriyle": 5961,
      "televizyonum": 5962,
      "çalışanları": 5963,
      "##peace": 5964,
      "yenilikler": 5965,
      "##eğin": 5966,
      "tarifeleri": 5967,
      "ticari": 5968,
      "discord": 5969,
      "görseller": 5970,
      "nescafe": 5971,
      "##ekkür": 5972,
      "kolaylaştırıyor": 5973,
      "tartış": 5974,
      "john": 5975,
      "prezerv": 5976,
      "abartılı": 5977,
      "eksper": 5978,
      "rezalet": 5979,
      "düdük": 5980,
      "greenpeace": 5981,
      "lukoil": 5982,
      "sofistik": 5983,
      "prezervatif": 5984,
      "aya": 5985,
      "fli": 5986,
      "hi": 5987,
      "hey": 5988,
      "kle": 5989,
      "reh": 5990,
      "sn": 5991,
      "sw": 5992,
      "sgk": 5993,
      "##ick": 5994,
      "##pt": 5995,
      "##dc": 5996,
      "##dle": 5997,
      "##cam": 5998,
      "##bel": 5999,
      "##vo": 6000,
      "##vh": 6001,
      "##77": 6002,
      "##12": 6003,
      "##ğinden": 6004,
      "##çı": 6005,
      "birik": 6006,
      "##asit": 6007,
      "##isinde": 6008,
      "yaparak": 6009,
      "i̇la": 6010,
      "sapı": 6011,
      "sürüyor": 6012,
      "##litesi": 6013,
      "güne": 6014,
      "bence": 6015,
      "deniliyor": 6016,
      "istina": 6017,
      "zamanla": 6018,
      "çekiliş": 6019,
      "alışverişlerimde": 6020,
      "kredisine": 6021,
      "dönen": 6022,
      "traktör": 6023,
      "kapasit": 6024,
      "mağazadan": 6025,
      "##dikten": 6026,
      "yatmadı": 6027,
      "beda": 6028,
      "tasarımlarıyla": 6029,
      "##mıştık": 6030,
      "şikayetçi": 6031,
      "yenilikçidir": 6032,
      "devir": 6033,
      "edecek": 6034,
      "ikamet": 6035,
      "##bot": 6036,
      "##lığın": 6037,
      "donuyor": 6038,
      "gri": 6039,
      "borcu": 6040,
      "kutuyu": 6041,
      "memnuniyetsizliği": 6042,
      "kaçır": 6043,
      "doğrudan": 6044,
      "dönemlerinde": 6045,
      "alliance": 6046,
      "tatlıları": 6047,
      "pazarlama": 6048,
      "ettirdim": 6049,
      "kesintisiz": 6050,
      "kesintileri": 6051,
      "besleyici": 6052,
      "tuva": 6053,
      "anlayış": 6054,
      "yıldızı": 6055,
      "##sorunu": 6056,
      "teşekkür": 6057,
      "gerekirken": 6058,
      "konyalı": 6059,
      "inanılmaz": 6060,
      "nakit": 6061,
      "sezgisel": 6062,
      "kampanyasından": 6063,
      "danışman": 6064,
      "granit": 6065,
      "kelebek": 6066,
      "bkm": 6067,
      "sofistike": 6068,
      "klein": 6069,
      "istinaden": 6070,
      "120": 6071,
      "cis": 6072,
      "eba": 6073,
      "gb": 6074,
      "mua": 6075,
      "van": 6076,
      "##luluğu": 6077,
      "##tiniz": 6078,
      "##pr": 6079,
      "##udur": 6080,
      "##iliz": 6081,
      "##dahale": 6082,
      "çift": 6083,
      "##stal": 6084,
      "kullanılmış": 6085,
      "algi": 6086,
      "##isinin": 6087,
      "##dığından": 6088,
      "yapmadılar": 6089,
      "##tima": 6090,
      "aydan": 6091,
      "hadi": 6092,
      "uydu": 6093,
      "gelme": 6094,
      "edili": 6095,
      "bildi": 6096,
      "##meniz": 6097,
      "çeki": 6098,
      "çektim": 6099,
      "karşılamak": 6100,
      "ödemek": 6101,
      "gönderdiğim": 6102,
      "kurt": 6103,
      "geldiler": 6104,
      "ücretin": 6105,
      "görüyorum": 6106,
      "belirtilen": 6107,
      "##dakat": 6108,
      "##malısınız": 6109,
      "kenar": 6110,
      "girmiyor": 6111,
      "bıraktım": 6112,
      "biten": 6113,
      "aselsan": 6114,
      "parçalar": 6115,
      "koleksiyonlar": 6116,
      "ligi": 6117,
      "taşınabilir": 6118,
      "kısım": 6119,
      "nereden": 6120,
      "bozuluyor": 6121,
      "işletim": 6122,
      "boşa": 6123,
      "i̇lgili": 6124,
      "pişmanlık": 6125,
      "seçim": 6126,
      "balık": 6127,
      "keyf": 6128,
      "i̇lgisizlik": 6129,
      "ferah": 6130,
      "fahiş": 6131,
      "aqua": 6132,
      "algida": 6133,
      "36": 6134,
      "ata": 6135,
      "bol": 6136,
      "ck": 6137,
      "ces": 6138,
      "chat": 6139,
      "cry": 6140,
      "ib": 6141,
      "ndan": 6142,
      "qu": 6143,
      "##geç": 6144,
      "##imizi": 6145,
      "##landığını": 6146,
      "kulüp": 6147,
      "yapmama": 6148,
      "##cevh": 6149,
      "##iyoruz": 6150,
      "müdahale": 6151,
      "mücevh": 6152,
      "ayının": 6153,
      "tea": 6154,
      "gelmeden": 6155,
      "##larınızı": 6156,
      "kargolanmadı": 6157,
      "nef": 6158,
      "tekst": 6159,
      "koli": 6160,
      "kola": 6161,
      "hızda": 6162,
      "maili": 6163,
      "##use": 6164,
      "##mişti": 6165,
      "herhal": 6166,
      "yaşıyoruz": 6167,
      "tarihte": 6168,
      "bilek": 6169,
      "belirsizlik": 6170,
      "gönderme": 6171,
      "ulaşama": 6172,
      "geride": 6173,
      "hatır": 6174,
      "merkezinde": 6175,
      "seans": 6176,
      "2014": 6177,
      "etmem": 6178,
      "tuttur": 6179,
      "mağdurum": 6180,
      "##ooter": 6181,
      "faturayı": 6182,
      "kolaylığı": 6183,
      "malum": 6184,
      "marath": 6185,
      "hakkımı": 6186,
      "resort": 6187,
      "vakfı": 6188,
      "kartımı": 6189,
      "yapacağız": 6190,
      "çaykur": 6191,
      "almadım": 6192,
      "lezzetlidir": 6193,
      "adrese": 6194,
      "hastane": 6195,
      "reeder": 6196,
      "telefonumda": 6197,
      "dünyada": 6198,
      "çizik": 6199,
      "taahhü": 6200,
      "dolab": 6201,
      "oluşan": 6202,
      "yakışmadı": 6203,
      "gecikmeler": 6204,
      "hambur": 6205,
      "donanımları": 6206,
      "yoluyla": 6207,
      "scooter": 6208,
      "otomotiv": 6209,
      "kablos": 6210,
      "civarında": 6211,
      "yöntem": 6212,
      "kozm": 6213,
      "deforme": 6214,
      "marathon": 6215,
      "47": 6216,
      "444": 6217,
      "5g": 6218,
      "dö": 6219,
      "dum": 6220,
      "hor": 6221,
      "holland": 6222,
      "tro": 6223,
      "##ny": 6224,
      "##aa": 6225,
      "##22": 6226,
      "##letim": 6227,
      "##ekyol": 6228,
      "##esiyle": 6229,
      "çet": 6230,
      "bulan": 6231,
      "şan": 6232,
      "aylardır": 6233,
      "sadakat": 6234,
      "sorgu": 6235,
      "modan": 6236,
      "gelmeye": 6237,
      "parlak": 6238,
      "etkiliyor": 6239,
      "##mıyorlar": 6240,
      "ödeyerek": 6241,
      "yüzde": 6242,
      "ulaşılmıyor": 6243,
      "tri": 6244,
      "daniel": 6245,
      "erim": 6246,
      "platformlar": 6247,
      "paketin": 6248,
      "hayır": 6249,
      "bitiyor": 6250,
      "özelliklerin": 6251,
      "saniye": 6252,
      "kupon": 6253,
      "ağz": 6254,
      "çalışanı": 6255,
      "bio": 6256,
      "yaptığınız": 6257,
      "kabar": 6258,
      "vermiştim": 6259,
      "bezi": 6260,
      "tencer": 6261,
      "fiba": 6262,
      "arkas": 6263,
      "çağırdık": 6264,
      "arandım": 6265,
      "ilç": 6266,
      "florya": 6267,
      "prestijlidir": 6268,
      "portföyüne": 6269,
      "kişiselleştirilmiş": 6270,
      "olabileceğini": 6271,
      "zorunlu": 6272,
      "kullanıcısıyım": 6273,
      "çarşamba": 6274,
      "dekorasyon": 6275,
      "düdüklü": 6276,
      "herhalde": 6277,
      "kozmetik": 6278,
      "400": 6279,
      "cip": 6280,
      "hd": 6281,
      "iler": 6282,
      "nu": 6283,
      "pin": 6284,
      "##sinden": 6285,
      "##ii": 6286,
      "##idi": 6287,
      "##alış": 6288,
      "##pedia": 6289,
      "##zz": 6290,
      "##ffe": 6291,
      "##holding": 6292,
      "birbir": 6293,
      "##amız": 6294,
      "bulamıyor": 6295,
      "alına": 6296,
      "gelmesini": 6297,
      "##cape": 6298,
      "markasına": 6299,
      "duruma": 6300,
      "çekip": 6301,
      "çözü": 6302,
      "yanıyor": 6303,
      "##linin": 6304,
      "yargı": 6305,
      "durumunda": 6306,
      "##lül": 6307,
      "belirli": 6308,
      "yüzüğ": 6309,
      "yüzeysel": 6310,
      "çözümü": 6311,
      "gitmek": 6312,
      "doğan": 6313,
      "kırmızı": 6314,
      "kayıp": 6315,
      "güncellemesi": 6316,
      "haksızlık": 6317,
      "kalyon": 6318,
      "kalmış": 6319,
      "dönüşler": 6320,
      "ödemem": 6321,
      "alacağım": 6322,
      "onlinealış": 6323,
      "##olux": 6324,
      "sırf": 6325,
      "roman": 6326,
      "marketlere": 6327,
      "elbis": 6328,
      "resmi": 6329,
      "kapatıp": 6330,
      "krizi": 6331,
      "kayıtlı": 6332,
      "paramız": 6333,
      "sürecinin": 6334,
      "kazanç": 6335,
      "expedia": 6336,
      "meydana": 6337,
      "##medikleri": 6338,
      "defolu": 6339,
      "interneti": 6340,
      "esenyurt": 6341,
      "tedavi": 6342,
      "electrolux": 6343,
      "ayrıntılı": 6344,
      "mecbur": 6345,
      "cayma": 6346,
      "i̇laç": 6347,
      "onlinealışveriş": 6348,
      "65": 6349,
      "ax": 6350,
      "ajan": 6351,
      "bon": 6352,
      "cha": 6353,
      "glor": 6354,
      "ir": 6355,
      "ibar": 6356,
      "tos": 6357,
      "vize": 6358,
      "##eğini": 6359,
      "##49": 6360,
      "##46": 6361,
      "##35": 6362,
      "##88": 6363,
      "##well": 6364,
      "##erler": 6365,
      "##ind": 6366,
      "##larımın": 6367,
      "çıt": 6368,
      "##ikin": 6369,
      "aldığıma": 6370,
      "yapama": 6371,
      "##ıldığı": 6372,
      "i̇b": 6373,
      "##ankaya": 6374,
      "öner": 6375,
      "güya": 6376,
      "açtır": 6377,
      "##kalitesi": 6378,
      "termos": 6379,
      "evimde": 6380,
      "yılda": 6381,
      "azure": 6382,
      "##yanın": 6383,
      "firmasına": 6384,
      "biletleri": 6385,
      "oyunlar": 6386,
      "hepsij": 6387,
      "izlerken": 6388,
      "gelenek": 6389,
      "modeller": 6390,
      "##türk": 6391,
      "kate": 6392,
      "##look": 6393,
      "limak": 6394,
      "kalitesinin": 6395,
      "adresime": 6396,
      "lcw": 6397,
      "oturuyorum": 6398,
      "elimize": 6399,
      "bari": 6400,
      "verdikleri": 6401,
      "çağırdım": 6402,
      "geçerli": 6403,
      "kullanıyordum": 6404,
      "müşteriye": 6405,
      "servisten": 6406,
      "ayıplı": 6407,
      "otomobil": 6408,
      "düzeyde": 6409,
      "adresi": 6410,
      "ucuz": 6411,
      "level": 6412,
      "eylül": 6413,
      "arıtma": 6414,
      "şenpiliç": 6415,
      "havayolları": 6416,
      "tuvalet": 6417,
      "modanisa": 6418,
      "gloria": 6419,
      "hepsijet": 6420,
      "bilir": 6421,
      "heye": 6422,
      "jelli": 6423,
      "west": 6424,
      "##iğ": 6425,
      "##ll": 6426,
      "##dor": 6427,
      "##dora": 6428,
      "##here": 6429,
      "##arn": 6430,
      "daikin": 6431,
      "##dig": 6432,
      "kaf": 6433,
      "birisi": 6434,
      "##ayi": 6435,
      "almadan": 6436,
      "yapmadan": 6437,
      "hizmetlerinden": 6438,
      "##lerinizi": 6439,
      "##tiç": 6440,
      "dental": 6441,
      "tekel": 6442,
      "##este": 6443,
      "istik": 6444,
      "##mediğini": 6445,
      "akü": 6446,
      "ondan": 6447,
      "destekle": 6448,
      "saatin": 6449,
      "yerlere": 6450,
      "taraflı": 6451,
      "tarafsız": 6452,
      "ateş": 6453,
      "göndermiyor": 6454,
      "üzerindeki": 6455,
      "işlemini": 6456,
      "işlemlerini": 6457,
      "erte": 6458,
      "bec": 6459,
      "sahibi": 6460,
      "bilgilerimi": 6461,
      "hotiç": 6462,
      "bunlar": 6463,
      "diyorsunuz": 6464,
      "filmin": 6465,
      "beklediğim": 6466,
      "üstünde": 6467,
      "cihazın": 6468,
      "karttan": 6469,
      "kolaydır": 6470,
      "bulunabilirliği": 6471,
      "##ımızın": 6472,
      "katkı": 6473,
      "hakkı": 6474,
      "toplum": 6475,
      "veriyorlar": 6476,
      "öğrenmek": 6477,
      "anker": 6478,
      "hediyesi": 6479,
      "i̇çeri": 6480,
      "pandora": 6481,
      "tavır": 6482,
      "kodland": 6483,
      "mantık": 6484,
      "esnasında": 6485,
      "olunca": 6486,
      "yasağı": 6487,
      "kendini": 6488,
      "yapılacağı": 6489,
      "lav": 6490,
      "tiktok": 6491,
      "çalıştığım": 6492,
      "kışın": 6493,
      "##abileceğim": 6494,
      "##ctus": 6495,
      "fonksiyonel": 6496,
      "rayban": 6497,
      "bıktım": 6498,
      "cactus": 6499,
      "umursa": 6500,
      "geleneksel": 6501,
      "heyecan": 6502,
      "jellia": 6503,
      "4k": 6504,
      "600": 6505,
      "biber": 6506,
      "if": 6507,
      "kil": 6508,
      "lex": 6509,
      "pad": 6510,
      "tel": 6511,
      "varken": 6512,
      "yeme": 6513,
      "##rr": 6514,
      "##tb": 6515,
      "##ada": 6516,
      "##don": 6517,
      "##jj": 6518,
      "##qq": 6519,
      "##are": 6520,
      "##şimi": 6521,
      "##irken": 6522,
      "##ation": 6523,
      "##diğini": 6524,
      "kaşık": 6525,
      "##ağın": 6526,
      "şaka": 6527,
      "##ılmıştır": 6528,
      "sapan": 6529,
      "vermeden": 6530,
      "##reon": 6531,
      "zamana": 6532,
      "diesel": 6533,
      "işbir": 6534,
      "isteme": 6535,
      "sürebiliyor": 6536,
      "özgü": 6537,
      "##lenmiyor": 6538,
      "varmış": 6539,
      "karşılıyor": 6540,
      "ödeye": 6541,
      "yerlerde": 6542,
      "dönemi": 6543,
      "satıyor": 6544,
      "avru": 6545,
      "arayın": 6546,
      "eksikliği": 6547,
      "işlemci": 6548,
      "işlemlerimi": 6549,
      "faturalar": 6550,
      "konularında": 6551,
      "##lerime": 6552,
      "platformda": 6553,
      "paketini": 6554,
      "içeriklerle": 6555,
      "içerikleriyle": 6556,
      "coffe": 6557,
      "##mamız": 6558,
      "bağlanamıyorum": 6559,
      "rahatlatıcı": 6560,
      "sens": 6561,
      "değiştirdim": 6562,
      "hesabı": 6563,
      "hesabım": 6564,
      "ağrı": 6565,
      "vaatlerde": 6566,
      "hediy": 6567,
      "i̇çinden": 6568,
      "yatırımları": 6569,
      "götürdüğüm": 6570,
      "istiyorlar": 6571,
      "üyeliği": 6572,
      "patreon": 6573,
      "imkanları": 6574,
      "##imizin": 6575,
      "restoranları": 6576,
      "pazarında": 6577,
      "tuğ": 6578,
      "adıma": 6579,
      "defasında": 6580,
      "dökül": 6581,
      "suyun": 6582,
      "titan": 6583,
      "gizlilik": 6584,
      "saatlerce": 6585,
      "kosko": 6586,
      "kilit": 6587,
      "vazgeç": 6588,
      "outlook": 6589,
      "bedava": 6590,
      "crystal": 6591,
      "lexus": 6592,
      "avrupa": 6593,
      "cil": 6594,
      "niyet": 6595,
      "payı": 6596,
      "tü": 6597,
      "tura": 6598,
      "yv": 6599,
      "##syon": 6600,
      "##rana": 6601,
      "##com": 6602,
      "##79": 6603,
      "##enize": 6604,
      "##ire": 6605,
      "##esindeki": 6606,
      "##melerine": 6607,
      "armada": 6608,
      "ethere": 6609,
      "i̇h": 6610,
      "sürüm": 6611,
      "edilebilir": 6612,
      "##usunda": 6613,
      "yoktur": 6614,
      "yaşama": 6615,
      "oraya": 6616,
      "vardır": 6617,
      "bozacı": 6618,
      "onlarda": 6619,
      "uzman": 6620,
      "##tanın": 6621,
      "ürünlere": 6622,
      "durumun": 6623,
      "##luğ": 6624,
      "ulaşamıyoruz": 6625,
      "gereksiz": 6626,
      "faturalı": 6627,
      "prim": 6628,
      "alamıyoruz": 6629,
      "bankadır": 6630,
      "##ics": 6631,
      "kendisi": 6632,
      "sabit": 6633,
      "bağlanmıyor": 6634,
      "##ooth": 6635,
      "parçaları": 6636,
      "senelik": 6637,
      "hakkım": 6638,
      "koleksiyonuna": 6639,
      "##ehmet": 6640,
      "şubeden": 6641,
      "martta": 6642,
      "i̇çinde": 6643,
      "anlaşma": 6644,
      "bimeks": 6645,
      "dönemleri": 6646,
      "kapandı": 6647,
      "esnaf": 6648,
      "şehirler": 6649,
      "yapılmaması": 6650,
      "beklentileri": 6651,
      "görüştüğ": 6652,
      "faydalan": 6653,
      "##ılabilir": 6654,
      "maxwell": 6655,
      "europa": 6656,
      "##rahim": 6657,
      "sonucunda": 6658,
      "hamburger": 6659,
      "ajansı": 6660,
      "tuğba": 6661,
      "ethereum": 6662,
      "bozacısı": 6663,
      "darb": 6664,
      "lü": 6665,
      "nı": 6666,
      "ner": 6667,
      "ocağ": 6668,
      "tin": 6669,
      "##io": 6670,
      "##luyor": 6671,
      "##kal": 6672,
      "##tay": 6673,
      "##teki": 6674,
      "##pg": 6675,
      "##ıc": 6676,
      "##ova": 6677,
      "##ücü": 6678,
      "##şembe": 6679,
      "##inç": 6680,
      "##ladık": 6681,
      "##undig": 6682,
      "##ese": 6683,
      "##lanması": 6684,
      "##işehir": 6685,
      "##asy": 6686,
      "##ştan": 6687,
      "##iyorsunuz": 6688,
      "aylarında": 6689,
      "aradılar": 6690,
      "fiyatlandır": 6691,
      "siparişini": 6692,
      "tava": 6693,
      "##laşma": 6694,
      "güc": 6695,
      "diğ": 6696,
      "##yoner": 6697,
      "aldığımdan": 6698,
      "sıklıkla": 6699,
      "değişmesi": 6700,
      "turu": 6701,
      "turnu": 6702,
      "iadem": 6703,
      "yerinde": 6704,
      "gönderilen": 6705,
      "göndermişler": 6706,
      "avuk": 6707,
      "mağazalarda": 6708,
      "bağır": 6709,
      "deneyimler": 6710,
      "sahte": 6711,
      "verilmesi": 6712,
      "biletin": 6713,
      "bankalardan": 6714,
      "##ckr": 6715,
      "reklamlarında": 6716,
      "tekrardan": 6717,
      "kendileri": 6718,
      "muht": 6719,
      "ürününü": 6720,
      "sanayi": 6721,
      "abdi": 6722,
      "##log": 6723,
      "hakkınız": 6724,
      "aksam": 6725,
      "grundig": 6726,
      "boru": 6727,
      "televizyonu": 6728,
      "okuma": 6729,
      "sütas": 6730,
      "promosyonlar": 6731,
      "ortamı": 6732,
      "gaming": 6733,
      "kulaklıkları": 6734,
      "yazısı": 6735,
      "gelişme": 6736,
      "malzemeleri": 6737,
      "kaybı": 6738,
      "virüsü": 6739,
      "raporları": 6740,
      "yağlı": 6741,
      "üzeri": 6742,
      "##larımızı": 6743,
      "alamadık": 6744,
      "faydalı": 6745,
      "yarısı": 6746,
      "flormar": 6747,
      "ulaşılama": 6748,
      "yiyecek": 6749,
      "liraya": 6750,
      "vadeli": 6751,
      "bluet": 6752,
      "rocher": 6753,
      "kuyum": 6754,
      "aws": 6755,
      "sergiliyor": 6756,
      "flickr": 6757,
      "rehber": 6758,
      "tosla": 6759,
      "i̇brahim": 6760,
      "yves": 6761,
      "turnuva": 6762,
      "nesine": 6763,
      "wi": 6764,
      "##nim": 6765,
      "##aca": 6766,
      "##amadık": 6767,
      "##port": 6768,
      "##yet": 6769,
      "##yak": 6770,
      "##zit": 6771,
      "##43": 6772,
      "##hora": 6773,
      "##ern": 6774,
      "kasiy": 6775,
      "dep": 6776,
      "dem": 6777,
      "dediğimde": 6778,
      "##emiş": 6779,
      "##alt": 6780,
      "kullanıcıları": 6781,
      "vere": 6782,
      "vererek": 6783,
      "sonuna": 6784,
      "##larındaki": 6785,
      "denedi": 6786,
      "siparişte": 6787,
      "bilyoner": 6788,
      "önünde": 6789,
      "ekte": 6790,
      "mama": 6791,
      "başk": 6792,
      "olduğuna": 6793,
      "çeşitliliğ": 6794,
      "perşembe": 6795,
      "##abil": 6796,
      "durmuyor": 6797,
      "##omet": 6798,
      "telefonlarıyla": 6799,
      "karşılama": 6800,
      "yaramıyor": 6801,
      "saatlerde": 6802,
      "çalışmaları": 6803,
      "ilginç": 6804,
      "gördük": 6805,
      "günceldir": 6806,
      "erpiliç": 6807,
      "##lerimin": 6808,
      "##ılıp": 6809,
      "verilmesini": 6810,
      "verilmemiş": 6811,
      "kişinin": 6812,
      "##siyim": 6813,
      "bilgisayarı": 6814,
      "amd": 6815,
      "farklılıkları": 6816,
      "firmalar": 6817,
      "firmayı": 6818,
      "ikisi": 6819,
      "çevir": 6820,
      "kimlik": 6821,
      "ambalajlama": 6822,
      "##loud": 6823,
      "licape": 6824,
      "insanlara": 6825,
      "ihtiyaçlara": 6826,
      "cardin": 6827,
      "söyleniyor": 6828,
      "metal": 6829,
      "yaratabilir": 6830,
      "alıyorlar": 6831,
      "süpürgem": 6832,
      "mekaniz": 6833,
      "haziranda": 6834,
      "duyur": 6835,
      "twitter": 6836,
      "beklenen": 6837,
      "##fian": 6838,
      "planları": 6839,
      "koymuş": 6840,
      "eşime": 6841,
      "değerlendirilebilir": 6842,
      "salonu": 6843,
      "maddi": 6844,
      "bulabilir": 6845,
      "havuz": 6846,
      "geçmişe": 6847,
      "sephora": 6848,
      "lufian": 6849,
      "bütçelere": 6850,
      "geçiştir": 6851,
      "şifremi": 6852,
      "komple": 6853,
      "sponsorluk": 6854,
      "kaşar": 6855,
      "düşünmüyorum": 6856,
      "horoz": 6857,
      "paddle": 6858,
      "bluetooth": 6859,
      "33": 6860,
      "43": 6861,
      "ah": 6862,
      "hos": 6863,
      "mehmet": 6864,
      "##rim": 6865,
      "##rem": 6866,
      "##tınız": 6867,
      "##dat": 6868,
      "##gah": 6869,
      "##mark": 6870,
      "##73": 6871,
      "##xos": 6872,
      "##erik": 6873,
      "##leyip": 6874,
      "##madığım": 6875,
      "##çiliği": 6876,
      "##imden": 6877,
      "çeş": 6878,
      "çeyiz": 6879,
      "üs": 6880,
      "sunduğunu": 6881,
      "sunny": 6882,
      "##deniz": 6883,
      "##olon": 6884,
      "vermediler": 6885,
      "soran": 6886,
      "fiyata": 6887,
      "uyar": 6888,
      "teker": 6889,
      "başıma": 6890,
      "sorunla": 6891,
      "işin": 6892,
      "işleme": 6893,
      "zamandır": 6894,
      "zamansız": 6895,
      "yaşayabilir": 6896,
      "çekmiş": 6897,
      "performansını": 6898,
      "mersin": 6899,
      "uzay": 6900,
      "değişen": 6901,
      "ödedik": 6902,
      "gerekebilir": 6903,
      "görüyor": 6904,
      "avva": 6905,
      "kapsar": 6906,
      "yapılandırma": 6907,
      "araçların": 6908,
      "##mesinden": 6909,
      "polar": 6910,
      "##edeki": 6911,
      "##pper": 6912,
      "giremiyorum": 6913,
      "bilgiler": 6914,
      "stre": 6915,
      "sesler": 6916,
      "hepsini": 6917,
      "filo": 6918,
      "makineyi": 6919,
      "tutarında": 6920,
      "vadi": 6921,
      "donma": 6922,
      "gazlı": 6923,
      "##layacak": 6924,
      "maliyetler": 6925,
      "ürünümün": 6926,
      "ederek": 6927,
      "rixos": 6928,
      "alıyorsunuz": 6929,
      "yaptığımda": 6930,
      "şişeleri": 6931,
      "##mezse": 6932,
      "malzemeler": 6933,
      "soh": 6934,
      "marshal": 6935,
      "yataklar": 6936,
      "düzeltilmesini": 6937,
      "misli": 6938,
      "fiber": 6939,
      "yaptıktan": 6940,
      "##inkaya": 6941,
      "ödüyor": 6942,
      "yayıncılar": 6943,
      "çatal": 6944,
      "borcumu": 6945,
      "deterjanı": 6946,
      "sayac": 6947,
      "fişi": 6948,
      "yırtık": 6949,
      "##paşa": 6950,
      "tehlik": 6951,
      "##pital": 6952,
      "tanınan": 6953,
      "bloke": 6954,
      "özelleştirme": 6955,
      "aparatı": 6956,
      "işletme": 6957,
      "lokasyon": 6958,
      "kıvam": 6959,
      "sivilce": 6960,
      "şampiyonlar": 6961,
      "çetinkaya": 6962,
      "kategor": 6963,
      "koskoca": 6964,
      "hospital": 6965,
      "##market": 6966,
      "44": 6967,
      "alar": 6968,
      "dür": 6969,
      "gram": 6970,
      "jag": 6971,
      "nden": 6972,
      "peki": 6973,
      "pier": 6974,
      "##edaş": 6975,
      "##ron": 6976,
      "##ysa": 6977,
      "##camp": 6978,
      "##gara": 6979,
      "##budur": 6980,
      "##32": 6981,
      "##anıza": 6982,
      "##lal": 6983,
      "##daşı": 6984,
      "birim": 6985,
      "incel": 6986,
      "anlama": 6987,
      "hizmetin": 6988,
      "müh": 6989,
      "ekib": 6990,
      "sağlayan": 6991,
      "sorunumu": 6992,
      "##osi": 6993,
      "silah": 6994,
      "yüzük": 6995,
      "uygulamasında": 6996,
      "yapısı": 6997,
      "kırıl": 6998,
      "##mesin": 6999,
      "girdi": 7000,
      "paketler": 7001,
      "içeriklerin": 7002,
      "bankalara": 7003,
      "netlog": 7004,
      "##eceklerini": 7005,
      "kanun": 7006,
      "başarısız": 7007,
      "##uştur": 7008,
      "koru": 7009,
      "sonuçlan": 7010,
      "kumaş": 7011,
      "hesaba": 7012,
      "logi": 7013,
      "şarjı": 7014,
      "kapattım": 7015,
      "##pex": 7016,
      "ederken": 7017,
      "sorunlarımı": 7018,
      "kaçak": 7019,
      "anlaşmalı": 7020,
      "yapacağım": 7021,
      "kişiler": 7022,
      "bilgilendirici": 7023,
      "almayı": 7024,
      "yatırımcılar": 7025,
      "gösteren": 7026,
      "ilgilenen": 7027,
      "döneminde": 7028,
      "regal": 7029,
      "telefonumun": 7030,
      "0850": 7031,
      "porsiyon": 7032,
      "che": 7033,
      "music": 7034,
      "dezavantajları": 7035,
      "hisset": 7036,
      "ısıtma": 7037,
      "gerçekleşmedi": 7038,
      "yazarları": 7039,
      "sahibinden": 7040,
      "örneğin": 7041,
      "akıtıyor": 7042,
      "öğretmen": 7043,
      "amaçlı": 7044,
      "bıçak": 7045,
      "gönüllü": 7046,
      "yöntemleri": 7047,
      "western": 7048,
      "biberon": 7049,
      "cilt": 7050,
      "diğeri": 7051,
      "jaguar": 7052,
      "pierre": 7053,
      "41": 7054,
      "af": 7055,
      "ame": 7056,
      "cız": 7057,
      "data": 7058,
      "efendi": 7059,
      "easy": 7060,
      "kg": 7061,
      "kest": 7062,
      "lpg": 7063,
      "som": 7064,
      "##yur": 7065,
      "##gpt": 7066,
      "##int": 7067,
      "##imize": 7068,
      "çam": 7069,
      "çanak": 7070,
      "kalem": 7071,
      "##landığı": 7072,
      "birini": 7073,
      "##ilmeli": 7074,
      "##ikasyon": 7075,
      "gene": 7076,
      "ürünle": 7077,
      "##ırtı": 7078,
      "##stics": 7079,
      "şüp": 7080,
      "alk": 7081,
      "##isyon": 7082,
      "##danel": 7083,
      "i̇tiraz": 7084,
      "##eyle": 7085,
      "##alo": 7086,
      "##arama": 7087,
      "aramak": 7088,
      "##roc": 7089,
      "mouse": 7090,
      "koyu": 7091,
      "malı": 7092,
      "sağla": 7093,
      "sağlığı": 7094,
      "kılav": 7095,
      "sorunların": 7096,
      "##lıyorum": 7097,
      "yenisini": 7098,
      "yanı": 7099,
      "onların": 7100,
      "tarafı": 7101,
      "kampany": 7102,
      "temini": 7103,
      "gönderin": 7104,
      "gerektir": 7105,
      "belirttiler": 7106,
      "oysh": 7107,
      "bakıyorum": 7108,
      "bakkal": 7109,
      "konularda": 7110,
      "tasarımlarla": 7111,
      "##yınca": 7112,
      "şikayetleri": 7113,
      "##ültü": 7114,
      "ekranında": 7115,
      "izliyor": 7116,
      "pepper": 7117,
      "i̇adesini": 7118,
      "ikram": 7119,
      "ambalajlarla": 7120,
      "##lendirme": 7121,
      "borusu": 7122,
      "uzaktan": 7123,
      "şekerli": 7124,
      "şekerleme": 7125,
      "bahçe": 7126,
      "pant": 7127,
      "bose": 7128,
      "soun": 7129,
      "görüntüsü": 7130,
      "daire": 7131,
      "kullandığımız": 7132,
      "ofis": 7133,
      "yapmışlar": 7134,
      "dardanel": 7135,
      "artış": 7136,
      "geleceği": 7137,
      "##anızdan": 7138,
      "##ılacak": 7139,
      "sayfasından": 7140,
      "teşh": 7141,
      "dosy": 7142,
      "kağıdı": 7143,
      "titre": 7144,
      "yaşatabiliyor": 7145,
      "edileceği": 7146,
      "tasarrufu": 7147,
      "yenileme": 7148,
      "kalıcı": 7149,
      "##saydım": 7150,
      "ceza": 7151,
      "tanıtım": 7152,
      "ultima": 7153,
      "misafirler": 7154,
      "apart": 7155,
      "dilekçe": 7156,
      "müraca": 7157,
      "başvuracağım": 7158,
      "cesur": 7159,
      "chatgpt": 7160,
      "ibm": 7161,
      "tinder": 7162,
      "fiyatlandırması": 7163,
      "kuyumculuk": 7164,
      "sohbet": 7165,
      "marshall": 7166,
      "logistics": 7167,
      "datacamp": 7168,
      "kılavuz": 7169,
      "oysho": 7170,
      "ultimate": 7171,
      "müracaat": 7172,
      "38": 7173,
      "biç": 7174,
      "eleştir": 7175,
      "pn": 7176,
      "tey": 7177,
      "tus": 7178,
      "ven": 7179,
      "wor": 7180,
      "zü": 7181,
      "##ney": 7182,
      "##tarı": 7183,
      "##dök": 7184,
      "##zan": 7185,
      "##55": 7186,
      "##blo": 7187,
      "##78": 7188,
      "##hre": 7189,
      "##66": 7190,
      "##enk": 7191,
      "##lerce": 7192,
      "##çev": 7193,
      "vefa": 7194,
      "çile": 7195,
      "##asa": 7196,
      "yah": 7197,
      "##aming": 7198,
      "##ite": 7199,
      "##itro": 7200,
      "intel": 7201,
      "şebek": 7202,
      "kullandık": 7203,
      "kullanmama": 7204,
      "kullanılan": 7205,
      "##taç": 7206,
      "ani": 7207,
      "##isöz": 7208,
      "##issa": 7209,
      "yapamıyor": 7210,
      "##tiği": 7211,
      "müşterisiyim": 7212,
      "vermesi": 7213,
      "gününe": 7214,
      "union": 7215,
      "##lıkta": 7216,
      "genişlet": 7217,
      "açtığ": 7218,
      "##ukah": 7219,
      "düşüş": 7220,
      "yaşamadım": 7221,
      "akadem": 7222,
      "##ğılı": 7223,
      "çeker": 7224,
      "çekme": 7225,
      "ortop": 7226,
      "destekli": 7227,
      "destekleyici": 7228,
      "sonradan": 7229,
      "dönüyor": 7230,
      "takılı": 7231,
      "kurukah": 7232,
      "ulaşımı": 7233,
      "uygulamayı": 7234,
      "##vago": 7235,
      "##mesinin": 7236,
      "kiğılı": 7237,
      "edilmiştir": 7238,
      "girdiğim": 7239,
      "getirdi": 7240,
      "haberim": 7241,
      "tutuyor": 7242,
      "bilgisini": 7243,
      "severler": 7244,
      "bayağı": 7245,
      "parçanın": 7246,
      "burs": 7247,
      "reng": 7248,
      "makinesinin": 7249,
      "uçmuş": 7250,
      "kolaylık": 7251,
      "yetkilileri": 7252,
      "standartlarda": 7253,
      "gittiğim": 7254,
      "##meyeceğim": 7255,
      "belge": 7256,
      "düşündüm": 7257,
      "değiştirme": 7258,
      "##lığa": 7259,
      "not": 7260,
      "doldu": 7261,
      "veriyoruz": 7262,
      "seferleri": 7263,
      "havali": 7264,
      "havale": 7265,
      "verimlilik": 7266,
      "edildiği": 7267,
      "edildiğini": 7268,
      "soğu": 7269,
      "motorola": 7270,
      "ilgilenmiyor": 7271,
      "##memiz": 7272,
      "tatilbudur": 7273,
      "yasak": 7274,
      "yapmayı": 7275,
      "yorumlar": 7276,
      "aracıma": 7277,
      "çizgi": 7278,
      "kitleye": 7279,
      "yağm": 7280,
      "plakalı": 7281,
      "çalıştığını": 7282,
      "disney": 7283,
      "öncesinde": 7284,
      "##mayacaklarını": 7285,
      "ekşisöz": 7286,
      "alakasız": 7287,
      "desen": 7288,
      "tabii": 7289,
      "demirdök": 7290,
      "yumuş": 7291,
      "çerçev": 7292,
      "gürültü": 7293,
      "karıştırıcı": 7294,
      "trivago": 7295,
      "kasiyer": 7296,
      "alarm": 7297,
      "ameliy": 7298,
      "şüph": 7299,
      "pantolon": 7300,
      "zühre": 7301,
      "kurukahve": 7302,
      "ekşisözlük": 7303,
      "demirdöküm": 7304,
      "alay": 7305,
      "clin": 7306,
      "dük": 7307,
      "giy": 7308,
      "gib": 7309,
      "işt": 7310,
      "lis": 7311,
      "ming": 7312,
      "neye": 7313,
      "pos": 7314,
      "polo": 7315,
      "tüy": 7316,
      "vile": 7317,
      "w1": 7318,
      "zehir": 7319,
      "##eceğini": 7320,
      "##kim": 7321,
      "##kosu": 7322,
      "##yıldı": 7323,
      "##cle": 7324,
      "##gam": 7325,
      "##virüs": 7326,
      "##xel": 7327,
      "##aryak": 7328,
      "##iyiz": 7329,
      "##cep": 7330,
      "hacı": 7331,
      "yeten": 7332,
      "gelmemesi": 7333,
      "denim": 7334,
      "nev": 7335,
      "ekosi": 7336,
      "olmam": 7337,
      "##lemiş": 7338,
      "##aba": 7339,
      "özür": 7340,
      "##lenmesi": 7341,
      "akaryak": 7342,
      "çıkması": 7343,
      "yang": 7344,
      "##yasal": 7345,
      "geçtikten": 7346,
      "alışverişte": 7347,
      "alışverişlerimi": 7348,
      "göndermediler": 7349,
      "çalışırken": 7350,
      "hattım": 7351,
      "olduğunuz": 7352,
      "gitmiyor": 7353,
      "firmasının": 7354,
      "mağazada": 7355,
      "faturaları": 7356,
      "konuyu": 7357,
      "yöneti": 7358,
      "kişiye": 7359,
      "tutan": 7360,
      "bitir": 7361,
      "bayiye": 7362,
      "modelleriyle": 7363,
      "cevabı": 7364,
      "muha": 7365,
      "açıdan": 7366,
      "kimyasal": 7367,
      "sanofi": 7368,
      "gittiler": 7369,
      "##lığımı": 7370,
      "modaya": 7371,
      "ellerinde": 7372,
      "veriyorum": 7373,
      "salonda": 7374,
      "macroc": 7375,
      "boyut": 7376,
      "sinem": 7377,
      "kutunun": 7378,
      "verimlidir": 7379,
      "politika": 7380,
      "üyesiyim": 7381,
      "ortasında": 7382,
      "watch": 7383,
      "yatakları": 7384,
      "##melisiniz": 7385,
      "kitlesi": 7386,
      "maçları": 7387,
      "erişimini": 7388,
      "açmıyorlar": 7389,
      "etkileşimli": 7390,
      "medicana": 7391,
      "şartları": 7392,
      "ısınma": 7393,
      "ısınıyor": 7394,
      "kasada": 7395,
      "vites": 7396,
      "eskişehir": 7397,
      "örneği": 7398,
      "bulabiliyorum": 7399,
      "larissa": 7400,
      "profilleri": 7401,
      "yamuk": 7402,
      "pişmanlıktır": 7403,
      "kablosuz": 7404,
      "polaris": 7405,
      "pnr": 7406,
      "tusaş": 7407,
      "akademik": 7408,
      "yağmur": 7409,
      "clinic": 7410,
      "vileda": 7411,
      "##yıldız": 7412,
      "ekosistem": 7413,
      "akaryakıt": 7414,
      "macrocenter": 7415,
      "alarak": 7416,
      "asi": 7417,
      "bip": 7418,
      "gama": 7419,
      "kv": 7420,
      "osman": 7421,
      "teli": 7422,
      "usta": 7423,
      "##sym": 7424,
      "##ymış": 7425,
      "##dek": 7426,
      "##mp": 7427,
      "##bancı": 7428,
      "##anızı": 7429,
      "##ğun": 7430,
      "##ğum": 7431,
      "##atomi": 7432,
      "yabancı": 7433,
      "deva": 7434,
      "##larıma": 7435,
      "##şti": 7436,
      "inde": 7437,
      "ösym": 7438,
      "almıştık": 7439,
      "tela": 7440,
      "aradı": 7441,
      "fiyatına": 7442,
      "##tıp": 7443,
      "önde": 7444,
      "beklerken": 7445,
      "başı": 7446,
      "başlıyor": 7447,
      "açıldı": 7448,
      "##uklar": 7449,
      "##menin": 7450,
      "##lenir": 7451,
      "güvendiğim": 7452,
      "##linik": 7453,
      "saatten": 7454,
      "saatlerinde": 7455,
      "evi": 7456,
      "turbo": 7457,
      "bulunma": 7458,
      "yerleri": 7459,
      "atmak": 7460,
      "taksi": 7461,
      "uygulamadan": 7462,
      "halb": 7463,
      "bakın": 7464,
      "sitesine": 7465,
      "giriyor": 7466,
      "hakaret": 7467,
      "##siyle": 7468,
      "acen": 7469,
      "şıklığı": 7470,
      "kartından": 7471,
      "yapıyoruz": 7472,
      "yardımcıdır": 7473,
      "düşünerek": 7474,
      "nobel": 7475,
      "sebz": 7476,
      "stokları": 7477,
      "seferde": 7478,
      "üniversite": 7479,
      "ayakkab": 7480,
      "bahar": 7481,
      "açılmadı": 7482,
      "süpürgeyi": 7483,
      "kamerası": 7484,
      "volvo": 7485,
      "mobilyaları": 7486,
      "tahmin": 7487,
      "tahmini": 7488,
      "duvar": 7489,
      "petlas": 7490,
      "salonları": 7491,
      "oradaki": 7492,
      "##coin": 7493,
      "herkesin": 7494,
      "ayrıl": 7495,
      "atıp": 7496,
      "dedikleri": 7497,
      "eğlenceli": 7498,
      "kireç": 7499,
      "nesil": 7500,
      "istasyonları": 7501,
      "özenli": 7502,
      "fiyaskosu": 7503,
      "sızdırıyor": 7504,
      "tanınmış": 7505,
      "temsilcileri": 7506,
      "köyü": 7507,
      "rezillik": 7508,
      "i̇kinci": 7509,
      "stratejisi": 7510,
      "aracılığıyla": 7511,
      "mahvet": 7512,
      "ısrarla": 7513,
      "heyeti": 7514,
      "bonus": 7515,
      "coffee": 7516,
      "titanic": 7517,
      "darbe": 7518,
      "vadisi": 7519,
      "ast": 7520,
      "capp": 7521,
      "eft": 7522,
      "hüs": 7523,
      "lam": 7524,
      "pip": 7525,
      "sinde": 7526,
      "stoğ": 7527,
      "ur": 7528,
      "vb": 7529,
      "zah": 7530,
      "ışı": 7531,
      "##tt": 7532,
      "##gr": 7533,
      "##mara": 7534,
      "##41": 7535,
      "##biy": 7536,
      "##bey": 7537,
      "##vv": 7538,
      "##vina": 7539,
      "##61": 7540,
      "##leye": 7541,
      "##larımda": 7542,
      "##dele": 7543,
      "çak": 7544,
      "sunumu": 7545,
      "sunucu": 7546,
      "kulü": 7547,
      "kullanmadım": 7548,
      "aldığı": 7549,
      "alvina": 7550,
      "##emesi": 7551,
      "##lerindeki": 7552,
      "sonlandır": 7553,
      "kargoist": 7554,
      "başlayan": 7555,
      "##uki": 7556,
      "akış": 7557,
      "buluyor": 7558,
      "tarihleri": 7559,
      "türktr": 7560,
      "yanık": 7561,
      "markadan": 7562,
      "##lins": 7563,
      "garip": 7564,
      "yerle": 7565,
      "döndü": 7566,
      "göndermek": 7567,
      "geldiğini": 7568,
      "geldiğimde": 7569,
      "uygulamada": 7570,
      "yakıştır": 7571,
      "yılport": 7572,
      "kapıda": 7573,
      "karşılaştırma": 7574,
      "kesik": 7575,
      "##gorta": 7576,
      "2013": 7577,
      "ediyoruz": 7578,
      "giriyorum": 7579,
      "##tıktan": 7580,
      "etkileşimi": 7581,
      "colins": 7582,
      "i̇stedi": 7583,
      "i̇stiyorum": 7584,
      "##tığını": 7585,
      "fiyatlıdır": 7586,
      "bunları": 7587,
      "numaraları": 7588,
      "bitmiş": 7589,
      "bozucu": 7590,
      "dern": 7591,
      "arızalanıyor": 7592,
      "numarayı": 7593,
      "yetkililer": 7594,
      "yetkililere": 7595,
      "rakam": 7596,
      "ilettim": 7597,
      "standartlardan": 7598,
      "robot": 7599,
      "##lığım": 7600,
      "##lığından": 7601,
      "payfix": 7602,
      "##landırıcı": 7603,
      "dolum": 7604,
      "pişik": 7605,
      "çıkardılar": 7606,
      "carl": 7607,
      "salg": 7608,
      "ağa": 7609,
      "lezzeti": 7610,
      "çalışanların": 7611,
      "şirketin": 7612,
      "memnuniyetimi": 7613,
      "durumuyla": 7614,
      "geçtiğimiz": 7615,
      "mask": 7616,
      "götürdük": 7617,
      "numarasıyla": 7618,
      "##incioğlu": 7619,
      "eşimle": 7620,
      "tahincioğlu": 7621,
      "yapmayın": 7622,
      "ipekyol": 7623,
      "petek": 7624,
      "##lüğü": 7625,
      "nokia": 7626,
      "ödüyorum": 7627,
      "##lumb": 7628,
      "civil": 7629,
      "doldurdum": 7630,
      "tarife": 7631,
      "görevlisi": 7632,
      "yakışmıyor": 7633,
      "i̇şlemi": 7634,
      "atmosfer": 7635,
      "desa": 7636,
      "klavyeleri": 7637,
      "etmiştim": 7638,
      "hoparlörleri": 7639,
      "operatörün": 7640,
      "ısıtıcı": 7641,
      "belgesel": 7642,
      "taşımacı": 7643,
      "aksigorta": 7644,
      "kayboldu": 7645,
      "uğrattı": 7646,
      "##dcore": 7647,
      "cips": 7648,
      "champ": 7649,
      "alkol": 7650,
      "soundcore": 7651,
      "kurukahveci": 7652,
      "halbuki": 7653,
      "cappy": 7654,
      "türktraktör": 7655,
      "cüz": 7656,
      "fe": 7657,
      "hum": 7658,
      "isın": 7659,
      "klinik": 7660,
      "lif": 7661,
      "ltb": 7662,
      "mb": 7663,
      "miyim": 7664,
      "pc": 7665,
      "vic": 7666,
      "yuk": 7667,
      "##ela": 7668,
      "##pf": 7669,
      "##put": 7670,
      "##ydi": 7671,
      "##uu": 7672,
      "##mine": 7673,
      "##95": 7674,
      "##hl": 7675,
      "##armac": 7676,
      "##ence": 7677,
      "##mamı": 7678,
      "##iry": 7679,
      "##çası": 7680,
      "birine": 7681,
      "şark": 7682,
      "karan": 7683,
      "karsan": 7684,
      "kullanan": 7685,
      "anlık": 7686,
      "etmesi": 7687,
      "##yabilir": 7688,
      "##tibat": 7689,
      "##eliği": 7690,
      "müşterilere": 7691,
      "vermem": 7692,
      "gündüz": 7693,
      "aralıkları": 7694,
      "##lamaları": 7695,
      "konum": 7696,
      "kargoyla": 7697,
      "markasının": 7698,
      "divar": 7699,
      "##tep": 7700,
      "durduk": 7701,
      "tarihe": 7702,
      "onep": 7703,
      "saattir": 7704,
      "evlen": 7705,
      "sıkma": 7706,
      "tarafında": 7707,
      "attı": 7708,
      "attığım": 7709,
      "temsa": 7710,
      "takib": 7711,
      "uygulamasını": 7712,
      "hatayı": 7713,
      "merkeze": 7714,
      "zorlan": 7715,
      "ürünlerine": 7716,
      "makarn": 7717,
      "oysa": 7718,
      "ertel": 7719,
      "faturada": 7720,
      "101": 7721,
      "geleme": 7722,
      "oyunlarında": 7723,
      "şıklık": 7724,
      "modellerin": 7725,
      "derhal": 7726,
      "korun": 7727,
      "hataları": 7728,
      "##ildiği": 7729,
      "yetkilisi": 7730,
      "programlarla": 7731,
      "gittiğimizde": 7732,
      "marmara": 7733,
      "roblo": 7734,
      "sayın": 7735,
      "düzenlidir": 7736,
      "böcek": 7737,
      "oluştura": 7738,
      "detayları": 7739,
      "logo": 7740,
      "kapatmak": 7741,
      "televizyonları": 7742,
      "stady": 7743,
      "kartımın": 7744,
      "okuy": 7745,
      "pharmac": 7746,
      "olursa": 7747,
      "millet": 7748,
      "tazelik": 7749,
      "yaptırdık": 7750,
      "izley": 7751,
      "dönemlerde": 7752,
      "erişimi": 7753,
      "konforludur": 7754,
      "##rypex": 7755,
      "oynayabilir": 7756,
      "bataryası": 7757,
      "airpo": 7758,
      "petkim": 7759,
      "kapakları": 7760,
      "uyumsuz": 7761,
      "mado": 7762,
      "beğeniler": 7763,
      "ekipleri": 7764,
      "almayacağım": 7765,
      "üzücü": 7766,
      "depozit": 7767,
      "altınyıldız": 7768,
      "bayii": 7769,
      "montajı": 7770,
      "enerjik": 7771,
      "yayını": 7772,
      "koptu": 7773,
      "müşteriyi": 7774,
      "fabrikaları": 7775,
      "icrypex": 7776,
      "##ions": 7777,
      "temas": 7778,
      "prestijli": 7779,
      "davranış": 7780,
      "dekon": 7781,
      "poliçesi": 7782,
      "etiketleri": 7783,
      "sinemaya": 7784,
      "soyul": 7785,
      "##cars": 7786,
      "stratejik": 7787,
      "segway": 7788,
      "bayisinden": 7789,
      "iddia": 7790,
      "süpermarket": 7791,
      "ekspert": 7792,
      "bildiğiniz": 7793,
      "avukat": 7794,
      "filocars": 7795,
      "kvk": 7796,
      "champions": 7797,
      "divarese": 7798,
      "oneplus": 7799,
      "roblox": 7800,
      "pharmactive": 7801,
      "350": 7802,
      "cildim": 7803,
      "dhl": 7804,
      "flix": 7805,
      "geb": 7806,
      "ilan": 7807,
      "jatomi": 7808,
      "kem": 7809,
      "ları": 7810,
      "ru": 7811,
      "ulaştım": 7812,
      "##eceği": 7813,
      "##raş": 7814,
      "##pları": 7815,
      "##yy": 7816,
      "##yaz": 7817,
      "##yaka": 7818,
      "##dunuz": 7819,
      "##cik": 7820,
      "##bus": 7821,
      "##baba": 7822,
      "##liğim": 7823,
      "##şen": 7824,
      "##ladığım": 7825,
      "##çay": 7826,
      "##akır": 7827,
      "##ati": 7828,
      "vespa": 7829,
      "##izden": 7830,
      "çelik": 7831,
      "##ason": 7832,
      "aram": 7833,
      "aldır": 7834,
      "aldığınız": 7835,
      "anında": 7836,
      "##uyoruz": 7837,
      "aytaç": 7838,
      "etkisi": 7839,
      "denilen": 7840,
      "tekir": 7841,
      "kılı": 7842,
      "açmak": 7843,
      "açınca": 7844,
      "yokmuş": 7845,
      "yaşamı": 7846,
      "yaşındaki": 7847,
      "çıkıp": 7848,
      "botaş": 7849,
      "onlara": 7850,
      "sucuk": 7851,
      "dönüşt": 7852,
      "dönmüyor": 7853,
      "satan": 7854,
      "kuruş": 7855,
      "##bilmek": 7856,
      "memnundum": 7857,
      "##mayabiliyor": 7858,
      "makas": 7859,
      "bakiye": 7860,
      "internete": 7861,
      "internette": 7862,
      "kaydım": 7863,
      "bedaş": 7864,
      "bilgilerini": 7865,
      "yönde": 7866,
      "spa": 7867,
      "verilmeden": 7868,
      "gidece": 7869,
      "coco": 7870,
      "alaka": 7871,
      "alacağ": 7872,
      "şikayetlerine": 7873,
      "asit": 7874,
      "altına": 7875,
      "bekleye": 7876,
      "görünce": 7877,
      "makinesini": 7878,
      "alınıyor": 7879,
      "alınmış": 7880,
      "kitabı": 7881,
      "kordon": 7882,
      "kime": 7883,
      "rahatsızlık": 7884,
      "ambalajın": 7885,
      "maillere": 7886,
      "çıkardı": 7887,
      "ihtiyaçları": 7888,
      "care": 7889,
      "detaylarıyla": 7890,
      "vakko": 7891,
      "macbook": 7892,
      "içecekler": 7893,
      "pizzaları": 7894,
      "çaydan": 7895,
      "komik": 7896,
      "giderek": 7897,
      "bilinen": 7898,
      "sertif": 7899,
      "tamiri": 7900,
      "##parmak": 7901,
      "yeniliklerle": 7902,
      "oyna": 7903,
      "değerlendiriliyor": 7904,
      "anneme": 7905,
      "zincir": 7906,
      "keyfi": 7907,
      "eleven": 7908,
      "entegre": 7909,
      "ulaştığ": 7910,
      "gönderilmiyor": 7911,
      "bittiği": 7912,
      "geçersiz": 7913,
      "geleceğini": 7914,
      "dizileri": 7915,
      "kimsenin": 7916,
      "hamur": 7917,
      "olaydım": 7918,
      "teşv": 7919,
      "profili": 7920,
      "fırınları": 7921,
      "kavuştur": 7922,
      "öncesi": 7923,
      "aboneliğim": 7924,
      "üyeliğimin": 7925,
      "altıparmak": 7926,
      "doğruluğu": 7927,
      "##tivasyon": 7928,
      "istemedi": 7929,
      "eskisi": 7930,
      "sezon": 7931,
      "intercity": 7932,
      "kuruluşlarının": 7933,
      "aparat": 7934,
      "atıştırmalık": 7935,
      "tüpraş": 7936,
      "gişe": 7937,
      "isteyen": 7938,
      "yaşayan": 7939,
      "otokar": 7940,
      "endüstrisi": 7941,
      "ramiz": 7942,
      "mücevher": 7943,
      "dumankaya": 7944,
      "irtibat": 7945,
      "streaming": 7946,
      "mühendi": 7947,
      "easycep": 7948,
      "sompo": 7949,
      "worl": 7950,
      "nevres": 7951,
      "acente": 7952,
      "zahmet": 7953,
      "yukarı": 7954,
      "airpods": 7955,
      "flixbus": 7956,
      "37": 7957,
      "450": 7958,
      "88": 7959,
      "aler": 7960,
      "aleti": 7961,
      "cloud": 7962,
      "citro": 7963,
      "duş": 7964,
      "ges": 7965,
      "iban": 7966,
      "tay": 7967,
      "vir": 7968,
      "viz": 7969,
      "wind": 7970,
      "##ness": 7971,
      "##ker": 7972,
      "##pası": 7973,
      "##ox": 7974,
      "##93": 7975,
      "##98": 7976,
      "##he": 7977,
      "##68": 7978,
      "##şallah": 7979,
      "##ğe": 7980,
      "##lack": 7981,
      "çiğ": 7982,
      "kaira": 7983,
      "birgün": 7984,
      "kararı": 7985,
      "algı": 7986,
      "##yaj": 7987,
      "yapması": 7988,
      "2000": 7989,
      "bekir": 7990,
      "olmadığım": 7991,
      "istendi": 7992,
      "sürebilir": 7993,
      "bilgiyi": 7994,
      "durdur": 7995,
      "çekimi": 7996,
      "##miyoruz": 7997,
      "servisleri": 7998,
      "ters": 7999,
      "garenta": 8000,
      "##layın": 8001,
      "evimiz": 8002,
      "değişiyor": 8003,
      "krediye": 8004,
      "taki": 8005,
      "takvim": 8006,
      "mağazasına": 8007,
      "midem": 8008,
      "göremiyorum": 8009,
      "yapıştır": 8010,
      "kapsamına": 8011,
      "söyleyerek": 8012,
      "tango": 8013,
      "etmedim": 8014,
      "yolladılar": 8015,
      "gideri": 8016,
      "bırakıp": 8017,
      "sizde": 8018,
      "oyuncak": 8019,
      "##tığınız": 8020,
      "bitmek": 8021,
      "sevk": 8022,
      "hazn": 8023,
      "makinemin": 8024,
      "güncellemeden": 8025,
      "edeceklerini": 8026,
      "çevres": 8027,
      "faturasını": 8028,
      "ihtiyacı": 8029,
      "ambalajı": 8030,
      "programlar": 8031,
      "yatırdım": 8032,
      "tableti": 8033,
      "vida": 8034,
      "değiştirdiler": 8035,
      "oluyoruz": 8036,
      "problemleri": 8037,
      "etkinliği": 8038,
      "milleti": 8039,
      "beğenerek": 8040,
      "riomi": 8041,
      "i̇çim": 8042,
      "başvuruda": 8043,
      "hazırlan": 8044,
      "süpürgemin": 8045,
      "çocuklar": 8046,
      "paramızı": 8047,
      "gösterir": 8048,
      "kazanlı": 8049,
      "buzdolabının": 8050,
      "tüketic": 8051,
      "bulaşıkları": 8052,
      "diyarb": 8053,
      "elimizde": 8054,
      "##düğünü": 8055,
      "öneriler": 8056,
      "redmi": 8057,
      "bedel": 8058,
      "engelli": 8059,
      "ailem": 8060,
      "babam": 8061,
      "korkusuz": 8062,
      "dinleme": 8063,
      "surat": 8064,
      "takımının": 8065,
      "i̇nsanların": 8066,
      "entegrasyonları": 8067,
      "maçlar": 8068,
      "kendime": 8069,
      "##anızın": 8070,
      "ortamda": 8071,
      "neyin": 8072,
      "oğlu": 8073,
      "dengesi": 8074,
      "gayrim": 8075,
      "denetçiliği": 8076,
      "saygısızlığı": 8077,
      "noktada": 8078,
      "gizia": 8079,
      "karşılaşıyorum": 8080,
      "uğradım": 8081,
      "mahkeme": 8082,
      "toplamda": 8083,
      "sky": 8084,
      "tarzı": 8085,
      "harcama": 8086,
      "##bileceğimi": 8087,
      "usb": 8088,
      "mondiho": 8089,
      "kanalı": 8090,
      "verileceği": 8091,
      "dokunmatik": 8092,
      "caddesi": 8093,
      "hortum": 8094,
      "kategori": 8095,
      "##enkul": 8096,
      "##games": 8097,
      "hummel": 8098,
      "teşvik": 8099,
      "world": 8100,
      "gestaş": 8101,
      "gayrimenkul": 8102,
      "mondihome": 8103,
      "110": 8104,
      "br": 8105,
      "bing": 8106,
      "mez": 8107,
      "naz": 8108,
      "od": 8109,
      "utan": 8110,
      "xbox": 8111,
      "zo": 8112,
      "ısı": 8113,
      "##rum": 8114,
      "##acağını": 8115,
      "##oç": 8116,
      "##cl": 8117,
      "##mart": 8118,
      "##vedi": 8119,
      "##ard": 8120,
      "##antep": 8121,
      "##ekon": 8122,
      "##lant": 8123,
      "##asi": 8124,
      "##ilmesine": 8125,
      "##iyat": 8126,
      "##ayıcı": 8127,
      "karant": 8128,
      "içere": 8129,
      "kullanı": 8130,
      "##ıyordu": 8131,
      "alman": 8132,
      "aldat": 8133,
      "anladım": 8134,
      "##isine": 8135,
      "##dığına": 8136,
      "müdürü": 8137,
      "i̇pta": 8138,
      "i̇topya": 8139,
      "##tion": 8140,
      "aylar": 8141,
      "ayır": 8142,
      "kalitekon": 8143,
      "haline": 8144,
      "araca": 8145,
      "yükledim": 8146,
      "uyan": 8147,
      "gelmemiş": 8148,
      "kargodan": 8149,
      "denk": 8150,
      "tadi": 8151,
      "açtığım": 8152,
      "düşmüş": 8153,
      "bulmayabilir": 8154,
      "yazmış": 8155,
      "alışkan": 8156,
      "saatim": 8157,
      "evimin": 8158,
      "göndermiş": 8159,
      "yüzüme": 8160,
      "mide": 8161,
      "gitmiş": 8162,
      "yapılandır": 8163,
      "yapılamıyor": 8164,
      "##mayacağım": 8165,
      "##mayacağını": 8166,
      "garantiden": 8167,
      "##üyü": 8168,
      "şeye": 8169,
      "güvenilirlik": 8170,
      "oranlar": 8171,
      "ekranın": 8172,
      "bekleyen": 8173,
      "yayınlar": 8174,
      "cihazlar": 8175,
      "başvurum": 8176,
      "bağlanmak": 8177,
      "mesai": 8178,
      "otogar": 8179,
      "derken": 8180,
      "mudo": 8181,
      "##trolü": 8182,
      "hesabımda": 8183,
      "satışa": 8184,
      "sayesinde": 8185,
      "harita": 8186,
      "metre": 8187,
      "filmler": 8188,
      "panel": 8189,
      "pizz": 8190,
      "anlaşılması": 8191,
      "kitaplar": 8192,
      "170": 8193,
      "pazarama": 8194,
      "emekli": 8195,
      "yıkan": 8196,
      "gerekiyordu": 8197,
      "aksesuarlar": 8198,
      "bekletiliyor": 8199,
      "mağduriyetim": 8200,
      "mağduriyetimi": 8201,
      "yapılacağını": 8202,
      "düzeltin": 8203,
      "düzeltme": 8204,
      "##presso": 8205,
      "saka": 8206,
      "entegrasyonu": 8207,
      "##ilinde": 8208,
      "##elinde": 8209,
      "neymiş": 8210,
      "sebeple": 8211,
      "sayfasında": 8212,
      "kirli": 8213,
      "bölümü": 8214,
      "yaparsanız": 8215,
      "şahı": 8216,
      "biletimin": 8217,
      "##meyecekseniz": 8218,
      "iyileştirme": 8219,
      "sınıfta": 8220,
      "eminim": 8221,
      "etmektedir": 8222,
      "yükselt": 8223,
      "gaziantep": 8224,
      "bulanık": 8225,
      "nuh": 8226,
      "bulamıyoruz": 8227,
      "incelen": 8228,
      "çanakkale": 8229,
      "taşımacılığı": 8230,
      "##puter": 8231,
      "makarnası": 8232,
      "tekirdağ": 8233,
      "nevresim": 8234,
      "oğluma": 8235,
      "odtü": 8236,
      "kalitekontrolü": 8237,
      "42": 8238,
      "ai": 8239,
      "a70": 8240,
      "bark": 8241,
      "fı": 8242,
      "fik": 8243,
      "gmail": 8244,
      "hik": 8245,
      "kuz": 8246,
      "kura": 8247,
      "ly": 8248,
      "muz": 8249,
      "paş": 8250,
      "vallah": 8251,
      "##ali": 8252,
      "##zet": 8253,
      "##fek": 8254,
      "##74": 8255,
      "##65": 8256,
      "##ğan": 8257,
      "##master": 8258,
      "##larken": 8259,
      "##ettür": 8260,
      "dagi": 8261,
      "##dame": 8262,
      "##urum": 8263,
      "##iyo": 8264,
      "##ürk": 8265,
      "kullandır": 8266,
      "alyan": 8267,
      "almadılar": 8268,
      "yapmalı": 8269,
      "yapamıyoruz": 8270,
      "gölg": 8271,
      "verebilir": 8272,
      "##lamaz": 8273,
      "yüklen": 8274,
      "konuklar": 8275,
      "gelmiştir": 8276,
      "kov": 8277,
      "markayı": 8278,
      "hızlandır": 8279,
      "madame": 8280,
      "sağlanmadı": 8281,
      "olmasından": 8282,
      "sorunumun": 8283,
      "tesettür": 8284,
      "açtık": 8285,
      "##apad": 8286,
      "yaşlı": 8287,
      "akab": 8288,
      "bankaya": 8289,
      "türkçe": 8290,
      "çıkara": 8291,
      "çıkmış": 8292,
      "çıkışı": 8293,
      "boza": 8294,
      "##layarak": 8295,
      "ürünlerimi": 8296,
      "saate": 8297,
      "##ediyor": 8298,
      "satarken": 8299,
      "uygulamaya": 8300,
      "kampanyalı": 8301,
      "makyaj": 8302,
      "kesiyor": 8303,
      "kesti": 8304,
      "düzenlenmiş": 8305,
      "farkları": 8306,
      "şeyle": 8307,
      "mağazacılık": 8308,
      "tanır": 8309,
      "yardımı": 8310,
      "##lerimizi": 8311,
      "platformlarının": 8312,
      "dışına": 8313,
      "sistemine": 8314,
      "ettiğimiz": 8315,
      "iznim": 8316,
      "ünlü": 8317,
      "dakik": 8318,
      "##ecekler": 8319,
      "gelmediği": 8320,
      "alınması": 8321,
      "açıkçası": 8322,
      "faturaya": 8323,
      "standartlarıyla": 8324,
      "mısınız": 8325,
      "rakipler": 8326,
      "dolmadan": 8327,
      "detaylıdır": 8328,
      "lezita": 8329,
      "kapatıyor": 8330,
      "milli": 8331,
      "monit": 8332,
      "şirketine": 8333,
      "değişimini": 8334,
      "##leşme": 8335,
      "bahç": 8336,
      "doğrulama": 8337,
      "yaptığımız": 8338,
      "lens": 8339,
      "yapacağımı": 8340,
      "benzeri": 8341,
      "izleye": 8342,
      "verildiği": 8343,
      "bant": 8344,
      "banyo": 8345,
      "koltuklar": 8346,
      "alırım": 8347,
      "##ceğiniz": 8348,
      "ofçay": 8349,
      "bedelini": 8350,
      "bizimle": 8351,
      "eczan": 8352,
      "çizim": 8353,
      "##metse": 8354,
      "adap": 8355,
      "##ows": 8356,
      "##sport": 8357,
      "erişimin": 8358,
      "gösterebiliyor": 8359,
      "şartlar": 8360,
      "arabam": 8361,
      "bölümünde": 8362,
      "analizler": 8363,
      "yaşatıyor": 8364,
      "özensiz": 8365,
      "uğraşıyorum": 8366,
      "parfümleri": 8367,
      "olmuştu": 8368,
      "köpük": 8369,
      "gezin": 8370,
      "intersport": 8371,
      "playst": 8372,
      "elinizde": 8373,
      "tıraş": 8374,
      "ilişkileri": 8375,
      "pompa": 8376,
      "sunulabiliyor": 8377,
      "hikaye": 8378,
      "konuştu": 8379,
      "mantıklı": 8380,
      "umursamaz": 8381,
      "ifade": 8382,
      "nereye": 8383,
      "ocağın": 8384,
      "teşhir": 8385,
      "ameliyat": 8386,
      "yetenek": 8387,
      "baharat": 8388,
      "mahvetti": 8389,
      "lamb": 8390,
      "kulüb": 8391,
      "mühendis": 8392,
      "windows": 8393,
      "karantina": 8394,
      "hikmetse": 8395,
      "lyft": 8396,
      "vallahi": 8397,
      "53": 8398,
      "56": 8399,
      "85": 8400,
      "ale": 8401,
      "bül": 8402,
      "gol": 8403,
      "klo": 8404,
      "##lında": 8405,
      "##kır": 8406,
      "##yum": 8407,
      "##culu": 8408,
      "##gen": 8409,
      "##ğiz": 8410,
      "##lete": 8411,
      "##undaki": 8412,
      "##çü": 8413,
      "##atch": 8414,
      "##likleri": 8415,
      "##meyin": 8416,
      "##ürüz": 8417,
      "artı": 8418,
      "kullanama": 8419,
      "##ise": 8420,
      "yapabiliyor": 8421,
      "hizmetlerde": 8422,
      "sürpr": 8423,
      "günah": 8424,
      "kalitesinden": 8425,
      "aramam": 8426,
      "amacı": 8427,
      "ekrana": 8428,
      "mapf": 8429,
      "olmamalı": 8430,
      "gül": 8431,
      "sorunlarına": 8432,
      "iyice": 8433,
      "tarihten": 8434,
      "çekir": 8435,
      "desteğ": 8436,
      "karşılığı": 8437,
      "onları": 8438,
      "geçin": 8439,
      "yarg": 8440,
      "sonrada": 8441,
      "evimi": 8442,
      "turun": 8443,
      "##sistem": 8444,
      "uygulamasorunu": 8445,
      "yapılsın": 8446,
      "yapıldığı": 8447,
      "arayacak": 8448,
      "oyunu": 8449,
      "kayd": 8450,
      "siteleri": 8451,
      "sitenin": 8452,
      "nedenini": 8453,
      "mağazalarında": 8454,
      "dikiş": 8455,
      "getirdim": 8456,
      "bittikten": 8457,
      "bitcoin": 8458,
      "asıl": 8459,
      "fairy": 8460,
      "mesafe": 8461,
      "##ferans": 8462,
      "alımı": 8463,
      "faturanın": 8464,
      "dakikalarca": 8465,
      "beylik": 8466,
      "valiz": 8467,
      "live": 8468,
      "şarja": 8469,
      "kremi": 8470,
      "mont": 8471,
      "tazeliği": 8472,
      "memnuniyetinde": 8473,
      "sitelerinde": 8474,
      "bahse": 8475,
      "etkinliklerin": 8476,
      "yaptırdığım": 8477,
      "sebebini": 8478,
      "benzin": 8479,
      "shop": 8480,
      "ömürlüdür": 8481,
      "esty": 8482,
      "##memize": 8483,
      "profesyoneldir": 8484,
      "arasındaki": 8485,
      "kapanıp": 8486,
      "kızımın": 8487,
      "gerekiyormuş": 8488,
      "baştan": 8489,
      "hani": 8490,
      "bardağ": 8491,
      "bekletip": 8492,
      "##̇mer": 8493,
      "akşama": 8494,
      "gönderip": 8495,
      "kısmının": 8496,
      "yönlendirme": 8497,
      "yönlendiriyor": 8498,
      "##üsten": 8499,
      "sars": 8500,
      "beslenme": 8501,
      "paylaşımı": 8502,
      "porland": 8503,
      "çocuğuma": 8504,
      "grubudur": 8505,
      "gelmişti": 8506,
      "direksiyon": 8507,
      "yarısını": 8508,
      "filtreleme": 8509,
      "icra": 8510,
      "nespresso": 8511,
      "anlamı": 8512,
      "aboneliği": 8513,
      "lerde": 8514,
      "şifreyi": 8515,
      "merhabalar": 8516,
      "anlattım": 8517,
      "bebeğimin": 8518,
      "gidecek": 8519,
      "çözünürlüklü": 8520,
      "iyileştiriyor": 8521,
      "alibaba": 8522,
      "adreste": 8523,
      "seyir": 8524,
      "azalt": 8525,
      "##gnal": 8526,
      "aydınlat": 8527,
      "ortaklıkları": 8528,
      "çorba": 8529,
      "otokoç": 8530,
      "yırtıldı": 8531,
      "ci̇mer": 8532,
      "danışmanlık": 8533,
      "taahhüdüm": 8534,
      "elbiseleri": 8535,
      "beklenenden": 8536,
      "porsiyonları": 8537,
      "check": 8538,
      "apartman": 8539,
      "dükkan": 8540,
      "sinemia": 8541,
      "telafi": 8542,
      "derneği": 8543,
      "gebze": 8544,
      "diyarbakır": 8545,
      "monitör": 8546,
      "bülten": 8547,
      "klozet": 8548,
      "mapfre": 8549,
      "64": 8550,
      "95": 8551,
      "bra": 8552,
      "gur": 8553,
      "hev": 8554,
      "it": 8555,
      "nat": 8556,
      "rev": 8557,
      "ramaz": 8558,
      "sel": 8559,
      "sön": 8560,
      "ufresh": 8561,
      "val": 8562,
      "##iha": 8563,
      "##tle": 8564,
      "##pus": 8565,
      "##drum": 8566,
      "##get": 8567,
      "##barı": 8568,
      "##ergah": 8569,
      "##inek": 8570,
      "##ladığımda": 8571,
      "##irt": 8572,
      "##dışı": 8573,
      "damat": 8574,
      "##haf": 8575,
      "##hafer": 8576,
      "##ilsin": 8577,
      "sunması": 8578,
      "şid": 8579,
      "baza": 8580,
      "kullanamadım": 8581,
      "kullanılma": 8582,
      "kullanamıyoruz": 8583,
      "almama": 8584,
      "##emiz": 8585,
      "yapmıştım": 8586,
      "yapabile": 8587,
      "bazıları": 8588,
      "olacağım": 8589,
      "gökç": 8590,
      "##tivit": 8591,
      "##eyes": 8592,
      "##alcom": 8593,
      "salı": 8594,
      "sürah": 8595,
      "konumu": 8596,
      "yüksekliğinden": 8597,
      "kargolama": 8598,
      "markasından": 8599,
      "olmasa": 8600,
      "kılıyor": 8601,
      "tartı": 8602,
      "açmadan": 8603,
      "##mediğimiz": 8604,
      "##ment": 8605,
      "aktivit": 8606,
      "çıkarı": 8607,
      "signal": 8608,
      "çalıyor": 8609,
      "yazdığı": 8610,
      "bodrum": 8611,
      "tatili": 8612,
      "geçmiyor": 8613,
      "bulunur": 8614,
      "bulunmaktadır": 8615,
      "ödeyip": 8616,
      "satılıyor": 8617,
      "satıyorsunuz": 8618,
      "atın": 8619,
      "yakıyor": 8620,
      "miu": 8621,
      "gerekçe": 8622,
      "görü": 8623,
      "##lamı": 8624,
      "kırılması": 8625,
      "yapıldığını": 8626,
      "yapılmadan": 8627,
      "gelişim": 8628,
      "##üydü": 8629,
      "bakır": 8630,
      "bakalım": 8631,
      "düzenlenen": 8632,
      "şeyleri": 8633,
      "bağış": 8634,
      "platformlarıyla": 8635,
      "kaldığını": 8636,
      "getirdiler": 8637,
      "i̇stiyor": 8638,
      "##abilirsiniz": 8639,
      "oyunlarda": 8640,
      "seslen": 8641,
      "aslında": 8642,
      "izi": 8643,
      "bekleyin": 8644,
      "acent": 8645,
      "sabiha": 8646,
      "makineye": 8647,
      "yemekleri": 8648,
      "çıktığı": 8649,
      "hatalar": 8650,
      "mesajlaşma": 8651,
      "dakikada": 8652,
      "arkadaşı": 8653,
      "hesabımı": 8654,
      "koçsistem": 8655,
      "yaşadığınız": 8656,
      "eskiden": 8657,
      "fırsatlarla": 8658,
      "memnuniyetsizlik": 8659,
      "videoları": 8660,
      "kaçın": 8661,
      "filmine": 8662,
      "sütçü": 8663,
      "kullanımdan": 8664,
      "uçuşu": 8665,
      "uçuşum": 8666,
      "buzdolapları": 8667,
      "##sindeki": 8668,
      "fotoğrafların": 8669,
      "dahilinde": 8670,
      "güzergah": 8671,
      "seçtim": 8672,
      "gali": 8673,
      "kızar": 8674,
      "bezin": 8675,
      "tamire": 8676,
      "oynay": 8677,
      "kaynakları": 8678,
      "ekonom": 8679,
      "işlevseldir": 8680,
      "lekeleri": 8681,
      "formunu": 8682,
      "ettikleri": 8683,
      "kısmını": 8684,
      "popeyes": 8685,
      "noktası": 8686,
      "mikser": 8687,
      "zorluğu": 8688,
      "artışı": 8689,
      "üzül": 8690,
      "davlumb": 8691,
      "##larımızın": 8692,
      "sınava": 8693,
      "dalgalan": 8694,
      "tuşu": 8695,
      "düştüğ": 8696,
      "kalkış": 8697,
      "florence": 8698,
      "perakendecisi": 8699,
      "aboneliğimi": 8700,
      "bahisleri": 8701,
      "schafer": 8702,
      "tasarruflu": 8703,
      "portföyü": 8704,
      "www": 8705,
      "mahkemeye": 8706,
      "biliyorum": 8707,
      "tesisleri": 8708,
      "vericidir": 8709,
      "edilemeyen": 8710,
      "##düzü": 8711,
      "ideal": 8712,
      "##esizlik": 8713,
      "frank": 8714,
      "yazılımı": 8715,
      "ümit": 8716,
      "ümran": 8717,
      "besleyicidir": 8718,
      "cisim": 8719,
      "edilir": 8720,
      "qualcom": 8721,
      "tekstil": 8722,
      "ilerleme": 8723,
      "çıtır": 8724,
      "lavab": 8725,
      "işbirliği": 8726,
      "rahatlatıcıdır": 8727,
      "##alog": 8728,
      "yahu": 8729,
      "yönetici": 8730,
      "yakıştıramadım": 8731,
      "felak": 8732,
      "ekspertiz": 8733,
      "akabinde": 8734,
      "playstation": 8735,
      "beylikdüzü": 8736,
      "davlumbaz": 8737,
      "qualcomm": 8738,
      "3d": 8739,
      "52": 8740,
      "asan": 8741,
      "by": 8742,
      "bası": 8743,
      "bliz": 8744,
      "ceb": 8745,
      "ceket": 8746,
      "dib": 8747,
      "festi": 8748,
      "gara": 8749,
      "neti": 8750,
      "p20": 8751,
      "quan": 8752,
      "rö": 8753,
      "soo": 8754,
      "silik": 8755,
      "tip": 8756,
      "yü": 8757,
      "##é": 8758,
      "##sber": 8759,
      "##â": 8760,
      "##uder": 8761,
      "##zard": 8762,
      "##27": 8763,
      "##97": 8764,
      "##100": 8765,
      "##ware": 8766,
      "##ino": 8767,
      "##lab": 8768,
      "dava": 8769,
      "##esir": 8770,
      "##ond": 8771,
      "##öre": 8772,
      "##ilmez": 8773,
      "##illant": 8774,
      "##ürken": 8775,
      "ürünkalitesi": 8776,
      "buton": 8777,
      "şeh": 8778,
      "karak": 8779,
      "##ıldığını": 8780,
      "##uyorsunuz": 8781,
      "##tiğimiz": 8782,
      "##esif": 8783,
      "ayından": 8784,
      "müşterisi": 8785,
      "ınternet": 8786,
      "vereceğim": 8787,
      "kargolanma": 8788,
      "##derma": 8789,
      "siparişleri": 8790,
      "bilmeyen": 8791,
      "kot": 8792,
      "kole": 8793,
      "beklem": 8794,
      "tac": 8795,
      "maden": 8796,
      "malat": 8797,
      "başına": 8798,
      "enter": 8799,
      "tarım": 8800,
      "açabiliyor": 8801,
      "işç": 8802,
      "gereğini": 8803,
      "bilgiye": 8804,
      "yazıcı": 8805,
      "yazdığım": 8806,
      "markalarla": 8807,
      "servisini": 8808,
      "geçici": 8809,
      "##panya": 8810,
      "##layınca": 8811,
      "saatinde": 8812,
      "durumla": 8813,
      "durumunu": 8814,
      "değişmiş": 8815,
      "bulunduk": 8816,
      "iademi": 8817,
      "atmış": 8818,
      "temu": 8819,
      "taktır": 8820,
      "fazladır": 8821,
      "çalışır": 8822,
      "##bildim": 8823,
      "görmüyor": 8824,
      "şubeyi": 8825,
      "gitme": 8826,
      "kapama": 8827,
      "söyleyin": 8828,
      "edildim": 8829,
      "işlemlerinde": 8830,
      "deneyiminin": 8831,
      "etmeyin": 8832,
      "pakette": 8833,
      "dönüşüm": 8834,
      "sistemsel": 8835,
      "coin": 8836,
      "i̇ninal": 8837,
      "##emez": 8838,
      "1500": 8839,
      "##liyim": 8840,
      "devr": 8841,
      "bilgisayarımı": 8842,
      "üste": 8843,
      "acili": 8844,
      "cihazımı": 8845,
      "bozulan": 8846,
      "sabun": 8847,
      "arayüzün": 8848,
      "karmaşa": 8849,
      "yetkin": 8850,
      "rahatlık": 8851,
      "iletti": 8852,
      "katalog": 8853,
      "basın": 8854,
      "marketlerde": 8855,
      "üretiyor": 8856,
      "born": 8857,
      "etmekteyim": 8858,
      "şarjlı": 8859,
      "ağız": 8860,
      "televizyonun": 8861,
      "sinek": 8862,
      "kriz": 8863,
      "beğeniliyor": 8864,
      "şirketlerinin": 8865,
      "sitelerinden": 8866,
      "gecen": 8867,
[...]
