{
  "version": "1.0",
  "truncation": null,
  "padding": {
    "strategy": {
      "Fixed": 128
    },
    "direction": "Right",
    "pad_to_multiple_of": null,
    "pad_id": 0,
    "pad_type_id": 0,
    "pad_token": "[PAD]"
  },
  "added_tokens": [
    {
      "id": 0,
      "content": "[UNK]",
      "single_word": false,
      "lstrip": false,
      "rstrip": false,
      "normalized": false,
      "special": true
    },
    {
      "id": 1,
      "content": "[PAD]",
      "single_word": false,
      "lstrip": false,
      "rstrip": false,
      "normalized": false,
      "special": true
    },
    {
      "id": 2,
      "content": "[CLS]",
      "single_word": false,
      "lstrip": false,
      "rstrip": false,
      "normalized": false,
      "special": true
    },
    {
      "id": 3,
      "content": "[SEP]",
      "single_word": false,
      "lstrip": false,
      "rstrip": false,
      "normalized": false,
      "special": true
    },
    {
      "id": 4,
      "content": "[MASK]",
      "single_word": false,
      "lstrip": false,
      "rstrip": false,
      "normalized": false,
      "special": true
    }
  ],
  "normalizer": {
    "type": "Sequence",
    "normalizers": [
      {
        "type": "NFD"
      },
      {
        "type": "Lowercase"
      }
    ]
  },
  "pre_tokenizer": {
    "type": "BertPreTokenizer"
  },
  "post_processor": {
    "type": "TemplateProcessing",
    "single": [
      {
        "SpecialToken": {
          "id": "[CLS]",
          "type_id": 0
        }
      },
      {
        "Sequence": {
          "id": "A",
          "type_id": 0
        }
      },
      {
        "SpecialToken": {
          "id": "[SEP]",
          "type_id": 0
        }
      },
      {
        "SpecialToken": {
          "id": "[PAD]",
          "type_id": 1
        }
      }
    ],
    "pair": [
      {
        "SpecialToken": {
          "id": "[CLS]",
          "type_id": 0
        }
      },
      {
        "Sequence": {
          "id": "A",
          "type_id": 0
        }
      },
      {
        "SpecialToken": {
          "id": "[SEP]",
          "type_id": 0
        }
      },
      {
        "Sequence": {
          "id": "B",
          "type_id": 0
        }
      },
      {
        "SpecialToken": {
          "id": "[SEP]",
          "type_id": 0
        }
      },
      {
        "SpecialToken": {
          "id": "[PAD]",
          "type_id": 1
        }
      }
    ],
    "special_tokens": {
      "[CLS]": {
        "id": "[CLS]",
        "ids": [
          2
        ],
        "tokens": [
          "[CLS]"
        ]
      },
      "[PAD]": {
        "id": "[PAD]",
        "ids": [
          1
        ],
        "tokens": [
          "[PAD]"
        ]
      },
      "[SEP]": {
        "id": "[SEP]",
        "ids": [
          3
        ],
        "tokens": [
          "[SEP]"
        ]
      }
    }
  },
  "decoder": {
    "type": "WordPiece",
    "prefix": "##",
    "cleanup": true
  },
  "model": {
    "type": "WordPiece",
    "unk_token": "[UNK]",
    "continuing_subword_prefix": "##",
    "max_input_chars_per_word": 100,
    "vocab": {
      "[UNK]": 0,
      "[PAD]": 1,
      "[CLS]": 2,
      "[SEP]": 3,
      "[MASK]": 4,
      "!": 5,
      "\"": 6,
      "#": 7,
      "$": 8,
      "%": 9,
      "&": 10,
      "'": 11,
      "(": 12,
      ")": 13,
      "*": 14,
      "+": 15,
      ",": 16,
      "-": 17,
      ".": 18,
      "/": 19,
      "0": 20,
      "1": 21,
      "2": 22,
      "3": 23,
      "4": 24,
      "5": 25,
      "6": 26,
      "7": 27,
      "8": 28,
      "9": 29,
      ":": 30,
      ";": 31,
      "=": 32,
      "?": 33,
      "@": 34,
      "[": 35,
      "]": 36,
      "_": 37,
      "`": 38,
      "a": 39,
      "b": 40,
      "c": 41,
      "d": 42,
      "e": 43,
      "f": 44,
      "g": 45,
      "h": 46,
      "i": 47,
      "j": 48,
      "k": 49,
      "l": 50,
      "m": 51,
      "n": 52,
      "o": 53,
      "p": 54,
      "q": 55,
      "r": 56,
      "s": 57,
      "t": 58,
      "u": 59,
      "v": 60,
      "w": 61,
      "x": 62,
      "y": 63,
      "z": 64,
      "~": 65,
      "°": 66,
      "²": 67,
      "×": 68,
      "ı": 69,
      "̀": 70,
      "́": 71,
      "̂": 72,
      "̆": 73,
      "̇": 74,
      "̈": 75,
      "̌": 76,
      "̦": 77,
      "̧": 78,
      "​": 79,
      "–": 80,
      "‘": 81,
      "’": 82,
      "“": 83,
      "”": 84,
      "…": 85,
      "‪": 86,
      "‬": 87,
      "‭": 88,
      "€": 89,
      "₺": 90,
      "⌚": 91,
      "⌛": 92,
      "✨": 93,
      "❌": 94,
      "❤": 95,
      "️": 96,
      "﻿": 97,
      "🌍": 98,
      "🍏": 99,
      "🍿": 100,
      "🎧": 101,
      "🏻": 102,
      "👎": 103,
      "👏": 104,
      "💳": 105,
      "💸": 106,
      "📱": 107,
      "📲": 108,
      "📺": 109,
      "🔄": 110,
      "🔋": 111,
      "🔒": 112,
      "😀": 113,
      "😒": 114,
      "😤": 115,
      "😱": 116,
      "🙌": 117,
      "🧐": 118,
      "##a": 119,
      "##r": 120,
      "##d": 121,
      "##e": 122,
      "##s": 123,
      "##̧": 124,
      "##i": 125,
      "##m": 126,
      "##o": 127,
      "##u": 128,
      "##n": 129,
      "##l": 130,
      "##ı": 131,
      "##z": 132,
      "##y": 133,
      "##b": 134,
      "##1": 135,
      "##3": 136,
      "##6": 137,
      "##4": 138,
      "##9": 139,
      "##c": 140,
      "##k": 141,
      "##t": 142,
      "##h": 143,
      "##̈": 144,
      "##0": 145,
      "##5": 146,
      "##f": 147,
      "##g": 148,
      "##̆": 149,
      "##v": 150,
      "##p": 151,
      "##̇": 152,
      "##2": 153,
      "##7": 154,
      "##j": 155,
      "##8": 156,
      "##̦": 157,
      "##x": 158,
      "##₺": 159,
      "##w": 160,
      "##°": 161,
      "##q": 162,
      "##̂": 163,
      "##́": 164,
      "##😒": 165,
      "##🍿": 166,
      "##‬": 167,
      "##×": 168,
      "##🔒": 169,
      "##²": 170,
      "##̌": 171,
      "##﻿": 172,
      "##⌛": 173,
      "##️": 174,
      "##✨": 175,
      "##🔄": 176,
      "##🏻": 177,
      "##​": 178,
      "##❤": 179,
      "##❌": 180,
      "##💸": 181,
      "##̀": 182,
      "##🍏": 183,
      "##er": 184,
      "##ar": 185,
      "##ü": 186,
      "##ş": 187,
      "##an": 188,
      "##li": 189,
      "##en": 190,
      "##ğ": 191,
      "##or": 192,
      "##in": 193,
      "##le": 194,
      "##ma": 195,
      "##la": 196,
      "##ın": 197,
      "##yor": 198,
      "##ler": 199,
      "##ç": 200,
      "##ir": 201,
      "##un": 202,
      "##lar": 203,
      "##ek": 204,
      "##et": 205,
      "##lı": 206,
      "##di": 207,
      "##de": 208,
      "##ak": 209,
      "##at": 210,
      "##dı": 211,
      "##es": 212,
      "##el": 213,
      "##im": 214,
      "##ün": 215,
      "da": 216,
      "##da": 217,
      "##on": 218,
      "##iz": 219,
      "##ö": 220,
      "ve": 221,
      "ç": 222,
      "##um": 223,
      "##az": 224,
      "ü": 225,
      "##il": 226,
      "ka": 227,
      "##ha": 228,
      "##ili": 229,
      "##iş": 230,
      "##ra": 231,
      "daha": 232,
      "bir": 233,
      "##ım": 234,
      "##me": 235,
      "##lan": 236,
      "##leri": 237,
      "##as": 238,
      "de": 239,
      "bu": 240,
      "ya": 241,
      "##lik": 242,
      "##iy": 243,
      "##ik": 244,
      "ol": 245,
      "##ta": 246,
      "##ur": 247,
      "sa": 248,
      "##rün": 249,
      "##tı": 250,
      "##ız": 251,
      "##ür": 252,
      "gen": 253,
      "##ul": 254,
      "ürün": 255,
      "##eri": 256,
      "##ları": 257,
      "##it": 258,
      "ş": 259,
      "##bili": 260,
      "kar": 261,
      "in": 262,
      "##ıyor": 263,
      "##ya": 264,
      "##üş": 265,
      "iç": 266,
      "##is": 267,
      "al": 268,
      "##du": 269,
      "sun": 270,
      "##ık": 271,
      "##am": 272,
      "ö": 273,
      "##ellik": 274,
      "##em": 275,
      "yap": 276,
      "##den": 277,
      "##dığ": 278,
      "##ük": 279,
      "##ti": 280,
      "an": 281,
      "##ok": 282,
      "##ce": 283,
      "ha": 284,
      "##ellikle": 285,
      "##ağ": 286,
      "et": 287,
      "##ıl": 288,
      "##ında": 289,
      "##bilir": 290,
      "genellikle": 291,
      "##ip": 292,
      "kul": 293,
      "##cı": 294,
      "##ır": 295,
      "i̇": 296,
      "kullan": 297,
      "##ay": 298,
      "gö": 299,
      "##te": 300,
      "ay": 301,
      "ara": 302,
      "için": 303,
      "##dan": 304,
      "baz": 305,
      "ola": 306,
      "##ol": 307,
      "##cak": 308,
      "##esi": 309,
      "##dım": 310,
      "##izm": 311,
      "##ış": 312,
      "##uyor": 313,
      "ver": 314,
      "##iyor": 315,
      "##ci": 316,
      "##ey": 317,
      "##izmet": 318,
      "##lerin": 319,
      "gün": 320,
      "hizmet": 321,
      "##üşt": 322,
      "##laş": 323,
      "##duğ": 324,
      "##eç": 325,
      "sür": 326,
      "##aş": 327,
      "müşt": 328,
      "olabilir": 329,
      "##ka": 330,
      "te": 331,
      "müşteri": 332,
      "##sı": 333,
      "##ile": 334,
      "ar": 335,
      "sor": 336,
      "##üz": 337,
      "bazı": 338,
      "ancak": 339,
      "##ara": 340,
      "##uz": 341,
      "son": 342,
      "##ıcı": 343,
      "##dir": 344,
      "değ": 345,
      "##ine": 346,
      "ın": 347,
      "##st": 348,
      "##go": 349,
      "gel": 350,
      "##lama": 351,
      "20": 352,
      "##inde": 353,
      "sip": 354,
      "##ariş": 355,
      "sipariş": 356,
      "##lış": 357,
      "##sın": 358,
      "##ca": 359,
      "ne": 360,
      "##yle": 361,
      "sorun": 362,
      "##ini": 363,
      "yet": 364,
      "##re": 365,
      "kullanıcı": 366,
      "kargo": 367,
      "ben": 368,
      "sunuyor": 369,
      "un": 370,
      "ma": 371,
      "##ğim": 372,
      "edi": 373,
      "##dim": 374,
      "fiy": 375,
      "nin": 376,
      "##ği": 377,
      "kali": 378,
      "##üm": 379,
      "##der": 380,
      "fiyat": 381,
      "bil": 382,
      "##dığım": 383,
      "##ların": 384,
      "##lık": 385,
      "##ası": 386,
      "mar": 387,
      "##iye": 388,
      "ile": 389,
      "nın": 390,
      "##ro": 391,
      "ta": 392,
      "##ih": 393,
      "##eli": 394,
      "ko": 395,
      "ön": 396,
      "uy": 397,
      "tele": 398,
      "baş": 399,
      "##ut": 400,
      "mo": 401,
      "den": 402,
      "##tır": 403,
      "yük": 404,
      "ek": 405,
      "##yi": 406,
      "do": 407,
      "tek": 408,
      "##man": 409,
      "##dığında": 410,
      "##dır": 411,
      "kı": 412,
      "olma": 413,
      "ban": 414,
      "yeter": 415,
      "kap": 416,
      "##for": 417,
      "ama": 418,
      "is": 419,
      "hizmetleri": 420,
      "##eş": 421,
      "sağ": 422,
      "yüks": 423,
      "tar": 424,
      "kon": 425,
      "##est": 426,
      "##fon": 427,
      "##mış": 428,
      "yok": 429,
      "##ekli": 430,
      "##sa": 431,
      "##ev": 432,
      "##ib": 433,
      "##ye": 434,
      "yüksek": 435,
      "##ade": 436,
      "çok": 437,
      "##sun": 438,
      "##duğu": 439,
      "##eti": 440,
      "##ıyorum": 441,
      "uyg": 442,
      "##medi": 443,
      "##uk": 444,
      "##ön": 445,
      "##miş": 446,
      "##dar": 447,
      "aç": 448,
      "etk": 449,
      "##men": 450,
      "##iç": 451,
      "##öz": 452,
      "hız": 453,
      "ger": 454,
      "par": 455,
      "tarih": 456,
      "##uş": 457,
      "tes": 458,
      "##ura": 459,
      "iş": 460,
      "##mak": 461,
      "düş": 462,
      "##al": 463,
      "##tir": 464,
      "##imi": 465,
      "##erv": 466,
      "##lıyor": 467,
      "##lem": 468,
      "sonra": 469,
      "bile": 470,
      "##öyle": 471,
      "ça": 472,
      "çık": 473,
      "##len": 474,
      "geç": 475,
      "##ub": 476,
      "##20": 477,
      "en": 478,
      "bilg": 479,
      "##şı": 480,
      "bo": 481,
      "##miyor": 482,
      "per": 483,
      "##ez": 484,
      "##tal": 485,
      "##tım": 486,
      "tesli": 487,
      "##lg": 488,
      "telefon": 489,
      "##eşit": 490,
      "her": 491,
      "##yorum": 492,
      "tl": 493,
      "##siz": 494,
      "var": 495,
      "mağ": 496,
      "##yı": 497,
      "##mıyor": 498,
      "serv": 499,
      "##si": 500,
      "yaz": 501,
      "çeşit": 502,
      "##ğı": 503,
      "servis": 504,
      "karşı": 505,
      "##ını": 506,
      "dur": 507,
      "##kt": 508,
      "##ver": 509,
      "##ep": 510,
      "seç": 511,
      "yan": 512,
      "gü": 513,
      "pro": 514,
      "##om": 515,
      "oldu": 516,
      "##mek": 517,
      "ter": 518,
      "##yas": 519,
      "or": 520,
      "##ah": 521,
      "süre": 522,
      "hızlı": 523,
      "hiç": 524,
      "##biliyor": 525,
      "çeşitli": 526,
      "2020": 527,
      "aldığım": 528,
      "sunduğu": 529,
      "iyi": 530,
      "rağ": 531,
      "olduğ": 532,
      "rağmen": 533,
      "fak": 534,
      "ürünleri": 535,
      "di": 536,
      "##cr": 537,
      "##ter": 538,
      "geniş": 539,
      "zam": 540,
      "##larak": 541,
      "kalite": 542,
      "çalış": 543,
      "ev": 544,
      "gön": 545,
      "##ken": 546,
      "çöz": 547,
      "kullanıcılar": 548,
      "ücr": 549,
      "çek": 550,
      "önce": 551,
      "kadar": 552,
      "aldım": 553,
      "on": 554,
      "##leme": 555,
      "ulaş": 556,
      "##zer": 557,
      "##arı": 558,
      "##eb": 559,
      "##ab": 560,
      "yaş": 561,
      "saat": 562,
      "olarak": 563,
      "yen": 564,
      "seçen": 565,
      "##cek": 566,
      "zaman": 567,
      "değiş": 568,
      "gar": 569,
      "##cih": 570,
      "##inden": 571,
      "tercih": 572,
      "##ap": 573,
      "##net": 574,
      "su": 575,
      "fat": 576,
      "iade": 577,
      "##yon": 578,
      "##us": 579,
      "kıyas": 580,
      "tür": 581,
      "##cel": 582,
      "fakat": 583,
      "kre": 584,
      "seçenek": 585,
      "öde": 586,
      "tekn": 587,
      "fatura": 588,
      "##madı": 589,
      "garan": 590,
      "##ptal": 591,
      "değil": 592,
      "tarihinde": 593,
      "yer": 594,
      "##ven": 595,
      "##tim": 596,
      "##diğim": 597,
      "bul": 598,
      "##dece": 599,
      "##forman": 600,
      "yar": 601,
      "ak": 602,
      "##landığında": 603,
      "dön": 604,
      "performan": 605,
      "uz": 606,
      "kıyaslandığında": 607,
      "gönder": 608,
      "sat": 609,
      "öz": 610,
      "##lü": 611,
      "sık": 612,
      "bazen": 613,
      "##ibi": 614,
      "##ki": 615,
      "durum": 616,
      "ki": 617,
      "##ayı": 618,
      "düşük": 619,
      "kredi": 620,
      "##unu": 621,
      "##ig": 622,
      "yüz": 623,
      "kalit": 624,
      "dest": 625,
      "##tan": 626,
      "tak": 627,
      "##lin": 628,
      "hala": 629,
      "##lk": 630,
      "##os": 631,
      "destek": 632,
      "bek": 633,
      "##dur": 634,
      "geldi": 635,
      "şek": 636,
      "güven": 637,
      "tur": 638,
      "karşılaş": 639,
      "##ça": 640,
      "num": 641,
      "hat": 642,
      "bü": 643,
      "tat": 644,
      "##ternet": 645,
      "##00": 646,
      "kam": 647,
      "sadece": 648,
      "##diler": 649,
      "alış": 650,
      "geri": 651,
      "##liği": 652,
      "##veriş": 653,
      "##sız": 654,
      "gör": 655,
      "##lerini": 656,
      "mem": 657,
      "yıl": 658,
      "##ına": 659,
      "##lu": 660,
      "##yla": 661,
      "git": 662,
      "##fa": 663,
      "düz": 664,
      "##tik": 665,
      "tem": 666,
      "marka": 667,
      "##ban": 668,
      "yak": 669,
      "ücret": 670,
      "##asar": 671,
      "sorunu": 672,
      "alışveriş": 673,
      "uygu": 674,
      "ilg": 675,
      "türk": 676,
      "##va": 677,
      "##lam": 678,
      "##ımı": 679,
      "##tırıl": 680,
      "##maya": 681,
      "şub": 682,
      "diye": 683,
      "mağaz": 684,
      "para": 685,
      "##ması": 686,
      "deney": 687,
      "dan": 688,
      "yapıl": 689,
      "kur": 690,
      "etkili": 691,
      "##bir": 692,
      "##ilen": 693,
      "##ilde": 694,
      "kır": 695,
      "gibi": 696,
      "uygulama": 697,
      "az": 698,
      "geli": 699,
      "##tırıldığında": 700,
      "karşılaştırıldığında": 701,
      "memn": 702,
      "##se": 703,
      "##malı": 704,
      "memnun": 705,
      "ürünler": 706,
      "##ber": 707,
      "şekilde": 708,
      "##sam": 709,
      "iptal": 710,
      "##tü": 711,
      "at": 712,
      "##mes": 713,
      "##ere": 714,
      "##ından": 715,
      "##cağ": 716,
      "##bil": 717,
      "##ark": 718,
      "yapı": 719,
      "##yan": 720,
      "##çe": 721,
      "uygun": 722,
      "##ten": 723,
      "ele": 724,
      "##san": 725,
      "söyle": 726,
      "##isi": 727,
      "teslim": 728,
      "ayn": 729,
      "##to": 730,
      "yetersiz": 731,
      "##iniz": 732,
      "biz": 733,
      "##ren": 734,
      "##lığı": 735,
      "aynı": 736,
      "##mem": 737,
      "201": 738,
      "bak": 739,
      "##sınız": 740,
      "##pan": 741,
      "kö": 742,
      "##lat": 743,
      "hiçbir": 744,
      "ad": 745,
      "zor": 746,
      "##ran": 747,
      "garanti": 748,
      "kes": 749,
      "##rik": 750,
      "şey": 751,
      "fir": 752,
      "üzer": 753,
      "##dık": 754,
      "araç": 755,
      "neden": 756,
      "faz": 757,
      "edil": 758,
      "ken": 759,
      "haf": 760,
      "fazla": 761,
      "##let": 762,
      "ge": 763,
      "##ğer": 764,
      "##yun": 765,
      "bulun": 766,
      "nun": 767,
      "iste": 768,
      "gerek": 769,
      "internet": 770,
      "kalitesi": 771,
      "##ji": 772,
      "fark": 773,
      "kampan": 774,
      "##ba": 775,
      "mak": 776,
      "böyle": 777,
      "##rı": 778,
      "bekli": 779,
      "##lerinde": 780,
      "##sik": 781,
      "##üyor": 782,
      "tara": 783,
      "gir": 784,
      "sağlıyor": 785,
      "çözüm": 786,
      "konu": 787,
      "##lerim": 788,
      "elekt": 789,
      "sü": 790,
      "10": 791,
      "sit": 792,
      "##gün": 793,
      "doğ": 794,
      "olan": 795,
      "hak": 796,
      "uzun": 797,
      "tasar": 798,
      "##tığ": 799,
      "##min": 800,
      "kapsam": 801,
      "büy": 802,
      "taraf": 803,
      "##ing": 804,
      "be": 805,
      "tan": 806,
      "##dak": 807,
      "##tık": 808,
      "bank": 809,
      "tv": 810,
      "##mesi": 811,
      "hafta": 812,
      "mer": 813,
      "büyük": 814,
      "yüzden": 815,
      "bağ": 816,
      "##dirim": 817,
      "pak": 818,
      "veril": 819,
      "##edi": 820,
      "sunar": 821,
      "bana": 822,
      "##dum": 823,
      "##lerde": 824,
      "dış": 825,
      "##ikay": 826,
      "##ira": 827,
      "rek": 828,
      "##ırak": 829,
      "bırak": 830,
      "##dür": 831,
      "diğer": 832,
      "yeterli": 833,
      "##etir": 834,
      "haber": 835,
      "gi": 836,
      "##ıza": 837,
      "performans": 838,
      "teslima": 839,
      "güncel": 840,
      "getir": 841,
      "##masın": 842,
      "##lerine": 843,
      "etti": 844,
      "elektrik": 845,
      "isti": 846,
      "yat": 847,
      "to": 848,
      "kal": 849,
      "eksik": 850,
      "##dek": 851,
      "##if": 852,
      "##lay": 853,
      "olduğum": 854,
      "şikay": 855,
      "##ist": 856,
      "##line": 857,
      "seçenekleri": 858,
      "siz": 859,
      "yol": 860,
      "bilet": 861,
      "##bank": 862,
      "işlem": 863,
      "##ılı": 864,
      "orta": 865,
      "yeni": 866,
      "dönüş": 867,
      "hep": 868,
      "mağaza": 869,
      "st": 870,
      "sig": 871,
      "bilgi": 872,
      "mark": 873,
      "##iyet": 874,
      "sam": 875,
      "yön": 876,
      "##ince": 877,
      "numara": 878,
      "##yoruz": 879,
      "av": 880,
      "defa": 881,
      "olduk": 882,
      "##res": 883,
      "es": 884,
      "samsun": 885,
      "diyor": 886,
      "##inin": 887,
      "kiş": 888,
      "##bul": 889,
      "##pp": 890,
      "veri": 891,
      "kaliteli": 892,
      "genel": 893,
      "düzen": 894,
      "kampanya": 895,
      "##larda": 896,
      "şikayet": 897,
      "bun": 898,
      "##ch": 899,
      "##dik": 900,
      "yardım": 901,
      "sigor": 902,
      "##oğ": 903,
      "##yın": 904,
      "co": 905,
      "er": 906,
      "##lde": 907,
      "##ğini": 908,
      "teslimat": 909,
      "içer": 910,
      "##istem": 911,
      "##iyle": 912,
      "i̇n": 913,
      "##çi": 914,
      "samsung": 915,
      "ala": 916,
      "##mam": 917,
      "sürekli": 918,
      "bugün": 919,
      "##stu": 920,
      "##ram": 921,
      "i̇ş": 922,
      "paket": 923,
      "##yal": 924,
      "bankası": 925,
      "sunmalı": 926,
      "dostu": 927,
      "mayı": 928,
      "göz": 929,
      "sı": 930,
      "fiyatları": 931,
      "mi": 932,
      "##ınır": 933,
      "##yen": 934,
      "##lerle": 935,
      "içerik": 936,
      "hem": 937,
      "##ama": 938,
      "##rar": 939,
      "##tığım": 940,
      "sev": 941,
      "sistem": 942,
      "##anta": 943,
      "##ks": 944,
      "##daş": 945,
      "##çek": 946,
      "mayıs": 947,
      "kırık": 948,
      "deneyim": 949,
      "etkile": 950,
      "15": 951,
      "po": 952,
      "##gi": 953,
      "sah": 954,
      "i̇ade": 955,
      "ses": 956,
      "tale": 957,
      "gerçek": 958,
      "olduğunu": 959,
      "kay": 960,
      "oyun": 961,
      "kapsamlı": 962,
      "hes": 963,
      "oldukça": 964,
      "se": 965,
      "kargoya": 966,
      "mağdur": 967,
      "bit": 968,
      "##ül": 969,
      "##ilik": 970,
      "##olu": 971,
      "ödeme": 972,
      "##laşık": 973,
      "sp": 974,
      "##asıl": 975,
      "##olo": 976,
      "as": 977,
      "göre": 978,
      "##cu": 979,
      "süreci": 980,
      "dün": 981,
      "##za": 982,
      "##art": 983,
      "ürünü": 984,
      "reklam": 985,
      "sınır": 986,
      "siparişim": 987,
      "##ıma": 988,
      "gelen": 989,
      "nasıl": 990,
      "##sunuz": 991,
      "sonu": 992,
      "dik": 993,
      "##anın": 994,
      "##maş": 995,
      "##tur": 996,
      "##ana": 997,
      "ürünlerin": 998,
      "ekran": 999,
      "iz": 1000,
      "mu": 1001,
      "##paz": 1002,
      "ayrı": 1003,
      "##iyeti": 1004,
      "##larını": 1005,
      "##ve": 1006,
      "##leş": 1007,
      "moder": 1008,
      "mobil": 1009,
      "istiyorum": 1010,
      "dev": 1011,
      "mode": 1012,
      "kendi": 1013,
      "tren": 1014,
      "tekrar": 1015,
      "cev": 1016,
      "##deki": 1017,
      "##meye": 1018,
      "san": 1019,
      "##ad": 1020,
      "##üt": 1021,
      "##asyon": 1022,
      "bilgis": 1023,
      "##muş": 1024,
      "edici": 1025,
      "haz": 1026,
      "aradım": 1027,
      "tam": 1028,
      "##öy": 1029,
      "##lere": 1030,
      "bay": 1031,
      "tut": 1032,
      "teknolo": 1033,
      "##unda": 1034,
      "yeterince": 1035,
      "plat": 1036,
      "##dy": 1037,
      "i̇st": 1038,
      "mes": 1039,
      "05": 1040,
      "banka": 1041,
      "##form": 1042,
      "ün": 1043,
      "cih": 1044,
      "temiz": 1045,
      "kart": 1046,
      "ettim": 1047,
      "numaralı": 1048,
      "platform": 1049,
      "eli": 1050,
      "net": 1051,
      "##ht": 1052,
      "sigorta": 1053,
      "fil": 1054,
      "##han": 1055,
      "tasarım": 1056,
      "app": 1057,
      "gelmedi": 1058,
      "sınırlı": 1059,
      "##tr": 1060,
      "başv": 1061,
      "##kat": 1062,
      "##lara": 1063,
      "online": 1064,
      "modern": 1065,
      "almış": 1066,
      "dola": 1067,
      "##ros": 1068,
      "dikkat": 1069,
      "cihaz": 1070,
      "dışarı": 1071,
      "beli": 1072,
      "olduğu": 1073,
      "süp": 1074,
      "dak": 1075,
      "apple": 1076,
      "##dığı": 1077,
      "pr": 1078,
      "##larla": 1079,
      "benzer": 1080,
      "cevap": 1081,
      "verdim": 1082,
      "özellik": 1083,
      "##liy": 1084,
      "boz": 1085,
      "##cell": 1086,
      "bekliyoruz": 1087,
      "##mesini": 1088,
      "firma": 1089,
      "farklı": 1090,
      "bilgisay": 1091,
      "belir": 1092,
      "##ed": 1093,
      "yapıyor": 1094,
      "##memi": 1095,
      "##eye": 1096,
      "##ecek": 1097,
      "görün": 1098,
      "makin": 1099,
      "süpür": 1100,
      "ren": 1101,
      "ye": 1102,
      "##ime": 1103,
      "op": 1104,
      "içinde": 1105,
      "günü": 1106,
      "başla": 1107,
      "mesa": 1108,
      "##sında": 1109,
      "##ge": 1110,
      "ilgili": 1111,
      "kötü": 1112,
      "##ınız": 1113,
      "sahip": 1114,
      "##iyon": 1115,
      "##gram": 1116,
      "##iya": 1117,
      "memnuniyeti": 1118,
      "##üs": 1119,
      "##lerimde": 1120,
      "şu": 1121,
      "sunmalısınız": 1122,
      "fa": 1123,
      "##erek": 1124,
      "##son": 1125,
      "##ıp": 1126,
      "##yici": 1127,
      "başvur": 1128,
      "iki": 1129,
      "halde": 1130,
      "##ilir": 1131,
      "ac": 1132,
      "##ika": 1133,
      "##fen": 1134,
      "tatmin": 1135,
      "##ının": 1136,
      "bur": 1137,
      "başka": 1138,
      "fiyatlı": 1139,
      "##suz": 1140,
      "##oda": 1141,
      "##kom": 1142,
      "turk": 1143,
      "bilgisayar": 1144,
      "uç": 1145,
      "alt": 1146,
      "trendy": 1147,
      "has": 1148,
      "söz": 1149,
      "##maz": 1150,
      "parça": 1151,
      "##vaş": 1152,
      "trendyol": 1153,
      "yenilik": 1154,
      "2019": 1155,
      "performansı": 1156,
      "kesin": 1157,
      "##yu": 1158,
      "##sel": 1159,
      "for": 1160,
      "##htiya": 1161,
      "arıza": 1162,
      "ayrıca": 1163,
      "oran": 1164,
      "teknik": 1165,
      "yayın": 1166,
      "##kez": 1167,
      "bağlan": 1168,
      "yavaş": 1169,
      "yetk": 1170,
      "##larıyla": 1171,
      "numar": 1172,
      "##antaj": 1173,
      "##larına": 1174,
      "çıktı": 1175,
      "kim": 1176,
      "##ua": 1177,
      "##izi": 1178,
      "gündür": 1179,
      "ürünün": 1180,
      "##daki": 1181,
      "merkez": 1182,
      "güncelleme": 1183,
      "##fer": 1184,
      "##leriyle": 1185,
      "yel": 1186,
      "ede": 1187,
      "etmemi": 1188,
      "der": 1189,
      "verdiğim": 1190,
      "dışarıda": 1191,
      "kor": 1192,
      "##anbul": 1193,
      "##we": 1194,
      "yelpaz": 1195,
      "##id": 1196,
      "##inema": 1197,
      "##lon": 1198,
      "##tu": 1199,
      "ortalama": 1200,
      "i̇stanbul": 1201,
      "sen": 1202,
      "vi": 1203,
      "kan": 1204,
      "##üğ": 1205,
      "oluş": 1206,
      "hay": 1207,
      "mail": 1208,
      "hata": 1209,
      "gitti": 1210,
      "spor": 1211,
      "nis": 1212,
      "mesaj": 1213,
      "##ck": 1214,
      "##liyet": 1215,
      "hua": 1216,
      "vest": 1217,
      "voda": 1218,
      "##wei": 1219,
      "huawei": 1220,
      "vestel": 1221,
      "vodafon": 1222,
      "ilk": 1223,
      "##ru": 1224,
      "yetkili": 1225,
      "##ildi": 1226,
      "##bı": 1227,
      "yardımcı": 1228,
      "12": 1229,
      "##larında": 1230,
      "fin": 1231,
      "##mama": 1232,
      "benim": 1233,
      "talep": 1234,
      "ik": 1235,
      "##tür": 1236,
      "satın": 1237,
      "vodafone": 1238,
      "ho": 1239,
      "heps": 1240,
      "aş": 1241,
      "ten": 1242,
      "##amıyorum": 1243,
      "hizmetlerini": 1244,
      "alı": 1245,
      "tercihlerimde": 1246,
      "hakk": 1247,
      "bekle": 1248,
      "##oo": 1249,
      "lüt": 1250,
      "##ıt": 1251,
      "dediler": 1252,
      "üzerinden": 1253,
      "dolayı": 1254,
      "##ola": 1255,
      "##sit": 1256,
      "ist": 1257,
      "alın": 1258,
      "dakika": 1259,
      "söy": 1260,
      "##one": 1261,
      "kara": 1262,
      "##ıntı": 1263,
      "kat": 1264,
      "##şim": 1265,
      "30": 1266,
      "seb": 1267,
      "##dem": 1268,
      "##emek": 1269,
      "arçe": 1270,
      "arçelik": 1271,
      "##emiyor": 1272,
      "yaklaşık": 1273,
      "nisan": 1274,
      "##amıyor": 1275,
      "lütfen": 1276,
      "kah": 1277,
      "##muyor": 1278,
      "em": 1279,
      "##ör": 1280,
      "telekom": 1281,
      "##usu": 1282,
      "mı": 1283,
      "##lük": 1284,
      "üye": 1285,
      "üst": 1286,
      "##sına": 1287,
      "##bah": 1288,
      "##tel": 1289,
      "##hat": 1290,
      "değiştir": 1291,
      "##gaz": 1292,
      "poli": 1293,
      "ilet": 1294,
      "##larım": 1295,
      "rah": 1296,
      "##ici": 1297,
      "arka": 1298,
      "##ılım": 1299,
      "##tap": 1300,
      "değer": 1301,
      "açı": 1302,
      "güvenilir": 1303,
      "adet": 1304,
      "rahat": 1305,
      "##old": 1306,
      "ihtiya": 1307,
      "##ps": 1308,
      "kü": 1309,
      "kısa": 1310,
      "##etim": 1311,
      "dayan": 1312,
      "##sunda": 1313,
      "am": 1314,
      "ku": 1315,
      "açık": 1316,
      "ab": 1317,
      "stan": 1318,
      "sonuç": 1319,
      "##of": 1320,
      "süreç": 1321,
      "model": 1322,
      "##ızı": 1323,
      "ediyor": 1324,
      "deneyimi": 1325,
      "bel": 1326,
      "sm": 1327,
      "öğ": 1328,
      "artık": 1329,
      "çıkar": 1330,
      "yemek": 1331,
      "##per": 1332,
      "##dığını": 1333,
      "avantaj": 1334,
      "bas": 1335,
      "oluyor": 1336,
      "içeri": 1337,
      "det": 1338,
      "##bo": 1339,
      "kolay": 1340,
      "bey": 1341,
      "göst": 1342,
      "olabiliyor": 1343,
      "kargom": 1344,
      "garant": 1345,
      "süresi": 1346,
      "caz": 1347,
      "insan": 1348,
      "param": 1349,
      "##esine": 1350,
      "du": 1351,
      "karmaş": 1352,
      "karaca": 1353,
      "cazip": 1354,
      "va": 1355,
      "##umu": 1356,
      "##urada": 1357,
      "ise": 1358,
      "##cağım": 1359,
      "hepsib": 1360,
      "yine": 1361,
      "##ıklı": 1362,
      "##masını": 1363,
      "program": 1364,
      "##trol": 1365,
      "hepsiburada": 1366,
      "indirim": 1367,
      "hayat": 1368,
      "com": 1369,
      "##eleri": 1370,
      "##ans": 1371,
      "##pta": 1372,
      "aray": 1373,
      "tük": 1374,
      "##esinden": 1375,
      "ço": 1376,
      "çev": 1377,
      "##yıp": 1378,
      "eğ": 1379,
      "fır": 1380,
      "##lak": 1381,
      "aldık": 1382,
      "ediyorum": 1383,
      "bor": 1384,
      "çağ": 1385,
      "hesab": 1386,
      "dayanıklı": 1387,
      "dol": 1388,
      "gaz": 1389,
      "##raf": 1390,
      "etmek": 1391,
      "sorunları": 1392,
      "mil": 1393,
      "sıkıntı": 1394,
      "piş": 1395,
      "düşün": 1396,
      "söylediler": 1397,
      "##ksiyon": 1398,
      "oto": 1399,
      "ener": 1400,
      "ücreti": 1401,
      "kartı": 1402,
      "##isiz": 1403,
      "hayal": 1404,
      "aradığım": 1405,
      "türkiye": 1406,
      "karmaşık": 1407,
      "##vi": 1408,
      "beni": 1409,
      "kontrol": 1410,
      "##olding": 1411,
      "mig": 1412,
      "say": 1413,
      "geliyor": 1414,
      "gr": 1415,
      "##makta": 1416,
      "satış": 1417,
      "##lığ": 1418,
      "##imli": 1419,
      "migros": 1420,
      "##bva": 1421,
      "yaptım": 1422,
      "turkcell": 1423,
      "tab": 1424,
      "yanlış": 1425,
      "##eme": 1426,
      "##esinde": 1427,
      "yapa": 1428,
      "don": 1429,
      "sağlık": 1430,
      "##sil": 1431,
      "##10": 1432,
      "##iliyor": 1433,
      "kapat": 1434,
      "ro": 1435,
      "##yası": 1436,
      "##blem": 1437,
      "zira": 1438,
      "##madan": 1439,
      "##imum": 1440,
      "bırakıyorum": 1441,
      "##larının": 1442,
      "alan": 1443,
      "##düm": 1444,
      "bbva": 1445,
      "pe": 1446,
      "##lardan": 1447,
      "problem": 1448,
      "kaz": 1449,
      "öm": 1450,
      "##sından": 1451,
      "##omi": 1452,
      "çeşitliliği": 1453,
      "kez": 1454,
      "##sm": 1455,
      "##taş": 1456,
      "konusunda": 1457,
      "ziraat": 1458,
      "proj": 1459,
      "##ebek": 1460,
      "yerine": 1461,
      "##laya": 1462,
      "mart": 1463,
      "pay": 1464,
      "##eh": 1465,
      "##larca": 1466,
      "kole": 1467,
      "devam": 1468,
      "##arak": 1469,
      "mal": 1470,
      "no": 1471,
      "yenilikçi": 1472,
      "yelpazesi": 1473,
      "can": 1474,
      "##emi": 1475,
      "##lendir": 1476,
      "yaşana": 1477,
      "##iver": 1478,
      "##uma": 1479,
      "cinema": 1480,
      "04": 1481,
      "teknoloji": 1482,
      "etkileyici": 1483,
      "yaşa": 1484,
      "##laj": 1485,
      "seviye": 1486,
      "arac": 1487,
      "##ceğim": 1488,
      "aydır": 1489,
      "##ic": 1490,
      "##mesine": 1491,
      "res": 1492,
      "##fes": 1493,
      "üç": 1494,
      "mü": 1495,
      "yo": 1496,
      "##yn": 1497,
      "çalışan": 1498,
      "şube": 1499,
      "11": 1500,
      "##tor": 1501,
      "olur": 1502,
      "servise": 1503,
      "##iversit": 1504,
      "elime": 1505,
      "##ximum": 1506,
      "yatır": 1507,
      "kahve": 1508,
      "##ğen": 1509,
      "##irk": 1510,
      "olmasına": 1511,
      "güvenlik": 1512,
      "holding": 1513,
      "vide": 1514,
      "##balaj": 1515,
      "ambalaj": 1516,
      "19": 1517,
      "##ıldı": 1518,
      "vaat": 1519,
      "üniversit": 1520,
      "##git": 1521,
      "##landır": 1522,
      "konfor": 1523,
      "top": 1524,
      "koleksiyon": 1525,
      "kol": 1526,
      "##ov": 1527,
      "i̇z": 1528,
      "ayak": 1529,
      "büt": 1530,
      "eski": 1531,
      "14": 1532,
      "##zon": 1533,
      "##iyim": 1534,
      "uygulaması": 1535,
      "siparişi": 1536,
      "cinemaximum": 1537,
      "kartım": 1538,
      "almak": 1539,
      "yaptı": 1540,
      "ürünüm": 1541,
      "kullanış": 1542,
      "çekici": 1543,
      "sefer": 1544,
      "film": 1545,
      "sene": 1546,
      "##işim": 1547,
      "beğen": 1548,
      "medi": 1549,
      "##iv": 1550,
      "##isel": 1551,
      "gidi": 1552,
      "öğren": 1553,
      "13": 1554,
      "##viz": 1555,
      "##imdi": 1556,
      "saç": 1557,
      "##yip": 1558,
      "şirk": 1559,
      "beri": 1560,
      "##sinde": 1561,
      "bunun": 1562,
      "nere": 1563,
      "##una": 1564,
      "##ize": 1565,
      "standar": 1566,
      "video": 1567,
      "kut": 1568,
      "##ag": 1569,
      "hava": 1570,
      "bö": 1571,
      "hedi": 1572,
      "şar": 1573,
      "önem": 1574,
      "##utub": 1575,
      "el": 1576,
      "har": 1577,
      "kok": 1578,
      "sabah": 1579,
      "koç": 1580,
      "düzenli": 1581,
      "kullanım": 1582,
      "mac": 1583,
      "bildirim": 1584,
      "person": 1585,
      "takip": 1586,
      "tutar": 1587,
      "ihtiyaç": 1588,
      "##lo": 1589,
      "arıyorum": 1590,
      "kırıklığı": 1591,
      "standart": 1592,
      "##luk": 1593,
      "##hili": 1594,
      "buz": 1595,
      "istedim": 1596,
      "youtub": 1597,
      "youtube": 1598,
      "i̇ptal": 1599,
      "şarj": 1600,
      "ağ": 1601,
      "yoğ": 1602,
      "site": 1603,
      "arkadaş": 1604,
      "arayüz": 1605,
      "lira": 1606,
      "yazılım": 1607,
      "eğit": 1608,
      "i̇ç": 1609,
      "##vizyon": 1610,
      "içi": 1611,
      "##ia": 1612,
      "market": 1613,
      "piz": 1614,
      "rez": 1615,
      "uzak": 1616,
      "##abiliyor": 1617,
      "başladı": 1618,
      "anad": 1619,
      "etme": 1620,
      "özellikle": 1621,
      "goo": 1622,
      "olmadı": 1623,
      "adres": 1624,
      "03": 1625,
      "ür": 1626,
      "kaç": 1627,
      "hazır": 1628,
      "vak": 1629,
      "zat": 1630,
      "ayında": 1631,
      "temsil": 1632,
      "16": 1633,
      "şık": 1634,
      "##miyorum": 1635,
      "şimdi": 1636,
      "gerekli": 1637,
      "söylen": 1638,
      "üniversitesi": 1639,
      "anadolu": 1640,
      "18": 1641,
      "ok": 1642,
      "##ko": 1643,
      "üy": 1644,
      "edildi": 1645,
      "##atan": 1646,
      "özellikleri": 1647,
      "##asını": 1648,
      "zaten": 1649,
      "25": 1650,
      "alıyor": 1651,
      "anlaş": 1652,
      "haberleri": 1653,
      "sta": 1654,
      "televizyon": 1655,
      "kişisel": 1656,
      "herhan": 1657,
      "##umsuz": 1658,
      "dedi": 1659,
      "arama": 1660,
      "gec": 1661,
      "herhangi": 1662,
      "bim": 1663,
      "seçenekler": 1664,
      "doğru": 1665,
      "vatan": 1666,
      "##af": 1667,
      "##gle": 1668,
      "kitap": 1669,
      "100": 1670,
      "##mal": 1671,
      "moda": 1672,
      "google": 1673,
      "sos": 1674,
      "##üc": 1675,
      "##ağı": 1676,
      "veriyor": 1677,
      "phili": 1678,
      "taş": 1679,
      "##sat": 1680,
      "pizza": 1681,
      "philips": 1682,
      "06": 1683,
      "eder": 1684,
      "gözük": 1685,
      "##mir": 1686,
      "##meyen": 1687,
      "süreleri": 1688,
      "##ger": 1689,
      "değişim": 1690,
      "özel": 1691,
      "pan": 1692,
      "sıra": 1693,
      "smart": 1694,
      "##siniz": 1695,
      "belirt": 1696,
      "üyelik": 1697,
      "enerji": 1698,
      "kere": 1699,
      "odak": 1700,
      "pep": 1701,
      "##up": 1702,
      "geçti": 1703,
      "kalites": 1704,
      "defalarca": 1705,
      "i̇nternet": 1706,
      "kas": 1707,
      "maliyet": 1708,
      "men": 1709,
      "sağlama": 1710,
      "tarafıma": 1711,
      "##ehir": 1712,
      "##cuk": 1713,
      "konuş": 1714,
      "bunu": 1715,
      "pa": 1716,
      "##ilendir": 1717,
      "başvuru": 1718,
      "nor": 1719,
      "##bile": 1720,
      "başarı": 1721,
      "uçuş": 1722,
      "ayakka": 1723,
      "nerede": 1724,
      "içecek": 1725,
      "halk": 1726,
      "vermiyor": 1727,
      "evde": 1728,
      "##sal": 1729,
      "bankacı": 1730,
      "sin": 1731,
      "##lamadım": 1732,
      "açıl": 1733,
      "aylık": 1734,
      "kullanıcıların": 1735,
      "geliş": 1736,
      "kişi": 1737,
      "met": 1738,
      "##lecek": 1739,
      "##madım": 1740,
      "verdi": 1741,
      "tarafından": 1742,
      "##medim": 1743,
      "##lerinin": 1744,
      "sebeb": 1745,
      "##yım": 1746,
      "##ilmiş": 1747,
      "kr": 1748,
      "hesap": 1749,
      "17": 1750,
      "bilgilendir": 1751,
      "ri": 1752,
      "##izde": 1753,
      "ank": 1754,
      "stok": 1755,
      "fo": 1756,
      "yi": 1757,
      "verimli": 1758,
      "##leştir": 1759,
      "kullanışlı": 1760,
      "odaklı": 1761,
      "##asından": 1762,
      "##cede": 1763,
      "yazıyor": 1764,
      "ettiği": 1765,
      "asla": 1766,
      "detay": 1767,
      "bili": 1768,
      "##kan": 1769,
      "##fit": 1770,
      "kayı": 1771,
      "yani": 1772,
      "##tığımda": 1773,
      "##meden": 1774,
      "hizmetlerine": 1775,
      "02": 1776,
      "##eyi": 1777,
      "super": 1778,
      "düzel": 1779,
      "macfit": 1780,
      "şiş": 1781,
      "hatası": 1782,
      "yapılmadı": 1783,
      "hazir": 1784,
      "bozul": 1785,
      "kayıt": 1786,
      "kurul": 1787,
      "##diğimde": 1788,
      "hastan": 1789,
      "##ptali": 1790,
      "aradığımda": 1791,
      "atı": 1792,
      "onay": 1793,
      "ürünlerinin": 1794,
      "##dü": 1795,
      "##lix": 1796,
      "olması": 1797,
      "##ona": 1798,
      "yaptır": 1799,
      "##fe": 1800,
      "boş": 1801,
      "##ktan": 1802,
      "gecik": 1803,
      "ber": 1804,
      "##bi": 1805,
      "##epeti": 1806,
      "içerisinde": 1807,
      "hi": 1808,
      "xia": 1809,
      "ettiğim": 1810,
      "xiaomi": 1811,
      "veya": 1812,
      "tav": 1813,
      "##mekte": 1814,
      "süpürg": 1815,
      "süpürge": 1816,
      "renk": 1817,
      "kalıyor": 1818,
      "kabul": 1819,
      "aldığımız": 1820,
      "doğal": 1821,
      "##emiyorum": 1822,
      "##yo": 1823,
      "##etimi": 1824,
      "salon": 1825,
      "hakkında": 1826,
      "ayakkabı": 1827,
      "haziran": 1828,
      "##asında": 1829,
      "aldı": 1830,
      "geçen": 1831,
      "güç": 1832,
      "pepsi": 1833,
      "00": 1834,
      "des": 1835,
      "##eler": 1836,
      "##lısınız": 1837,
      "birka": 1838,
      "##ımın": 1839,
      "##likle": 1840,
      "i̇lg": 1841,
      "götür": 1842,
      "kısm": 1843,
      "##masına": 1844,
      "birkaç": 1845,
      "bin": 1846,
      "##üne": 1847,
      "arayüzü": 1848,
      "soğ": 1849,
      "##ot": 1850,
      "##mez": 1851,
      "yarat": 1852,
      "##lamıyorum": 1853,
      "##flix": 1854,
      "##lamıyor": 1855,
      "vermiş": 1856,
      "sağlar": 1857,
      "netflix": 1858,
      "çocuk": 1859,
      "sosyal": 1860,
      "##sin": 1861,
      "##ök": 1862,
      "makinesi": 1863,
      "bağlantı": 1864,
      "gider": 1865,
      "21": 1866,
      "##memiş": 1867,
      "teknoloj": 1868,
      "hediye": 1869,
      "üyeli": 1870,
      "durumu": 1871,
      "bekliyorum": 1872,
      "markanın": 1873,
      "şirket": 1874,
      "tüm": 1875,
      "verilmedi": 1876,
      "gerçekten": 1877,
      "ford": 1878,
      "emekli": 1879,
      "politik": 1880,
      "paha": 1881,
      "##uluk": 1882,
      "digit": 1883,
      "çekiyor": 1884,
      "bekleme": 1885,
      "mas": 1886,
      "##dola": 1887,
      "##pa": 1888,
      "kom": 1889,
      "yık": 1890,
      "buzdola": 1891,
      "pahalı": 1892,
      "eş": 1893,
      "profes": 1894,
      "kick": 1895,
      "pişman": 1896,
      "stabil": 1897,
      "tr": 1898,
      "kab": 1899,
      "işle": 1900,
      "zorunda": 1901,
      "numarası": 1902,
      "oluştur": 1903,
      "açısından": 1904,
      "profesyon": 1905,
      "bi": 1906,
      "##urk": 1907,
      "arayıp": 1908,
      "##sızlık": 1909,
      "tasarımı": 1910,
      "hemen": 1911,
      "basit": 1912,
      "kazan": 1913,
      "yoğun": 1914,
      "im": 1915,
      "##uc": 1916,
      "##enin": 1917,
      "##duğum": 1918,
      "ilgilen": 1919,
      "araçları": 1920,
      "fırsat": 1921,
      "sağlamalısınız": 1922,
      "digiturk": 1923,
      "car": 1924,
      "##abilir": 1925,
      "##etici": 1926,
      "gam": 1927,
      "yapar": 1928,
      "tarihi": 1929,
      "çalışıyor": 1930,
      "lez": 1931,
      "telefonu": 1932,
      "memnuniyet": 1933,
      "len": 1934,
      "hale": 1935,
      "##içi": 1936,
      "makine": 1937,
      "tane": 1938,
      "bize": 1939,
      "tw": 1940,
      "##pe": 1941,
      "##leti": 1942,
      "kala": 1943,
      "##rada": 1944,
      "##tıcı": 1945,
      "sürat": 1946,
      "diyorlar": 1947,
      "##tuk": 1948,
      "##50": 1949,
      "##lanıyor": 1950,
      "benz": 1951,
      "verildi": 1952,
      "mon": 1953,
      "##ton": 1954,
      "fiyatlar": 1955,
      "bildir": 1956,
      "iadesi": 1957,
      "size": 1958,
      "kutu": 1959,
      "##gı": 1960,
      "##tif": 1961,
      "50": 1962,
      "##sini": 1963,
      "vardı": 1964,
      "sıf": 1965,
      "burger": 1966,
      "akt": 1967,
      "paz": 1968,
      "##osa": 1969,
      "oldum": 1970,
      "bende": 1971,
      "faiz": 1972,
      "##oft": 1973,
      "sıfır": 1974,
      "wat": 1975,
      "olun": 1976,
      "değişik": 1977,
      "eğitim": 1978,
      "cam": 1979,
      "lo": 1980,
      "##sını": 1981,
      "mek": 1982,
      "##eniz": 1983,
      "yazı": 1984,
      "teknosa": 1985,
      "temizlik": 1986,
      "kum": 1987,
      "tedar": 1988,
      "i̇adesi": 1989,
      "çağrı": 1990,
      "##ste": 1991,
      "##mamış": 1992,
      "ocak": 1993,
      "kapan": 1994,
      "yanıl": 1995,
      "aks": 1996,
      "sitesinden": 1997,
      "bah": 1998,
      "dağı": 1999,
      "amazon": 2000,
      "cola": 2001,
      "ülk": 2002,
      "arz": 2003,
      "bos": 2004,
      "izle": 2005,
      "i̇zmir": 2006,
      "temsilc": 2007,
      "bez": 2008,
      "uğ": 2009,
      "tamam": 2010,
      "tercihlerinde": 2011,
      "kalitesiz": 2012,
      "##ıf": 2013,
      "dedim": 2014,
      "##lemek": 2015,
      "nedeniyle": 2016,
      "mut": 2017,
      "küç": 2018,
      "vakıf": 2019,
      "a10": 2020,
      "##zet": 2021,
      "##meme": 2022,
      "##lerinden": 2023,
      "motor": 2024,
      "##tırıyor": 2025,
      "gittim": 2026,
      "oranı": 2027,
      "tedarik": 2028,
      "bosch": 2029,
      "##landı": 2030,
      "akbank": 2031,
      "##ex": 2032,
      "esn": 2033,
      "kayn": 2034,
      "finans": 2035,
      "duy": 2036,
      "twit": 2037,
      "taz": 2038,
      "dah": 2039,
      "ex": 2040,
      "##nb": 2041,
      "atas": 2042,
      "sh": 2043,
      "##lerimi": 2044,
      "##ürlü": 2045,
      "bileti": 2046,
      "kimse": 2047,
      "##mediler": 2048,
      "giriş": 2049,
      "coca": 2050,
      "göster": 2051,
      "aktar": 2052,
      "bat": 2053,
      "eb": 2054,
      "han": 2055,
      "##sh": 2056,
      "##ciye": 2057,
      "##ünde": 2058,
      "bulaşık": 2059,
      "sürec": 2060,
      "ulaşmadı": 2061,
      "tenc": 2062,
      "emeklilik": 2063,
      "iyidir": 2064,
      "otur": 2065,
      "##lus": 2066,
      "arız": 2067,
      "ulaşamıyorum": 2068,
      "suyu": 2069,
      "görüş": 2070,
      "elim": 2071,
      "ga": 2072,
      "king": 2073,
      "##alı": 2074,
      "##cd": 2075,
      "alma": 2076,
      "söyledi": 2077,
      "mev": 2078,
      "th": 2079,
      "biri": 2080,
      "##ımda": 2081,
      "bankacılık": 2082,
      "sok": 2083,
      "##gan": 2084,
      "##asus": 2085,
      "turizm": 2086,
      "##cağını": 2087,
      "üzerine": 2088,
      "sahiptir": 2089,
      "acil": 2090,
      "##ovo": 2091,
      "lenovo": 2092,
      "med": 2093,
      "##kü": 2094,
      "##fak": 2095,
      "etkileye": 2096,
      "22": 2097,
      "kız": 2098,
      "şif": 2099,
      "yaşanabilir": 2100,
      "mekan": 2101,
      "a101": 2102,
      "##ef": 2103,
      "##ilim": 2104,
      "halen": 2105,
      "games": 2106,
      "pos": 2107,
      "park": 2108,
      "yazık": 2109,
      "tamir": 2110,
      "saçma": 2111,
      "güçlü": 2112,
      "medya": 2113,
      "bm": 2114,
      "por": 2115,
      "ser": 2116,
      "yor": 2117,
      "##larından": 2118,
      "kod": 2119,
      "##top": 2120,
      "peg": 2121,
      "detaylı": 2122,
      "##eği": 2123,
      "yapmıyor": 2124,
      "##toğ": 2125,
      "rahatsız": 2126,
      "personel": 2127,
      "halkbank": 2128,
      "pegasus": 2129,
      "24": 2130,
      "yas": 2131,
      "##ımız": 2132,
      "i̇lk": 2133,
      "çalışmıyor": 2134,
      "eve": 2135,
      "##sanız": 2136,
      "rezerv": 2137,
      "##uan": 2138,
      "sunamıyor": 2139,
      "##abet": 2140,
      "güncellemeleri": 2141,
      "koltuk": 2142,
      "##ünden": 2143,
      "##ıyoruz": 2144,
      "güz": 2145,
      "pat": 2146,
      "kanal": 2147,
      "bütün": 2148,
      "ankara": 2149,
      "bmw": 2150,
      "##lerden": 2151,
      "seviyelerde": 2152,
      "deste": 2153,
      "##inci": 2154,
      "##yorlar": 2155,
      "##ırı": 2156,
      "sorunlar": 2157,
      "gerekiyor": 2158,
      "ebebek": 2159,
      "01": 2160,
      "29": 2161,
      "düğ": 2162,
      "##cü": 2163,
      "##irüs": 2164,
      "##asına": 2165,
      "diji": 2166,
      "lezzet": 2167,
      "dijital": 2168,
      "28": 2169,
      "##deri": 2170,
      "##müyor": 2171,
      "##oz": 2172,
      "##arb": 2173,
      "gönderdim": 2174,
      "kamer": 2175,
      "##ede": 2176,
      "##şam": 2177,
      "yaptığım": 2178,
      "dönem": 2179,
      "küçük": 2180,
      "au": 2181,
      "##ceğ": 2182,
      "çamaş": 2183,
      "yakıt": 2184,
      "danone": 2185,
      "diy": 2186,
      "##atis": 2187,
      "olmuş": 2188,
      "çıkıyor": 2189,
      "gratis": 2190,
      "ömürlü": 2191,
      "rica": 2192,
      "dok": 2193,
      "dolu": 2194,
      "##bar": 2195,
      "koy": 2196,
      "faturam": 2197,
      "mercede": 2198,
      "mercedes": 2199,
      "man": 2200,
      "##ceğini": 2201,
      "twitch": 2202,
      "çamaşır": 2203,
      "rak": 2204,
      "ste": 2205,
      "##kur": 2206,
      "##ınca": 2207,
      "mah": 2208,
      "etkin": 2209,
      "türlü": 2210,
      "süt": 2211,
      "yönetimi": 2212,
      "sistemi": 2213,
      "zara": 2214,
      "##ale": 2215,
      "##tırma": 2216,
      "dünyası": 2217,
      "taze": 2218,
      "mağduriyet": 2219,
      "normal": 2220,
      "züc": 2221,
      "##fal": 2222,
      "dair": 2223,
      "yapmış": 2224,
      "##caciye": 2225,
      "olmadığını": 2226,
      "servisi": 2227,
      "kend": 2228,
      "süreçleri": 2229,
      "programları": 2230,
      "audi": 2231,
      "züccaciye": 2232,
      "vol": 2233,
      "##din": 2234,
      "##ate": 2235,
      "hizmeti": 2236,
      "telefonum": 2237,
      "rekabet": 2238,
      "tasarımları": 2239,
      "profesyonel": 2240,
      "rezervasyon": 2241,
      "##kes": 2242,
      "##ladı": 2243,
      "##hal": 2244,
      "etmiyor": 2245,
      "hatalı": 2246,
      "alır": 2247,
      "resmen": 2248,
      "sözleş": 2249,
      "kla": 2250,
      "##düğ": 2251,
      "##uar": 2252,
      "##tak": 2253,
      "##üp": 2254,
      "olsun": 2255,
      "##urt": 2256,
      "kullanıyorum": 2257,
      "evim": 2258,
      "kurum": 2259,
      "kulak": 2260,
      "abone": 2261,
      "işlev": 2262,
      "kaynak": 2263,
      "##mi": 2264,
      "##yse": 2265,
      "karar": 2266,
      "aracı": 2267,
      "gelmiyor": 2268,
      "üyeliğim": 2269,
      "adi": 2270,
      "lit": 2271,
      "red": 2272,
      "zar": 2273,
      "çalışma": 2274,
      "sizin": 2275,
      "oda": 2276,
      "ürünlerinde": 2277,
      "##ceği": 2278,
      "mavi": 2279,
      "bakım": 2280,
      "bede": 2281,
      "garantisi": 2282,
      "ettir": 2283,
      "iletişim": 2284,
      "27": 2285,
      "öden": 2286,
      "ann": 2287,
      "ekon": 2288,
      "metro": 2289,
      "mars": 2290,
      "öneri": 2291,
      "##evi": 2292,
      "yatak": 2293,
      "beyaz": 2294,
      "tüketici": 2295,
      "23": 2296,
      "si": 2297,
      "##unun": 2298,
      "##ilmesini": 2299,
      "yapmak": 2300,
      "konuda": 2301,
      "posta": 2302,
      "beş": 2303,
      "oyn": 2304,
      "pt": 2305,
      "##11": 2306,
      "##cut": 2307,
      "##ınar": 2308,
      "kullandığım": 2309,
      "eriş": 2310,
      "bozuk": 2311,
      "görünüyor": 2312,
      "fotoğ": 2313,
      "mevcut": 2314,
      "##ebilir": 2315,
      "##baş": 2316,
      "##co": 2317,
      "ana": 2318,
      "##ılmış": 2319,
      "olacak": 2320,
      "##ibu": 2321,
      "takımı": 2322,
      "bağlı": 2323,
      "görüntü": 2324,
      "açıklama": 2325,
      "paramı": 2326,
      "söylendi": 2327,
      "yı": 2328,
      "##par": 2329,
      "##lah": 2330,
      "##esini": 2331,
      "çay": 2332,
      "bulunan": 2333,
      "rekabetçi": 2334,
      "fi": 2335,
      "lek": 2336,
      "lik": 2337,
      "##lub": 2338,
      "##lebilir": 2339,
      "üste": 2340,
      "##duk": 2341,
      "tefal": 2342,
      "zamanda": 2343,
      "yapıla": 2344,
      "fotoğraf": 2345,
      "##bol": 2346,
      "##pres": 2347,
      "##matik": 2348,
      "beko": 2349,
      "2018": 2350,
      "gerekti": 2351,
      "elektrikli": 2352,
      "##nir": 2353,
      "##lardır": 2354,
      "##ult": 2355,
      "şok": 2356,
      "şubat": 2357,
      "haftadır": 2358,
      "merkezi": 2359,
      "düzelt": 2360,
      "##tası": 2361,
      "##fi": 2362,
      "##ladım": 2363,
      "domin": 2364,
      "##mediğim": 2365,
      "##osu": 2366,
      "getiriyor": 2367,
      "form": 2368,
      "kartımdan": 2369,
      "arzum": 2370,
      "li": 2371,
      "##ğu": 2372,
      "herkes": 2373,
      "kredisi": 2374,
      "##bancı": 2375,
      "kırıldı": 2376,
      "kesinlikle": 2377,
      "oranları": 2378,
      "aşırı": 2379,
      "##landırma": 2380,
      "bilgilendirme": 2381,
      "##ke": 2382,
      "##şe": 2383,
      "i̇ptali": 2384,
      "köf": 2385,
      "çözümleri": 2386,
      "koleksiyonları": 2387,
      "imkan": 2388,
      "yorum": 2389,
      "güzel": 2390,
      "bl": 2391,
      "hasar": 2392,
      "##umlu": 2393,
      "i̇çe": 2394,
      "kullanma": 2395,
      "##sıt": 2396,
      "yere": 2397,
      "içerikleri": 2398,
      "gittiğim": 2399,
      "maale": 2400,
      "boya": 2401,
      "uğra": 2402,
      "i̇çecek": 2403,
      "aid": 2404,
      "##ault": 2405,
      "##tre": 2406,
      "##ora": 2407,
      "şeker": 2408,
      "##cağı": 2409,
      "toyo": 2410,
      "platformu": 2411,
      "renault": 2412,
      "##demi": 2413,
      "gözüküyor": 2414,
      "sebebiyle": 2415,
      "ülker": 2416,
      "aidat": 2417,
      "toyota": 2418,
      "40": 2419,
      "bar": 2420,
      "um": 2421,
      "çiç": 2422,
      "şef": 2423,
      "tah": 2424,
      "ekibi": 2425,
      "sağlaya": 2426,
      "yaşan": 2427,
      "yıllık": 2428,
      "yönetim": 2429,
      "muhat": 2430,
      "desteği": 2431,
      "virüs": 2432,
      "##jan": 2433,
      "olmuyor": 2434,
      "##ızda": 2435,
      "olmadan": 2436,
      "sonrası": 2437,
      "sonrasında": 2438,
      "##sef": 2439,
      "çevre": 2440,
      "##press": 2441,
      "maalesef": 2442,
      "cum": 2443,
      "eti": 2444,
      "pınar": 2445,
      "tor": 2446,
      "sony": 2447,
      "organ": 2448,
      "gördüm": 2449,
      "önemli": 2450,
      "fab": 2451,
      "##meli": 2452,
      "yapma": 2453,
      "kapak": 2454,
      "bölg": 2455,
      "kül": 2456,
      "sır": 2457,
      "##tesi": 2458,
      "##fo": 2459,
      "##lian": 2460,
      "##unuz": 2461,
      "##imiz": 2462,
      "##manın": 2463,
      "olmadığı": 2464,
      "##lemleri": 2465,
      "bizim": 2466,
      "home": 2467,
      "köfte": 2468,
      "çiçek": 2469,
      "seri": 2470,
      "##sta": 2471,
      "##onik": 2472,
      "olumsuz": 2473,
      "işlevsel": 2474,
      "air": 2475,
      "eşim": 2476,
      "##üyorum": 2477,
      "ettik": 2478,
      "çözümler": 2479,
      "seçenekleriyle": 2480,
      "kampanyaları": 2481,
      "##yner": 2482,
      "muhatap": 2483,
      "so": 2484,
      "##tar": 2485,
      "##undan": 2486,
      "allian": 2487,
      "koton": 2488,
      "gönderi": 2489,
      "yapıldı": 2490,
      "neredeyse": 2491,
      "cas": 2492,
      "atm": 2493,
      "dondur": 2494,
      "aile": 2495,
      "nest": 2496,
      "##ilebilir": 2497,
      "beklen": 2498,
      "gelir": 2499,
      "problemi": 2500,
      "##liğ": 2501,
      "##imin": 2502,
      "bura": 2503,
      "##ulu": 2504,
      "##yabilir": 2505,
      "edilmedi": 2506,
      "çevr": 2507,
      "milliyet": 2508,
      "nestle": 2509,
      "kira": 2510,
      "zayı": 2511,
      "##rü": 2512,
      "##para": 2513,
      "##online": 2514,
      "##yahat": 2515,
      "boyner": 2516,
      "fakir": 2517,
      "durumda": 2518,
      "yakın": 2519,
      "mağazasından": 2520,
      "mic": 2521,
      "seyahat": 2522,
      "hasta": 2523,
      "##book": 2524,
      "canlı": 2525,
      "superonline": 2526,
      "zayıf": 2527,
      "bab": 2528,
      "lc": 2529,
      "##po": 2530,
      "##etik": 2531,
      "benden": 2532,
      "enpara": 2533,
      "akşam": 2534,
      "##lini": 2535,
      "batar": 2536,
      "iti": 2537,
      "##rak": 2538,
      "##miştir": 2539,
      "faturası": 2540,
      "tatlı": 2541,
      "istediğim": 2542,
      "optik": 2543,
      "kesint": 2544,
      "proje": 2545,
      "yatırım": 2546,
      "ba": 2547,
      "##eki": 2548,
      "asus": 2549,
      "avantajlar": 2550,
      "ağı": 2551,
      "hen": 2552,
      "nik": 2553,
      "ora": 2554,
      "mad": 2555,
      "görev": 2556,
      "vakıfbank": 2557,
      "tencere": 2558,
      "arızası": 2559,
      "üstelik": 2560,
      "08": 2561,
      "puan": 2562,
      "##ea": 2563,
      "biraz": 2564,
      "boğ": 2565,
      "kaldı": 2566,
      "düzenleme": 2567,
      "yaşanabiliyor": 2568,
      "club": 2569,
      "hür": 2570,
      "##iyi": 2571,
      "##lüğ": 2572,
      "avm": 2573,
      "##amadım": 2574,
      "mutfak": 2575,
      "##ell": 2576,
      "##manız": 2577,
      "yedek": 2578,
      "bozuldu": 2579,
      "doğalgaz": 2580,
      "pazar": 2581,
      "##na": 2582,
      "deyip": 2583,
      "aras": 2584,
      "verdik": 2585,
      "siparişimi": 2586,
      "malz": 2587,
      "rakip": 2588,
      "boğaz": 2589,
      "hürr": 2590,
      "huk": 2591,
      "hizmetler": 2592,
      "sorunsuz": 2593,
      "olmayan": 2594,
      "parayı": 2595,
      "takım": 2596,
      "değerlendir": 2597,
      "borc": 2598,
      "beğeni": 2599,
      "hürriyet": 2600,
      "dere": 2601,
      "key": 2602,
      "ran": 2603,
      "##indeki": 2604,
      "##aban": 2605,
      "##dürü": 2606,
      "yeterlidir": 2607,
      "##rosoft": 2608,
      "kesinti": 2609,
      "ikinci": 2610,
      "dağıtım": 2611,
      "thy": 2612,
      "microsoft": 2613,
      "henüz": 2614,
      "##gdaş": 2615,
      "##pı": 2616,
      "##wag": 2617,
      "##larımı": 2618,
      "çar": 2619,
      "i̇gdaş": 2620,
      "ürünleriyle": 2621,
      "gönderil": 2622,
      "yönlendir": 2623,
      "##kswag": 2624,
      "dünya": 2625,
      "projeleri": 2626,
      "düğün": 2627,
      "volkswag": 2628,
      "hukuk": 2629,
      "volkswagen": 2630,
      "dir": 2631,
      "kit": 2632,
      "plan": 2633,
      "##gin": 2634,
      "çiz": 2635,
      "öyle": 2636,
      "durumlarda": 2637,
      "kork": 2638,
      "pandemi": 2639,
      "kulaklık": 2640,
      "fen": 2641,
      "##jet": 2642,
      "##liyor": 2643,
      "ets": 2644,
      "günden": 2645,
      "değilim": 2646,
      "kodu": 2647,
      "yıldır": 2648,
      "##faf": 2649,
      "mobilya": 2650,
      "kültür": 2651,
      "mey": 2652,
      "##dük": 2653,
      "##syon": 2654,
      "##mı": 2655,
      "##ng": 2656,
      "##ledi": 2657,
      "##ath": 2658,
      "##atik": 2659,
      "##dağ": 2660,
      "anda": 2661,
      "##refo": 2662,
      "hizmetleriyle": 2663,
      "bitti": 2664,
      "carrefo": 2665,
      "carrefour": 2666,
      "07": 2667,
      "alet": 2668,
      "mng": 2669,
      "##ec": 2670,
      "günler": 2671,
      "##yasında": 2672,
      "gelip": 2673,
      "gereken": 2674,
      "söylü": 2675,
      "şeffaf": 2676,
      "diz": 2677,
      "sabancı": 2678,
      "yanıt": 2679,
      "##ebe": 2680,
      "attım": 2681,
      "##ılır": 2682,
      "almıştım": 2683,
      "ömrü": 2684,
      "atasun": 2685,
      "kamera": 2686,
      "dar": 2687,
      "##ğiniz": 2688,
      "ütü": 2689,
      "bundan": 2690,
      "i̇lgisiz": 2691,
      "##ry": 2692,
      "##biliyorum": 2693,
      "yapılan": 2694,
      "buna": 2695,
      "abon": 2696,
      "paylaş": 2697,
      "etkinlik": 2698,
      "45": 2699,
      "mik": 2700,
      "pas": 2701,
      "##sine": 2702,
      "##mayan": 2703,
      "çün": 2704,
      "çik": 2705,
      "almaya": 2706,
      "##uyorum": 2707,
      "gelecek": 2708,
      "alalı": 2709,
      "altında": 2710,
      "nike": 2711,
      "##tern": 2712,
      "ücretleri": 2713,
      "i̇nsan": 2714,
      "alıp": 2715,
      "koku": 2716,
      "ait": 2717,
      "ulus": 2718,
      "##su": 2719,
      "##can": 2720,
      "##cto": 2721,
      "##ğinde": 2722,
      "##ındaki": 2723,
      "ayı": 2724,
      "konut": 2725,
      "defacto": 2726,
      "kontrolü": 2727,
      "tablet": 2728,
      "teknolojik": 2729,
      "itibar": 2730,
      "bebek": 2731,
      "##sp": 2732,
      "##dev": 2733,
      "çat": 2734,
      "olup": 2735,
      "hav": 2736,
      "##mıştır": 2737,
      "##apor": 2738,
      "yapılmasını": 2739,
      "randev": 2740,
      "set": 2741,
      "##luluk": 2742,
      "##dia": 2743,
      "değişimi": 2744,
      "beklet": 2745,
      "yayıncı": 2746,
      "üret": 2747,
      "eşya": 2748,
      "çünkü": 2749,
      "##elik": 2750,
      "dav": 2751,
      "birç": 2752,
      "yağ": 2753,
      "araş": 2754,
      "günde": 2755,
      "##omik": 2756,
      "starb": 2757,
      "pratik": 2758,
      "abonelik": 2759,
      "boğaziçi": 2760,
      "civ": 2761,
      "sepeti": 2762,
      "##ıda": 2763,
      "çö": 2764,
      "##tıyor": 2765,
      "##teg": 2766,
      "aralık": 2767,
      "verilen": 2768,
      "##iyorum": 2769,
      "çözül": 2770,
      "yakış": 2771,
      "üzere": 2772,
      "otob": 2773,
      "yanıltıcı": 2774,
      "birçok": 2775,
      "ada": 2776,
      "##acak": 2777,
      "##yin": 2778,
      "##arası": 2779,
      "bilgisi": 2780,
      "iadesini": 2781,
      "paketleri": 2782,
      "doldur": 2783,
      "saygı": 2784,
      "##ucks": 2785,
      "starbucks": 2786,
      "sinema": 2787,
      "##gor": 2788,
      "##maları": 2789,
      "##das": 2790,
      "##umuz": 2791,
      "##iki": 2792,
      "##tıra": 2793,
      "##tiler": 2794,
      "kapalı": 2795,
      "korona": 2796,
      "çocu": 2797,
      "seviyede": 2798,
      "akses": 2799,
      "dahi": 2800,
      "adidas": 2801,
      "lg": 2802,
      "##taj": 2803,
      "##ahh": 2804,
      "sürede": 2805,
      "##kent": 2806,
      "belli": 2807,
      "menü": 2808,
      "yaparken": 2809,
      "etkileyebiliyor": 2810,
      "lezzetli": 2811,
      "alama": 2812,
      "##seri": 2813,
      "##arkt": 2814,
      "##eket": 2815,
      "üz": 2816,
      "##amarkt": 2817,
      "artırıyor": 2818,
      "görüşt": 2819,
      "gece": 2820,
      "sebep": 2821,
      "##maktadır": 2822,
      "mediamarkt": 2823,
      "çikola": 2824,
      "aksesuar": 2825,
      "##uy": 2826,
      "##yim": 2827,
      "dalg": 2828,
      "##emin": 2829,
      "##kalı": 2830,
      "parç": 2831,
      "dünyasında": 2832,
      "deter": 2833,
      "malzeme": 2834,
      "laz": 2835,
      "##tum": 2836,
      "##arım": 2837,
      "##esinin": 2838,
      "maç": 2839,
      "yoksa": 2840,
      "enteg": 2841,
      "##sizlik": 2842,
      "devlet": 2843,
      "kurulum": 2844,
      "watson": 2845,
      "nestlé": 2846,
      "ec": 2847,
      "pla": 2848,
      "##izasyon": 2849,
      "kad": 2850,
      "sayı": 2851,
      "dendi": 2852,
      "##medik": 2853,
      "##mişler": 2854,
      "ilgisiz": 2855,
      "kampanyalar": 2856,
      "sms": 2857,
      "ambalajları": 2858,
      "hazırlanıyor": 2859,
      "##od": 2860,
      "edip": 2861,
      "çözmek": 2862,
      "ödedim": 2863,
      "yüzünden": 2864,
      "ücretsiz": 2865,
      "paketi": 2866,
      "eksiklik": 2867,
      "taleb": 2868,
      "gerçekleştir": 2869,
      "kandır": 2870,
      "aktarma": 2871,
      "bür": 2872,
      "##bal": 2873,
      "##tiğim": 2874,
      "##ışı": 2875,
      "200": 2876,
      "uygulamaları": 2877,
      "otomatik": 2878,
      "gidip": 2879,
      "##ceğiz": 2880,
      "26": 2881,
      "alamıyorum": 2882,
      "bes": 2883,
      "##sepeti": 2884,
      "##lüm": 2885,
      "##onal": 2886,
      "##rab": 2887,
      "fiyatı": 2888,
      "garantiye": 2889,
      "çağır": 2890,
      "açılmıyor": 2891,
      "sürecinde": 2892,
      "##başı": 2893,
      "sağlayabilir": 2894,
      "watsons": 2895,
      "alamadım": 2896,
      "ch": 2897,
      "cor": 2898,
      "eden": 2899,
      "##aik": 2900,
      "##jis": 2901,
      "##onda": 2902,
      "bula": 2903,
      "hal": 2904,
      "##eysel": 2905,
      "fiyatlarla": 2906,
      "deneyimini": 2907,
      "bayi": 2908,
      "uluslar": 2909,
      "deterjan": 2910,
      "##aikiki": 2911,
      "ep": 2912,
      "##ret": 2913,
      "##uge": 2914,
      "##üst": 2915,
      "##tılar": 2916,
      "yaptık": 2917,
      "anla": 2918,
      "çeşitlilik": 2919,
      "hatta": 2920,
      "görmedim": 2921,
      "sigortası": 2922,
      "bekledim": 2923,
      "peuge": 2924,
      "hastanesi": 2925,
      "peugeot": 2926,
      "sak": 2927,
      "sına": 2928,
      "ıs": 2929,
      "##seniz": 2930,
      "##meyi": 2931,
      "##iyah": 2932,
      "arasında": 2933,
      "sorunlu": 2934,
      "tesla": 2935,
      "geçmesine": 2936,
      "eng": 2937,
      "##madık": 2938,
      "gelin": 2939,
      "mayısta": 2940,
      "uçak": 2941,
      "kims": 2942,
      "domino": 2943,
      "çikolata": 2944,
      "lazım": 2945,
      "uluslararası": 2946,
      "est": 2947,
      "edin": 2948,
      "##yesi": 2949,
      "##ünü": 2950,
      "taahh": 2951,
      "geçer": 2952,
      "##madılar": 2953,
      "yapılmıyor": 2954,
      "haksız": 2955,
      "ettiler": 2956,
      "gözlük": 2957,
      "sistemleri": 2958,
      "ikea": 2959,
      "politika": 2960,
      "buzdolabı": 2961,
      "bebe": 2962,
      "le": 2963,
      "rapor": 2964,
      "sar": 2965,
      "##lum": 2966,
      "yerde": 2967,
      "ilgi": 2968,
      "ath": 2969,
      "üzerinde": 2970,
      "dışında": 2971,
      "##mektedir": 2972,
      "doktor": 2973,
      "erişilebilir": 2974,
      "batarya": 2975,
      "kitle": 2976,
      "çocuğ": 2977,
      "adı": 2978,
      "##maması": 2979,
      "##ımdan": 2980,
      "ayda": 2981,
      "aran": 2982,
      "bilmiyorum": 2983,
      "tadı": 2984,
      "açmıyor": 2985,
      "yaşıyorum": 2986,
      "kendine": 2987,
      "beşik": 2988,
      "görevli": 2989,
      "otobüs": 2990,
      "tik": 2991,
      "##hizmet": 2992,
      "ulaştı": 2993,
      "##memesi": 2994,
      "köşe": 2995,
      "##hizmetleri": 2996,
      "bis": 2997,
      "din": 2998,
      "re": 2999,
      "yeri": 3000,
      "##ech": 3001,
      "##pad": 3002,
      "çekim": 3003,
      "araçlarının": 3004,
      "avantajlı": 3005,
      "standartları": 3006,
      "verimliliği": 3007,
      "bersh": 3008,
      "##letic": 3009,
      "şifre": 3010,
      "bedeli": 3011,
      "beğenilere": 3012,
      "##spor": 3013,
      "athletic": 3014,
      "bershka": 3015,
      "aca": 3016,
      "mcd": 3017,
      "sur": 3018,
      "sep": 3019,
      "ulu": 3020,
      "##bis": 3021,
      "##hur": 3022,
      "##̇m": 3023,
      "##jyen": 3024,
      "##ıyorlar": 3025,
      "##dığımız": 3026,
      "telefonda": 3027,
      "evkur": 3028,
      "şubesine": 3029,
      "hepsi": 3030,
      "hesabıma": 3031,
      "hijyen": 3032,
      "politikası": 3033,
      "sözleşme": 3034,
      "##onald": 3035,
      "mcdonald": 3036,
      "edece": 3037,
      "müm": 3038,
      "ot": 3039,
      "waikiki": 3040,
      "##gon": 3041,
      "saya": 3042,
      "##amı": 3043,
      "ayr": 3044,
      "ayar": 3045,
      "müşterihizmetleri": 3046,
      "sorumsuz": 3047,
      "kargolan": 3048,
      "maaş": 3049,
      "onu": 3050,
      "gele": 3051,
      "doğuş": 3052,
      "deneyimimi": 3053,
      "sanki": 3054,
      "hareket": 3055,
      "allianz": 3056,
      "otel": 3057,
      "pen": 3058,
      "##şık": 3059,
      "##ley": 3060,
      "##atif": 3061,
      "ince": 3062,
      "günlük": 3063,
      "finan": 3064,
      "kumtel": 3065,
      "diyerek": 3066,
      "fener": 3067,
      "mümk": 3068,
      "fib": 3069,
      "pey": 3070,
      "trab": 3071,
      "##oran": 3072,
      "öd": 3073,
      "sürdürü": 3074,
      "##asaray": 3075,
      "##latasaray": 3076,
      "firmaya": 3077,
      "kapsamında": 3078,
      "aşama": 3079,
      "galatasaray": 3080,
      "alırken": 3081,
      "cumhur": 3082,
      "finansal": 3083,
      "mümkün": 3084,
      "sürdürülebilir": 3085,
      "kli": 3086,
      "ney": 3087,
      "##40": 3088,
      "##life": 3089,
      "insta": 3090,
      "olmaz": 3091,
      "bizi": 3092,
      "##yunda": 3093,
      "sitesi": 3094,
      "sıcak": 3095,
      "fenerbah": 3096,
      "trabzon": 3097,
      "instagram": 3098,
      "09": 3099,
      "qnb": 3100,
      "web": 3101,
      "şart": 3102,
      "i̇s": 3103,
      "nedir": 3104,
      "konforlu": 3105,
      "içecekleri": 3106,
      "hitap": 3107,
      "##düğüm": 3108,
      "uğraş": 3109,
      "yapan": 3110,
      "müşter": 3111,
      "gelmiş": 3112,
      "değişken": 3113,
      "göstere": 3114,
      "randevu": 3115,
      "dalga": 3116,
      "31": 3117,
      "hyunda": 3118,
      "oğ": 3119,
      "##bet": 3120,
      "dos": 3121,
      "str": 3122,
      "şikayetç": 3123,
      "personeli": 3124,
      "esnek": 3125,
      "fenerbahçe": 3126,
      "fay": 3127,
      "honda": 3128,
      "##ue": 3129,
      "çoğ": 3130,
      "kasa": 3131,
      "##likte": 3132,
      "şehir": 3133,
      "##isini": 3134,
      "arayan": 3135,
      "parasını": 3136,
      "yıllardır": 3137,
      "temel": 3138,
      "##cağız": 3139,
      "##meyecek": 3140,
      "turknet": 3141,
      "##rafik": 3142,
      "beşiktaş": 3143,
      "hyundai": 3144,
      "müz": 3145,
      "rest": 3146,
      "seti": 3147,
      "##mıyorum": 3148,
      "##ucu": 3149,
      "##ly": 3150,
      "##be": 3151,
      "##üme": 3152,
      "olumlu": 3153,
      "##tıl": 3154,
      "##kten": 3155,
      "tutarlı": 3156,
      "organizasyon": 3157,
      "dizi": 3158,
      "what": 3159,
      "##mos": 3160,
      "##anda": 3161,
      "##dılar": 3162,
      "##ilmesi": 3163,
      "yalan": 3164,
      "##utv": 3165,
      "telefonla": 3166,
      "bekliyor": 3167,
      "sizi": 3168,
      "işlemi": 3169,
      "face": 3170,
      "edebilir": 3171,
      "derin": 3172,
      "montaj": 3173,
      "izleyici": 3174,
      "gerektiğini": 3175,
      "blutv": 3176,
      "estetik": 3177,
      "oya": 3178,
      "siyah": 3179,
      "tt": 3180,
      "##ılıyor": 3181,
      "##tör": 3182,
      "##arlı": 3183,
      "##malar": 3184,
      "##ılmaz": 3185,
      "##tepe": 3186,
      "koş": 3187,
      "##sapp": 3188,
      "reklamları": 3189,
      "başarısızlık": 3190,
      "bölge": 3191,
      "aşamasında": 3192,
      "whatsapp": 3193,
      "lin": 3194,
      "n11": 3195,
      "pet": 3196,
      "##nde": 3197,
      "##rasyon": 3198,
      "karış": 3199,
      "##ılmıyor": 3200,
      "arası": 3201,
      "yaşıyor": 3202,
      "##000": 3203,
      "bildirimlerine": 3204,
      "kurumsal": 3205,
      "acaba": 3206,
      "pres": 3207,
      "##diniz": 3208,
      "##30": 3209,
      "##diz": 3210,
      "olay": 3211,
      "tarif": 3212,
      "hızı": 3213,
      "duruyor": 3214,
      "prime": 3215,
      "bahan": 3216,
      "direk": 3217,
      "bürosu": 3218,
      "strate": 3219,
      "fayda": 3220,
      "eğer": 3221,
      "##eğ": 3222,
      "##ılan": 3223,
      "dedik": 3224,
      "##eyt": 3225,
      "sonunda": 3226,
      "çıkan": 3227,
      "bırakmama": 3228,
      "##amıyoruz": 3229,
      "geliştir": 3230,
      "götürdüm": 3231,
      "soğuk": 3232,
      "peynir": 3233,
      "dile": 3234,
      "fiş": 3235,
      "fut": 3236,
      "la": 3237,
      "na": 3238,
      "##ri": 3239,
      "##vid": 3240,
      "##ena": 3241,
      "##lım": 3242,
      "olmaya": 3243,
      "geçmiş": 3244,
      "kaliteyi": 3245,
      "güvenli": 3246,
      "bakan": 3247,
      "gediz": 3248,
      "içerikler": 3249,
      "##zacı": 3250,
      "sayf": 3251,
      "entegrasyon": 3252,
      "eczacı": 3253,
      "ttnet": 3254,
      "kış": 3255,
      "nvi": 3256,
      "##sman": 3257,
      "##ier": 3258,
      "##yız": 3259,
      "##mamen": 3260,
      "##aksi": 3261,
      "##dana": 3262,
      "tamamen": 3263,
      "kuryen": 3264,
      "bilgileri": 3265,
      "bitaksi": 3266,
      "iletiş": 3267,
      "insanları": 3268,
      "bölüm": 3269,
      "i̇çin": 3270,
      "trt": 3271,
      "uludağ": 3272,
      "restoran": 3273,
      "nvidia": 3274,
      "chan": 3275,
      "fanta": 3276,
      "iy": 3277,
      "kir": 3278,
      "mis": 3279,
      "##buk": 3280,
      "##80": 3281,
      "##irim": 3282,
      "kullandım": 3283,
      "vermedi": 3284,
      "mahal": 3285,
      "kapı": 3286,
      "##linde": 3287,
      "covid": 3288,
      "i̇şlem": 3289,
      "arızalı": 3290,
      "##demy": 3291,
      "ederim": 3292,
      "sho": 3293,
      "##athlon": 3294,
      "bebeğim": 3295,
      "facebook": 3296,
      "presti": 3297,
      "lig": 3298,
      "##sor": 3299,
      "##cathlon": 3300,
      "decathlon": 3301,
      "i̇ki": 3302,
      "vere": 3303,
      "parası": 3304,
      "ödediğim": 3305,
      "tatil": 3306,
      "yolları": 3307,
      "filtre": 3308,
      "derim": 3309,
      "katılım": 3310,
      "corona": 3311,
      "şikayetçiyim": 3312,
      "eczacıbaşı": 3313,
      "of": 3314,
      "raz": 3315,
      "vs": 3316,
      "zen": 3317,
      "##cana": 3318,
      "##liz": 3319,
      "##umun": 3320,
      "##ish": 3321,
      "yılında": 3322,
      "sütaş": 3323,
      "performanslı": 3324,
      "sevin": 3325,
      "falan": 3326,
      "##usuf": 3327,
      "üretim": 3328,
      "sırma": 3329,
      "carrefoursa": 3330,
      "##lç": 3331,
      "araya": 3332,
      "ark": 3333,
      "gelmesi": 3334,
      "kop": 3335,
      "deniz": 3336,
      "##berry": 3337,
      "ptt": 3338,
      "##dınız": 3339,
      "##siyon": 3340,
      "##ku": 3341,
      "sunabiliyor": 3342,
      "edilen": 3343,
      "##dığımda": 3344,
      "uyarı": 3345,
      "ekip": 3346,
      "tarihli": 3347,
      "##talya": 3348,
      "ulaşı": 3349,
      "##artesi": 3350,
      "daki": 3351,
      "burberry": 3352,
      "oluştu": 3353,
      "buzdolab": 3354,
      "değişiklik": 3355,
      "elimde": 3356,
      "airb": 3357,
      "aletleri": 3358,
      "ipta": 3359,
      "obile": 3360,
      "uber": 3361,
      "##anız": 3362,
      "##ilever": 3363,
      "unilever": 3364,
      "yarım": 3365,
      "şubeye": 3366,
      "##yunca": 3367,
      "kampanyası": 3368,
      "sanal": 3369,
      "yaşadım": 3370,
      "koçtaş": 3371,
      "çevrim": 3372,
      "sınav": 3373,
      "kuryenet": 3374,
      "chanel": 3375,
      "obilet": 3376,
      "000": 3377,
      "guc": 3378,
      "ham": 3379,
      "##bur": 3380,
      "##enta": 3381,
      "##madığı": 3382,
      "birlikte": 3383,
      "def": 3384,
      "olsa": 3385,
      "##ırım": 3386,
      "verdiler": 3387,
      "##lamak": 3388,
      "telefonları": 3389,
      "seçeneklerle": 3390,
      "aktif": 3391,
      "kendim": 3392,
      "özellikler": 3393,
      "acer": 3394,
      "fırın": 3395,
      "oku": 3396,
      "soğut": 3397,
      "klasik": 3398,
      "futbol": 3399,
      "düşt": 3400,
      "hp": 3401,
      "##müş": 3402,
      "yay": 3403,
      "aramama": 3404,
      "markaların": 3405,
      "şubesinden": 3406,
      "2017": 3407,
      "kaldır": 3408,
      "baymak": 3409,
      "dosya": 3410,
      "müzik": 3411,
      "iletişime": 3412,
      "airbnb": 3413,
      "çevrimiçi": 3414,
      "60": 3415,
      "prada": 3416,
      "yur": 3417,
      "yarı": 3418,
      "##culuk": 3419,
      "##tv": 3420,
      "##diyor": 3421,
      "##imde": 3422,
      "kağı": 3423,
      "##ilin": 3424,
      "salg": 3425,
      "etik": 3426,
      "ayıp": 3427,
      "yoktu": 3428,
      "promos": 3429,
      "taksit": 3430,
      "markalar": 3431,
      "mağazası": 3432,
      "bulundum": 3433,
      "olduğumuz": 3434,
      "ortam": 3435,
      "pron": 3436,
      "cumhuriyet": 3437,
      "derimod": 3438,
      "promosyon": 3439,
      "acı": 3440,
      "iptali": 3441,
      "tuş": 3442,
      "##vm": 3443,
      "##jit": 3444,
      "şah": 3445,
      "almıyor": 3446,
      "ayın": 3447,
      "önc": 3448,
      "kaldım": 3449,
      "etkileşim": 3450,
      "siparişimin": 3451,
      "gidiyor": 3452,
      "makineleri": 3453,
      "mahalle": 3454,
      "zengin": 3455,
      "gucci": 3456,
      "gıda": 3457,
      "levi": 3458,
      "peş": 3459,
      "##yerek": 3460,
      "##gun": 3461,
      "##arken": 3462,
      "##sıyla": 3463,
      "madem": 3464,
      "olmak": 3465,
      "##lemesi": 3466,
      "çeşitleri": 3467,
      "dijit": 3468,
      "sıkıcı": 3469,
      "ilgisi": 3470,
      "pop": 3471,
      "sonucu": 3472,
      "başarılı": 3473,
      "yaratıyor": 3474,
      "kablo": 3475,
      "steam": 3476,
      "köfteci": 3477,
      "serisi": 3478,
      "eur": 3479,
      "tran": 3480,
      "udemy": 3481,
      "##fc": 3482,
      "##ırken": 3483,
      "##araç": 3484,
      "##tiraz": 3485,
      "uzat": 3486,
      "şubesi": 3487,
      "gerekir": 3488,
      "ertesi": 3489,
      "alak": 3490,
      "##gitech": 3491,
      "anlaşılır": 3492,
      "modalife": 3493,
      "gelişmiş": 3494,
      "yaptırdım": 3495,
      "tavuk": 3496,
      "bi̇m": 3497,
      "logitech": 3498,
      "temsilcisi": 3499,
      "fiat": 3500,
      "politikaları": 3501,
      "dijitsu": 3502,
      "cid": 3503,
      "efes": 3504,
      "kin": 3505,
      "sek": 3506,
      "tu": 3507,
      "tiv": 3508,
      "yusuf": 3509,
      "ısın": 3510,
      "##acağım": 3511,
      "##19": 3512,
      "##hub": 3513,
      "##gu": 3514,
      "kalk": 3515,
      "##lanmış": 3516,
      "##tığı": 3517,
      "teş": 3518,
      "dior": 3519,
      "github": 3520,
      "getiraraç": 3521,
      "bayram": 3522,
      "gösteri": 3523,
      "konforu": 3524,
      "yıkama": 3525,
      "yurti": 3526,
      "tivibu": 3527,
      "55": 3528,
      "99": 3529,
      "##dex": 3530,
      "depo": 3531,
      "##tavm": 3532,
      "aradık": 3533,
      "değişti": 3534,
      "geribil": 3535,
      "##mayacak": 3536,
      "yolcu": 3537,
      "alakalı": 3538,
      "ders": 3539,
      "indirimleri": 3540,
      "paycell": 3541,
      "sinir": 3542,
      "razer": 3543,
      "geribildirim": 3544,
      "eca": 3545,
      "yu": 3546,
      "##erat": 3547,
      "##inal": 3548,
      "dama": 3549,
      "##asının": 3550,
      "karde": 3551,
      "ekş": 3552,
      "yansı": 3553,
      "ona": 3554,
      "bulmak": 3555,
      "söyledim": 3556,
      "verilmiyor": 3557,
      "##masından": 3558,
      "yolu": 3559,
      "sigortam": 3560,
      "premi": 3561,
      "bursa": 3562,
      "gecikme": 3563,
      "kısmı": 3564,
      "üyeliğimi": 3565,
      "kesintisi": 3566,
      "kültürel": 3567,
      "saygısız": 3568,
      "trabzonspor": 3569,
      "500": 3570,
      "jb": 3571,
      "ros": 3572,
      "sız": 3573,
      "sesi": 3574,
      "##aret": 3575,
      "##atı": 3576,
      "kav": 3577,
      "##yapı": 3578,
      "##isine": 3579,
      "tedaş": 3580,
      "dene": 3581,
      "kısıt": 3582,
      "teknof": 3583,
      "beledi": 3584,
      "yönelik": 3585,
      "verip": 3586,
      "acilen": 3587,
      "##box": 3588,
      "yapacak": 3589,
      "kumanda": 3590,
      "çiçeksepeti": 3591,
      "aboneli": 3592,
      "epic": 3593,
      "jbl": 3594,
      "kızı": 3595,
      "lu": 3596,
      "##44": 3597,
      "##con": 3598,
      "##vim": 3599,
      "##pi": 3600,
      "##ene": 3601,
      "bireysel": 3602,
      "sab": 3603,
      "##üks": 3604,
      "##ılması": 3605,
      "kullanmaya": 3606,
      "##ders": 3607,
      "##lıkları": 3608,
      "kapağı": 3609,
      "gerçekleş": 3610,
      "spo": 3611,
      "altyapı": 3612,
      "trendyolgo": 3613,
      "aracım": 3614,
      "kullanışlıdır": 3615,
      "biletix": 3616,
      "saçmalık": 3617,
      "gösterebilir": 3618,
      "hut": 3619,
      "ileri": 3620,
      "kura": 3621,
      "##diği": 3622,
      "i̇le": 3623,
      "olamaz": 3624,
      "verme": 3625,
      "##cal": 3626,
      "enuy": 3627,
      "takdir": 3628,
      "##bana": 3629,
      "olanak": 3630,
      "tasarımlar": 3631,
      "cihazı": 3632,
      "üstüne": 3633,
      "bilin": 3634,
      "kalabiliyor": 3635,
      "##tify": 3636,
      "meyve": 3637,
      "araştırma": 3638,
      "trans": 3639,
      "teknofest": 3640,
      "spotify": 3641,
      "enuygun": 3642,
      "dis": 3643,
      "lak": 3644,
      "##mo": 3645,
      "##70": 3646,
      "##elseri": 3647,
      "inan": 3648,
      "almam": 3649,
      "##ağa": 3650,
      "hizmetlerinde": 3651,
      "süreli": 3652,
      "tema": 3653,
      "fiyatlandırma": 3654,
      "ulaşmak": 3655,
      "firmanın": 3656,
      "edilmiş": 3657,
      "yataş": 3658,
      "kişilik": 3659,
      "paketleme": 3660,
      "hoş": 3661,
      "medical": 3662,
      "##ague": 3663,
      "norma": 3664,
      "steelseri": 3665,
      "gittiğimde": 3666,
      "premium": 3667,
      "steelseries": 3668,
      "hor": 3669,
      "sol": 3670,
      "##ni": 3671,
      "##xen": 3672,
      "##lim": 3673,
      "##ğa": 3674,
      "##dız": 3675,
      "çanta": 3676,
      "çök": 3677,
      "yapın": 3678,
      "versa": 3679,
      "##eyim": 3680,
      "##mediği": 3681,
      "hızları": 3682,
      "yandex": 3683,
      "turna": 3684,
      "gittik": 3685,
      "firması": 3686,
      "konuyla": 3687,
      "i̇nce": 3688,
      "gözlüğ": 3689,
      "##pazarı": 3690,
      "##tell": 3691,
      "kartıma": 3692,
      "yoğunluk": 3693,
      "ekonomik": 3694,
      "faber": 3695,
      "##abanka": 3696,
      "fibabanka": 3697,
      "koşul": 3698,
      "versace": 3699,
      "fer": 3700,
      "je": 3701,
      "kfc": 3702,
      "les": 3703,
      "lüks": 3704,
      "ntv": 3705,
      "##hes": 3706,
      "##ülü": 3707,
      "##ina": 3708,
      "##las": 3709,
      "##izin": 3710,
      "##iyas": 3711,
      "altern": 3712,
      "##dığınız": 3713,
      "teh": 3714,
      "##ümüz": 3715,
      "boyunca": 3716,
      "kapsamlıdır": 3717,
      "ihtiyac": 3718,
      "duo": 3719,
      "gazoz": 3720,
      "sıkıntısı": 3721,
      "rock": 3722,
      "kasko": 3723,
      "aldılar": 3724,
      "##pace": 3725,
      "hangi": 3726,
      "kaynaklı": 3727,
      "madde": 3728,
      "davran": 3729,
      "lescon": 3730,
      "alternatif": 3731,
      "dr": 3732,
      "dök": 3733,
      "keş": 3734,
      "##ğin": 3735,
      "##örün": 3736,
      "yapamıyorum": 3737,
      "##tiyor": 3738,
      "anlam": 3739,
      "anlay": 3740,
      "##star": 3741,
      "denildi": 3742,
      "sağlan": 3743,
      "parex": 3744,
      "çözün": 3745,
      "yerel": 3746,
      "yapıp": 3747,
      "##gidiyor": 3748,
      "opel": 3749,
      "gittigidiyor": 3750,
      "alınan": 3751,
      "dolce": 3752,
      "ihtiyaçlarına": 3753,
      "##express": 3754,
      "##topya": 3755,
      "çoğu": 3756,
      "link": 3757,
      "prestij": 3758,
      "yurtiçi": 3759,
      "jol": 3760,
      "nün": 3761,
      "##bat": 3762,
      "##üler": 3763,
      "##lerken": 3764,
      "yapmaya": 3765,
      "yapmam": 3766,
      "kargoyu": 3767,
      "fiyas": 3768,
      "parf": 3769,
      "paribu": 3770,
      "##abbana": 3771,
      "##lingo": 3772,
      "yaklaş": 3773,
      "yapılıyor": 3774,
      "baktığımda": 3775,
      "zorlaş": 3776,
      "dışı": 3777,
      "##zav": 3778,
      "ekranı": 3779,
      "sanırım": 3780,
      "pişir": 3781,
      "watt": 3782,
      "shell": 3783,
      "taahhüt": 3784,
      "sevinirim": 3785,
      "duolingo": 3786,
      "ajet": 3787,
      "lap": 3788,
      "##ent": 3789,
      "dezav": 3790,
      "yapış": 3791,
      "haier": 3792,
      "arko": 3793,
      "edile": 3794,
      "ediliyor": 3795,
      "##lıkla": 3796,
      "ekst": 3797,
      "sağlam": 3798,
      "##etix": 3799,
      "çalışıyorum": 3800,
      "yaşat": 3801,
      "düzgün": 3802,
      "gefor": 3803,
      "sitesinde": 3804,
      "coders": 3805,
      "gerçekle": 3806,
      "izlemek": 3807,
      "opena": 3808,
      "kahv": 3809,
      "stanley": 3810,
      "beypazarı": 3811,
      "dayanıklılığı": 3812,
      "tabi": 3813,
      "exxen": 3814,
      "lite": 3815,
      "litre": 3816,
      "kinetix": 3817,
      "jolly": 3818,
      "coderspace": 3819,
      "openai": 3820,
      "kus": 3821,
      "pil": 3822,
      "ue": 3823,
      "yır": 3824,
      "##ele": 3825,
      "##gsm": 3826,
      "##şehir": 3827,
      "##liliği": 3828,
      "etmiş": 3829,
      "kullanıyor": 3830,
      "veren": 3831,
      "martı": 3832,
      "düşür": 3833,
      "çekmiyor": 3834,
      "zamanında": 3835,
      "bull": 3836,
      "yıldız": 3837,
      "##tüp": 3838,
      "##inizi": 3839,
      "istiyoruz": 3840,
      "mağazaya": 3841,
      "dostudur": 3842,
      "seviy": 3843,
      "##tring": 3844,
      "çıkarıyor": 3845,
      "rotring": 3846,
      "canva": 3847,
      "yapılacak": 3848,
      "beklenti": 3849,
      "edeceğim": 3850,
      "parfüm": 3851,
      "wattpad": 3852,
      "dezavantaj": 3853,
      "tık": 3854,
      "##do": 3855,
      "##var": 3856,
      "##ori": 3857,
      "##mışlar": 3858,
      "geçiş": 3859,
      "ulaşım": 3860,
      "ürünlerle": 3861,
      "bizde": 3862,
      "araçlar": 3863,
      "yeniden": 3864,
      "kaydı": 3865,
      "netgsm": 3866,
      "##larımız": 3867,
      "borç": 3868,
      "##maktayım": 3869,
      "bimcell": 3870,
      "günlerdir": 3871,
      "blen": 3872,
      "las": 3873,
      "##ıla": 3874,
      "##ydı": 3875,
      "kalan": 3876,
      "##lanan": 3877,
      "##iste": 3878,
      "sunabilir": 3879,
      "yaptığ": 3880,
      "anlamadım": 3881,
      "içindeki": 3882,
      "müşteriler": 3883,
      "boy": 3884,
      "gide": 3885,
      "dikkatli": 3886,
      "##lona": 3887,
      "mesajı": 3888,
      "poliçe": 3889,
      "programı": 3890,
      "alanı": 3891,
      "bütçe": 3892,
      "kokusu": 3893,
      "alıyorum": 3894,
      "mango": 3895,
      "klav": 3896,
      "##smann": 3897,
      "i̇ncehes": 3898,
      "uefa": 3899,
      "##tüphan": 3900,
      "i̇ncehesap": 3901,
      "ni": 3902,
      "tcd": 3903,
      "ubis": 3904,
      "ışık": 3905,
      "##ij": 3906,
      "##ildim": 3907,
      "aradan": 3908,
      "içinden": 3909,
      "##elim": 3910,
      "geçir": 3911,
      "saati": 3912,
      "akıl": 3913,
      "temin": 3914,
      "ürünlerim": 3915,
      "şeyi": 3916,
      "talebi": 3917,
      "oyunları": 3918,
      "sözde": 3919,
      "istemiyorum": 3920,
      "kütüphan": 3921,
      "kuv": 3922,
      "belki": 3923,
      "toplam": 3924,
      "seferinde": 3925,
      "##liğinden": 3926,
      "##gorit": 3927,
      "bölgelerde": 3928,
      "tcdd": 3929,
      "ubisoft": 3930,
      "yurt": 3931,
      "##çuk": 3932,
      "sal": 3933,
      "algorit": 3934,
      "vermek": 3935,
      "siparişlerim": 3936,
      "##lıklar": 3937,
      "biletim": 3938,
      "istedik": 3939,
      "sizden": 3940,
      "düzeni": 3941,
      "ekranda": 3942,
      "##üsü": 3943,
      "kargomu": 3944,
      "now": 3945,
      "marketten": 3946,
      "sebebi": 3947,
      "görüşme": 3948,
      "denizbank": 3949,
      "pronet": 3950,
      "ciddi": 3951,
      "rockstar": 3952,
      "##mel": 3953,
      "##mayı": 3954,
      "kalemleri": 3955,
      "buh": 3956,
      "sap": 3957,
      "şekli": 3958,
      "kargoda": 3959,
      "hızlıdır": 3960,
      "gönderildi": 3961,
      "kita": 3962,
      "güvenliği": 3963,
      "güvenerek": 3964,
      "edilmiyor": 3965,
      "teslimatı": 3966,
      "cihazları": 3967,
      "istasyon": 3968,
      "##emiyoruz": 3969,
      "bellona": 3970,
      "indirimli": 3971,
      "bilişim": 3972,
      "torku": 3973,
      "fabrik": 3974,
      "castell": 3975,
      "görüştüm": 3976,
      "rossmann": 3977,
      "laptop": 3978,
      "km": 3979,
      "ups": 3980,
      "##16": 3981,
      "##kı": 3982,
      "sunexpress": 3983,
      "i̇htiya": 3984,
      "arab": 3985,
      "verin": 3986,
      "teki": 3987,
      "açan": 3988,
      "##mıyoruz": 3989,
      "önceden": 3990,
      "##osan": 3991,
      "adına": 3992,
      "istediğimde": 3993,
      "sözcü": 3994,
      "finish": 3995,
      "##ücü": 3996,
      "duyarlı": 3997,
      "dahil": 3998,
      "sokak": 3999,
      "pttavm": 4000,
      "yorumları": 4001,
      "##üstü": 4002,
      "kuveyt": 4003,
      "elde": 4004,
      "##aya": 4005,
      "##muz": 4006,
      "antalya": 4007,
      "sorum": 4008,
      "kıs": 4009,
      "olmama": 4010,
      "çabuk": 4011,
      "##lenic": 4012,
      "geçiyor": 4013,
      "yarar": 4014,
      "##üyoruz": 4015,
      "ortada": 4016,
      "esk": 4017,
      "millenic": 4018,
      "riot": 4019,
      "yasal": 4020,
      "zarif": 4021,
      "formu": 4022,
      "normalde": 4023,
      "blender": 4024,
      "millenicom": 4025,
      "90": 4026,
      "aka": 4027,
      "gabbana": 4028,
      "ip": 4029,
      "nak": 4030,
      "niye": 4031,
      "##vit": 4032,
      "##mayın": 4033,
      "##iliç": 4034,
      "##ast": 4035,
      "etmeye": 4036,
      "açtığımda": 4037,
      "etkisiz": 4038,
      "##maktan": 4039,
      "##lemesine": 4040,
      "telefona": 4041,
      "evime": 4042,
      "temmuz": 4043,
      "kurye": 4044,
      "2016": 4045,
      "mağazaları": 4046,
      "diyorum": 4047,
      "muay": 4048,
      "modem": 4049,
      "etmekte": 4050,
      "kronik": 4051,
      "fırsatları": 4052,
      "adam": 4053,
      "aksesuarları": 4054,
      "his": 4055,
      "mük": 4056,
      "raf": 4057,
      "##ft": 4058,
      "##ledim": 4059,
      "demek": 4060,
      "##uluyor": 4061,
      "şam": 4062,
      "kullanımı": 4063,
      "araba": 4064,
      "##ümü": 4065,
      "öncek": 4066,
      "açtım": 4067,
      "yazar": 4068,
      "çekildi": 4069,
      "gönderdiler": 4070,
      "toz": 4071,
      "150": 4072,
      "izleme": 4073,
      "kendilerine": 4074,
      "operat": 4075,
      "altın": 4076,
      "hesabımdan": 4077,
      "donan": 4078,
      "row": 4079,
      "salonu": 4080,
      "değişikliği": 4081,
      "kapanıyor": 4082,
      "etkileyebilir": 4083,
      "port": 4084,
      "ekonomi": 4085,
      "derecede": 4086,
      "tiktak": 4087,
      "değişkenlik": 4088,
      "kızılay": 4089,
      "geforce": 4090,
      "##sem": 4091,
      "##met": 4092,
      "##piliç": 4093,
      "indir": 4094,
      "##ıyorsunuz": 4095,
      "##oker": 4096,
      "güneş": 4097,
      "artır": 4098,
      "sorduğum": 4099,
      "gelmeyen": 4100,
      "##lamaya": 4101,
      "gücü": 4102,
      "yenile": 4103,
      "zorluk": 4104,
      "rengi": 4105,
      "opet": 4106,
      "numaram": 4107,
      "poliç": 4108,
      "maltepe": 4109,
      "aracın": 4110,
      "taşın": 4111,
      "şişe": 4112,
      "kombi": 4113,
      "yazıları": 4114,
      "hanım": 4115,
      "##tırabiliyor": 4116,
      "düştü": 4117,
      "damacana": 4118,
      "kardeşim": 4119,
      "transfer": 4120,
      "aya": 4121,
      "hede": 4122,
      "ila": 4123,
      "joker": 4124,
      "mate": 4125,
      "oy": 4126,
      "##ne": 4127,
      "##lör": 4128,
      "##22": 4129,
      "##asız": 4130,
      "buçuk": 4131,
      "genç": 4132,
      "sunmanız": 4133,
      "ör": 4134,
      "orij": 4135,
      "geniştir": 4136,
      "seçeneği": 4137,
      "satıcı": 4138,
      "durumdan": 4139,
      "giden": 4140,
      "erişim": 4141,
      "edecek": 4142,
      "hopar": 4143,
      "alındı": 4144,
      "avantajları": 4145,
      "kaza": 4146,
      "şirketi": 4147,
      "etmeme": 4148,
      "kasım": 4149,
      "pepsico": 4150,
      "şifr": 4151,
      "baby": 4152,
      "otosan": 4153,
      "iptalini": 4154,
      "önceki": 4155,
      "rowenta": 4156,
      "dil": 4157,
      "lim": 4158,
      "vit": 4159,
      "##layıp": 4160,
      "##emmel": 4161,
      "art": 4162,
      "soru": 4163,
      "kapağ": 4164,
      "##sama": 4165,
      "çıkmadı": 4166,
      "köp": 4167,
      "bulunuyor": 4168,
      "haberler": 4169,
      "platformun": 4170,
      "atasay": 4171,
      "değerlendirme": 4172,
      "kimseye": 4173,
      "league": 4174,
      "penti": 4175,
      "derinlemesine": 4176,
      "mükemmel": 4177,
      "şamp": 4178,
      "hoparlör": 4179,
      "meş": 4180,
      "orada": 4181,
      "piyas": 4182,
      "##endi": 4183,
      "##aka": 4184,
      "##imes": 4185,
      "şaş": 4186,
      "arada": 4187,
      "günlerde": 4188,
      "magaz": 4189,
      "enza": 4190,
      "##cağımı": 4191,
      "kesildi": 4192,
      "istiyor": 4193,
      "mağduriyeti": 4194,
      "##ruf": 4195,
      "analiz": 4196,
      "klima": 4197,
      "ih": 4198,
      "nes": 4199,
      "##ronik": 4200,
      "##say": 4201,
      "##yum": 4202,
      "##lidir": 4203,
      "##leyici": 4204,
      "##dit": 4205,
      "##dular": 4206,
      "önlemleri": 4207,
      "yazdım": 4208,
      "yazıyorum": 4209,
      "##abile": 4210,
      "alışverişlerde": 4211,
      "istediler": 4212,
      "tasarruf": 4213,
      "tanesi": 4214,
      "alacak": 4215,
      "düşünüyorum": 4216,
      "aracımın": 4217,
      "temsilci": 4218,
      "konuşma": 4219,
      "euro": 4220,
      "portf": 4221,
      "magazin": 4222,
      "cep": 4223,
      "deki": 4224,
      "ili": 4225,
      "nde": 4226,
      "##lor": 4227,
      "##ant": 4228,
      "##ens": 4229,
      "i̇let": 4230,
      "kullanamıyorum": 4231,
      "deng": 4232,
      "tekli": 4233,
      "internetten": 4234,
      "emsan": 4235,
      "arayarak": 4236,
      "grub": 4237,
      "ihtiyaçlarını": 4238,
      "özelliği": 4239,
      "bardak": 4240,
      "dondurma": 4241,
      "oğlum": 4242,
      "belediyesi": 4243,
      "hedef": 4244,
      "mini": 4245,
      "##33": 4246,
      "##fet": 4247,
      "##vest": 4248,
      "##invest": 4249,
      "demir": 4250,
      "bulamıyorum": 4251,
      "yal": 4252,
      "##ürlük": 4253,
      "halinde": 4254,
      "##sunu": 4255,
      "varsa": 4256,
      "memori": 4257,
      "##tikten": 4258,
      "oyuncu": 4259,
      "eğlen": 4260,
      "##afak": 4261,
      "teknolojisi": 4262,
      "finansinvest": 4263,
      "##fix": 4264,
      "etiket": 4265,
      "lakin": 4266,
      "yararlan": 4267,
      "orijinal": 4268,
      "memorial": 4269,
      "bık": 4270,
      "dimes": 4271,
      "erik": 4272,
      "mat": 4273,
      "sc": 4274,
      "##dın": 4275,
      "##hone": 4276,
      "##ws": 4277,
      "##lerek": 4278,
      "##lerce": 4279,
      "kaba": 4280,
      "allah": 4281,
      "and": 4282,
      "ard": 4283,
      "##stik": 4284,
      "##manı": 4285,
      "gereğ": 4286,
      "işi": 4287,
      "kıyasla": 4288,
      "##luğu": 4289,
      "baktım": 4290,
      "elektronik": 4291,
      "biletimi": 4292,
      "tüketim": 4293,
      "##lığında": 4294,
      "kullanımda": 4295,
      "tutarsız": 4296,
      "şişec": 4297,
      "olunmalı": 4298,
      "bisik": 4299,
      "arkasında": 4300,
      "portföy": 4301,
      "şişecam": 4302,
      "ton": 4303,
      "##45": 4304,
      "##gın": 4305,
      "##tış": 4306,
      "etmiyorum": 4307,
      "açma": 4308,
      "olduğundan": 4309,
      "kalitesine": 4310,
      "markalardan": 4311,
      "kuru": 4312,
      "yapılı": 4313,
      "tanı": 4314,
      "kolayca": 4315,
      "bilinir": 4316,
      "pişmanım": 4317,
      "sert": 4318,
      "şekerbank": 4319,
      "keyif": 4320,
      "eksikliklerle": 4321,
      "kusur": 4322,
      "klavye": 4323,
      "erikli": 4324,
      "nok": 4325,
      "sil": 4326,
      "tü": 4327,
      "##12": 4328,
      "##60": 4329,
      "##75": 4330,
      "##jik": 4331,
      "##ğinden": 4332,
      "ekim": 4333,
      "yarın": 4334,
      "aksi": 4335,
      "beklemek": 4336,
      "kurut": 4337,
      "edilmesi": 4338,
      "hakları": 4339,
      "total": 4340,
      "bayan": 4341,
      "kartları": 4342,
      "##selen": 4343,
      "güncellemeler": 4344,
      "edemiyorum": 4345,
      "sport": 4346,
      "belg": 4347,
      "##lığına": 4348,
      "fox": 4349,
      "süpürgesi": 4350,
      "porselen": 4351,
      "leke": 4352,
      "hasarlı": 4353,
      "buradan": 4354,
      "plastik": 4355,
      "engel": 4356,
      "75": 4357,
      "adana": 4358,
      "con": 4359,
      "fon": 4360,
      "##sak": 4361,
      "##ştir": 4362,
      "##inc": 4363,
      "##diğiniz": 4364,
      "##esel": 4365,
      "kalı": 4366,
      "burada": 4367,
      "##emens": 4368,
      "sorunun": 4369,
      "kapsama": 4370,
      "ücretli": 4371,
      "yapılmış": 4372,
      "edilmesini": 4373,
      "başvurdum": 4374,
      "aşağı": 4375,
      "paramın": 4376,
      "enerjis": 4377,
      "bankacılığı": 4378,
      "siemens": 4379,
      "açıklamaları": 4380,
      "aidatı": 4381,
      "yaşanıyor": 4382,
      "itibaren": 4383,
      "ödül": 4384,
      "şeklinde": 4385,
      "35": 4386,
      "300": 4387,
      "cez": 4388,
      "cuma": 4389,
      "gez": 4390,
      "pap": 4391,
      "yiye": 4392,
      "##pal": 4393,
      "kargon": 4394,
      "kullanmak": 4395,
      "siparişin": 4396,
      "başlık": 4397,
      "başkent": 4398,
      "kapora": 4399,
      "##sizliği": 4400,
      "ödemesi": 4401,
      "##diğimiz": 4402,
      "özen": 4403,
      "doğum": 4404,
      "i̇stik": 4405,
      "insanlar": 4406,
      "paypal": 4407,
      "##ceğimi": 4408,
      "yaptılar": 4409,
      "öğrendim": 4410,
      "menüsü": 4411,
      "express": 4412,
      "yazıklar": 4413,
      "zarar": 4414,
      "söylüyor": 4415,
      "aktarmada": 4416,
      "bahane": 4417,
      "sızdır": 4418,
      "enerjisa": 4419,
      "itopya": 4420,
      "min": 4421,
      "##yiz": 4422,
      "##faş": 4423,
      "##gul": 4424,
      "##amik": 4425,
      "hizmetlerle": 4426,
      "##kale": 4427,
      "##manları": 4428,
      "açıp": 4429,
      "yanında": 4430,
      "şeyler": 4431,
      "farkı": 4432,
      "kampanyas": 4433,
      "tofaş": 4434,
      "işlemleri": 4435,
      "erken": 4436,
      "##mamıza": 4437,
      "üstün": 4438,
      "media": 4439,
      "vatandaş": 4440,
      "stokta": 4441,
      "superbox": 4442,
      "kodlu": 4443,
      "projeleriyle": 4444,
      "çöpe": 4445,
      "seviyesi": 4446,
      "apar": 4447,
      "bal": 4448,
      "ode": 4449,
      "pi": 4450,
      "sim": 4451,
      "##siye": 4452,
      "##ym": 4453,
      "##90": 4454,
      "##iliği": 4455,
      "##land": 4456,
      "bulama": 4457,
      "anlat": 4458,
      "anlaya": 4459,
      "##ılma": 4460,
      "sürü": 4461,
      "çıkış": 4462,
      "##200": 4463,
      "telefonun": 4464,
      "karşılamıyor": 4465,
      "yana": 4466,
      "prof": 4467,
      "geldiği": 4468,
      "geldiğinde": 4469,
      "hatt": 4470,
      "markaya": 4471,
      "bırakın": 4472,
      "yolculuk": 4473,
      "##amaz": 4474,
      "trend": 4475,
      "gazet": 4476,
      "ürünümü": 4477,
      "verdiği": 4478,
      "kısmında": 4479,
      "giderilmesini": 4480,
      "umur": 4481,
      "umarım": 4482,
      "dizüstü": 4483,
      "havay": 4484,
      "popüler": 4485,
      "akıllı": 4486,
      "i̇htiyaç": 4487,
      "eğlence": 4488,
      "48": 4489,
      "iken": 4490,
      "sını": 4491,
      "tit": 4492,
      "yum": 4493,
      "yür": 4494,
      "##eceğiz": 4495,
      "##mar": 4496,
      "##çeşit": 4497,
      "bulamadım": 4498,
      "deniyor": 4499,
      "deneme": 4500,
      "##ever": 4501,
      "yüksektir": 4502,
      "işe": 4503,
      "##miyorlar": 4504,
      "tatları": 4505,
      "nedenle": 4506,
      "bulunduğum": 4507,
      "bankanın": 4508,
      "##layıcı": 4509,
      "sesli": 4510,
      "indirimler": 4511,
      "topluluk": 4512,
      "bütç": 4513,
      "öğrenci": 4514,
      "bildirimleri": 4515,
      "ağır": 4516,
      "masraf": 4517,
      "kullanmadığım": 4518,
      "soy": 4519,
      "##abank": 4520,
      "##nica": 4521,
      "limit": 4522,
      "i̇stikbal": 4523,
      "odeabank": 4524,
      "##çeşitliliği": 4525,
      "itiraz": 4526,
      "puma": 4527,
      "##sas": 4528,
      "##ore": 4529,
      "##ınıza": 4530,
      "dep": 4531,
      "ürünçeşitliliği": 4532,
      "##amet": 4533,
      "geldim": 4534,
      "koca": 4535,
      "olmaması": 4536,
      "##altı": 4537,
      "çıkmıyor": 4538,
      "saatte": 4539,
      "kurs": 4540,
      "girdim": 4541,
      "hakem": 4542,
      "kaybol": 4543,
      "temizleme": 4544,
      "küf": 4545,
      "garantili": 4546,
      "##lığını": 4547,
      "alanında": 4548,
      "aracımı": 4549,
      "##uluğu": 4550,
      "derece": 4551,
      "korkmaz": 4552,
      "söylüyorlar": 4553,
      "çöp": 4554,
      "sayaç": 4555,
      "ekstra": 4556,
      "donanım": 4557,
      "iliş": 4558,
      "silin": 4559,
      "tuz": 4560,
      "##nız": 4561,
      "##yince": 4562,
      "##köy": 4563,
      "##elsan": 4564,
      "##astre": 4565,
      "##tılı": 4566,
      "şafak": 4567,
      "ölç": 4568,
      "i̇k": 4569,
      "verir": 4570,
      "gününde": 4571,
      "arnica": 4572,
      "fiyatlarına": 4573,
      "konya": 4574,
      "etki": 4575,
      "##lemiyor": 4576,
      "seçim": 4577,
      "çalıştım": 4578,
      "ulaşmaya": 4579,
      "yerden": 4580,
      "##vense": 4581,
      "star": 4582,
      "düzensiz": 4583,
      "alabiliyor": 4584,
      "yapıyorlar": 4585,
      "vivense": 4586,
      "sonuçlan": 4587,
      "note": 4588,
      "müdür": 4589,
      "1000": 4590,
      "ankastre": 4591,
      "aksak": 4592,
      "borcum": 4593,
      "yayıncılara": 4594,
      "jeans": 4595,
      "çözünürlük": 4596,
      "yalnız": 4597,
      "sınıf": 4598,
      "70": 4599,
      "deri": 4600,
      "flor": 4601,
      "gay": 4602,
      "il": 4603,
      "ler": 4604,
      "led": 4605,
      "pis": 4606,
      "ul": 4607,
      "vur": 4608,
      "##amadı": 4609,
      "##mini": 4610,
      "##beri": 4611,
      "##ilmedi": 4612,
      "altı": 4613,
      "yapay": 4614,
      "##ıldım": 4615,
      "içine": 4616,
      "olacağını": 4617,
      "sordum": 4618,
      "edileme": 4619,
      "markt": 4620,
      "çözme": 4621,
      "onun": 4622,
      "ödeye": 4623,
      "yerli": 4624,
      "gitmesi": 4625,
      "markadır": 4626,
      "ürünlerde": 4627,
      "hafif": 4628,
      "büyükşehir": 4629,
      "bugüne": 4630,
      "numarasını": 4631,
      "merkezini": 4632,
      "değiştirmek": 4633,
      "şubede": 4634,
      "bununla": 4635,
      "vermiyorlar": 4636,
      "yaratıcı": 4637,
      "oluşturdum": 4638,
      "lojis": 4639,
      "imkansız": 4640,
      "gelince": 4641,
      "sürdürülebilirlik": 4642,
      "neyse": 4643,
      "peşin": 4644,
      "ekşi": 4645,
      "denedim": 4646,
      "lojistik": 4647,
      "jet": 4648,
      "sez": 4649,
      "siv": 4650,
      "uc": 4651,
      "##resi": 4652,
      "##eceğim": 4653,
      "##15": 4654,
      "##ğine": 4655,
      "inov": 4656,
      "aygaz": 4657,
      "konak": 4658,
      "##allah": 4659,
      "##lenmiş": 4660,
      "serviste": 4661,
      "çalıştır": 4662,
      "##aber": 4663,
      "kamil": 4664,
      "merak": 4665,
      "poş": 4666,
      "bilgisayarları": 4667,
      "hassas": 4668,
      "üstü": 4669,
      "süreçte": 4670,
      "dayanıklıdır": 4671,
      "sayfa": 4672,
      "kokuyor": 4673,
      "taşı": 4674,
      "beraber": 4675,
      "kalaba": 4676,
      "kızım": 4677,
      "mahk": 4678,
      "anneler": 4679,
      "blok": 4680,
      "miktar": 4681,
      "civar": 4682,
      "parçası": 4683,
      "depolama": 4684,
      "buhar": 4685,
      "i̇letişim": 4686,
      "ardından": 4687,
      "go": 4688,
      "glo": 4689,
      "nda": 4690,
      "siste": 4691,
      "tic": 4692,
      "##dz": 4693,
      "##72": 4694,
      "##dest": 4695,
      "##uldu": 4696,
      "siparişler": 4697,
      "telefonlara": 4698,
      "evrak": 4699,
      "şubesinde": 4700,
      "çözümlerle": 4701,
      "esen": 4702,
      "kaybet": 4703,
      "reklamsız": 4704,
      "##pazar": 4705,
      "dolap": 4706,
      "forum": 4707,
      "mıs": 4708,
      "kullanışsız": 4709,
      "rezil": 4710,
      "etmiyorlar": 4711,
      "ettirmek": 4712,
      "buraya": 4713,
      "sanalpazar": 4714,
      "muayene": 4715,
      "global": 4716,
      "bp": 4717,
      "ez": 4718,
      "ey": 4719,
      "grafik": 4720,
      "kili": 4721,
      "sine": 4722,
      "##düz": 4723,
      "##imizi": 4724,
      "ürünlerini": 4725,
      "karş": 4726,
      "yetiş": 4727,
      "unut": 4728,
      "bilkent": 4729,
      "yükleme": 4730,
      "tarz": 4731,
      "konusu": 4732,
      "çıkma": 4733,
      "gönderdik": 4734,
      "alışverişi": 4735,
      "zorla": 4736,
      "nedeni": 4737,
      "haftada": 4738,
      "tost": 4739,
      "kalmadı": 4740,
      "kendiliğinden": 4741,
      "sankom": 4742,
      "ediyorlar": 4743,
      "kolaylaş": 4744,
      "eğitimli": 4745,
      "sırasında": 4746,
      "imza": 4747,
      "temsilcisine": 4748,
      "aracılığı": 4749,
      "paylaşım": 4750,
      "sepet": 4751,
      "iyile": 4752,
      "gösteriyor": 4753,
      "algoritması": 4754,
      "cad": 4755,
      "giz": 4756,
      "test": 4757,
      "trafik": 4758,
      "ufak": 4759,
      "##süz": 4760,
      "##sever": 4761,
      "##erken": 4762,
      "##ates": 4763,
      "##ella": 4764,
      "dam": 4765,
      "##dal": 4766,
      "kaş": 4767,
      "##tah": 4768,
      "üründen": 4769,
      "halı": 4770,
      "i̇l": 4771,
      "##uyorlar": 4772,
      "arıyoruz": 4773,
      "değeri": 4774,
      "##laması": 4775,
      "##ümde": 4776,
      "saatleri": 4777,
      "danış": 4778,
      "atv": 4779,
      "platformdur": 4780,
      "dikkate": 4781,
      "pri": 4782,
      "sözlük": 4783,
      "alıcı": 4784,
      "gidiş": 4785,
      "atıyor": 4786,
      "süpürgenin": 4787,
      "i̇lgilen": 4788,
      "komb": 4789,
      "kabl": 4790,
      "profesyonellik": 4791,
      "yanılt": 4792,
      "mahv": 4793,
      "istediğimi": 4794,
      "i̇lgisizliği": 4795,
      "bakanlığı": 4796,
      "misiniz": 4797,
      "salgın": 4798,
      "##destek": 4799,
      "ali": 4800,
      "bag": 4801,
      "gru": 4802,
      "giyim": 4803,
      "kıl": 4804,
      "sey": 4805,
      "vaz": 4806,
      "yara": 4807,
      "##ebiliyor": 4808,
      "##ita": 4809,
      "##13": 4810,
      "##gar": 4811,
      "##lish": 4812,
      "##layan": 4813,
      "##meleri": 4814,
      "##lanma": 4815,
      "##isinin": 4816,
      "hali": 4817,
      "olmamasına": 4818,
      "banvit": 4819,
      "kapor": 4820,
      "yüksel": 4821,
      "##mıştım": 4822,
      "düşüyor": 4823,
      "ortak": 4824,
      "sıkı": 4825,
      "güvenip": 4826,
      "görsel": 4827,
      "markalı": 4828,
      "ücretini": 4829,
      "söyledik": 4830,
      "kesilmiş": 4831,
      "severek": 4832,
      "sistemde": 4833,
      "##tuğ": 4834,
      "hotel": 4835,
      "bekleye": 4836,
      "##ört": 4837,
      "açığa": 4838,
      "çalışanlar": 4839,
      "yoğurt": 4840,
      "siteden": 4841,
      "berbat": 4842,
      "bağlantısı": 4843,
      "##memiştir": 4844,
      "odası": 4845,
      "düzenlemeleri": 4846,
      "çözülmesini": 4847,
      "strateji": 4848,
      "dilek": 4849,
      "çöküyor": 4850,
      "fiyasko": 4851,
      "zorlaştırabiliyor": 4852,
      "sorumluluk": 4853,
      "meşgul": 4854,
      "sisteme": 4855,
      "adım": 4856,
      "mol": 4857,
      "play": 4858,
      "wif": 4859,
      "##mızı": 4860,
      "##neği": 4861,
      "##ıç": 4862,
      "##ıyla": 4863,
      "##62": 4864,
      "##cra": 4865,
      "##ünüz": 4866,
      "kafa": 4867,
      "##iliş": 4868,
      "haberi": 4869,
      "etmediler": 4870,
      "aydın": 4871,
      "arayın": 4872,
      "verecek": 4873,
      "edili": 4874,
      "öne": 4875,
      "başlat": 4876,
      "olmayabilir": 4877,
      "geçtim": 4878,
      "yaşında": 4879,
      "yapılması": 4880,
      "kurumu": 4881,
      "taraftar": 4882,
      "bırakıyor": 4883,
      "stres": 4884,
      "reklamlar": 4885,
      "bankalar": 4886,
      "başladım": 4887,
      "##ınızı": 4888,
      "alım": 4889,
      "##ood": 4890,
      "dolayısıyla": 4891,
      "yaşadığım": 4892,
      "yaşadık": 4893,
      "senedir": 4894,
      "beğeniyor": 4895,
      "harca": 4896,
      "arkadaşım": 4897,
      "marketler": 4898,
      "renkli": 4899,
      "pazartesi": 4900,
      "oyna": 4901,
      "yaşanan": 4902,
      "show": 4903,
      "uyarısı": 4904,
      "gereğinin": 4905,
      "nokta": 4906,
      "wifi": 4907,
      "emin": 4908,
      "giş": 4909,
      "gran": 4910,
      "gold": 4911,
      "pam": 4912,
      "ris": 4913,
      "ısı": 4914,
      "##det": 4915,
      "##yken": 4916,
      "##lâ": 4917,
      "##ekk": 4918,
      "##ekon": 4919,
      "ürüne": 4920,
      "##dığıma": 4921,
      "i̇yi": 4922,
      "##ster": 4923,
      "tad": 4924,
      "kos": 4925,
      "ekmek": 4926,
      "##etic": 4927,
      "##lendi": 4928,
      "evet": 4929,
      "ulaşamadım": 4930,
      "zamanlarda": 4931,
      "suyun": 4932,
      "##inize": 4933,
      "girip": 4934,
      "doğr": 4935,
      "kalmadım": 4936,
      "yolladım": 4937,
      "alabilir": 4938,
      "i̇şkur": 4939,
      "sanat": 4940,
      "edicidir": 4941,
      "verdiğimiz": 4942,
      "kütah": 4943,
      "teknolojileri": 4944,
      "standartlarından": 4945,
      "kalitesini": 4946,
      "yıka": 4947,
      "sürecini": 4948,
      "annem": 4949,
      "i̇nsanları": 4950,
      "talebinde": 4951,
      "keşke": 4952,
      "lastik": 4953,
      "grubu": 4954,
      "bisiklet": 4955,
      "kütahya": 4956,
      "dö": 4957,
      "elin": 4958,
      "gdz": 4959,
      "idi": 4960,
      "yola": 4961,
      "##sinin": 4962,
      "##18": 4963,
      "çif": 4964,
      "##ure": 4965,
      "##tıma": 4966,
      "##ull": 4967,
      "##amın": 4968,
      "yapıyorum": 4969,
      "hâ": 4970,
      "veriliyor": 4971,
      "sorgu": 4972,
      "##larınız": 4973,
      "##menizi": 4974,
      "tarihinden": 4975,
      "##leniyor": 4976,
      "book": 4977,
      "çeşitlidir": 4978,
      "çözüme": 4979,
      "ulaşa": 4980,
      "yaşam": 4981,
      "gönderimi": 4982,
      "görül": 4983,
      "ücretlerinin": 4984,
      "zorun": 4985,
      "kesiliyor": 4986,
      "merha": 4987,
      "verilecek": 4988,
      "modeli": 4989,
      "katı": 4990,
      "açılıyor": 4991,
      "tüket": 4992,
      "aradığımızda": 4993,
      "tabak": 4994,
      "##emedim": 4995,
      "liralık": 4996,
      "krem": 4997,
      "yazıyordu": 4998,
      "kalitesizliği": 4999,
      "dönemde": 5000,
      "oradan": 5001,
      "anlamış": 5002,
      "english": 5003,
      "aboneliğim": 5004,
      "kütüphanesi": 5005,
      "iphone": 5006,
      "andro": 5007,
      "poşet": 5008,
      "mısır": 5009,
      "dy": 5010,
      "ed": 5011,
      "kesi": 5012,
      "ra": 5013,
      "##aj": 5014,
      "##ulan": 5015,
      "##42": 5016,
      "##pon": 5017,
      "##ğe": 5018,
      "##madığını": 5019,
      "##ünün": 5020,
      "çer": 5021,
      "##ilmiyor": 5022,
      "##ilip": 5023,
      "yam": 5024,
      "##iydi": 5025,
      "sunan": 5026,
      "yapım": 5027,
      "hizmetlerin": 5028,
      "siparişiniz": 5029,
      "bilmiyor": 5030,
      "##adem": 5031,
      "servisine": 5032,
      "karşılığında": 5033,
      "süredir": 5034,
      "suç": 5035,
      "adlı": 5036,
      "kapsamı": 5037,
      "##cher": 5038,
      "yardımsever": 5039,
      "musunuz": 5040,
      "firmadan": 5041,
      "yayınevi": 5042,
      "ürününüz": 5043,
      "koru": 5044,
      "sitede": 5045,
      "kalıyorum": 5046,
      "ayakkabıları": 5047,
      "kazanç": 5048,
      "kadın": 5049,
      "ligi": 5050,
      "ulaşılamıyor": 5051,
      "tehdit": 5052,
      "fabrika": 5053,
      "şampiyon": 5054,
      "şaşır": 5055,
      "teklif": 5056,
      "gayet": 5057,
      "kalabalık": 5058,
      "molfix": 5059,
      "pamuk": 5060,
      "hâlâ": 5061,
      "booking": 5062,
      "dyson": 5063,
      "49": 5064,
      "blu": 5065,
      "leri": 5066,
      "peli": 5067,
      "plus": 5068,
      "sök": 5069,
      "##ser": 5070,
      "##sü": 5071,
      "##i̇": 5072,
      "##ud": 5073,
      "##32": 5074,
      "##76": 5075,
      "##ord": 5076,
      "çan": 5077,
      "çal": 5078,
      "üründe": 5079,
      "almaz": 5080,
      "bilgim": 5081,
      "evden": 5082,
      "##ebile": 5083,
      "takibi": 5084,
      "kesilen": 5085,
      "edilmeyen": 5086,
      "tanın": 5087,
      "kaldık": 5088,
      "şikayeti": 5089,
      "store": 5090,
      "şikayetimi": 5091,
      "yapıyorsunuz": 5092,
      "fincan": 5093,
      "katılı": 5094,
      "abar": 5095,
      "sonuçlar": 5096,
      "gazi": 5097,
      "doğrudan": 5098,
      "aldıktan": 5099,
      "sokağa": 5100,
      "kiralama": 5101,
      "gönderilmedi": 5102,
      "sorumsuzluk": 5103,
      "kısıtlı": 5104,
      "ihtiyacım": 5105,
      "kitab": 5106,
      "profesyonellikten": 5107,
      "android": 5108,
      "pelit": 5109,
      "32": 5110,
      "biliyor": 5111,
      "cn": 5112,
      "fah": 5113,
      "kek": 5114,
      "me": 5115,
      "nut": 5116,
      "ore": 5117,
      "tok": 5118,
      "yılı": 5119,
      "##ula": 5120,
      "##nu": 5121,
      "##99": 5122,
      "##th": 5123,
      "##́al": 5124,
      "##lek": 5125,
      "üm": 5126,
      "##mevim": 5127,
      "##teş": 5128,
      "max": 5129,
      "taban": 5130,
      "başında": 5131,
      "eks": 5132,
      "kıya": 5133,
      "işlet": 5134,
      "endi": 5135,
      "telefonuma": 5136,
      "yandı": 5137,
      "onarım": 5138,
      "özg": 5139,
      "paraya": 5140,
      "habersiz": 5141,
      "bayat": 5142,
      "##edin": 5143,
      "teknikdestek": 5144,
      "koruma": 5145,
      "çevir": 5146,
      "resim": 5147,
      "öğrenme": 5148,
      "okul": 5149,
      "belirttim": 5150,
      "kuruluş": 5151,
      "##ladılar": 5152,
      "casper": 5153,
      "itibariyle": 5154,
      "ısrar": 5155,
      "biskü": 5156,
      "##sorunu": 5157,
      "mahallesi": 5158,
      "##ülüyor": 5159,
      "sorduğumda": 5160,
      "gazetesi": 5161,
      "bütçemi": 5162,
      "konaklama": 5163,
      "katılımevim": 5164,
      "nutella": 5165,
      "oréal": 5166,
      "34": 5167,
      "bk": 5168,
      "dü": 5169,
      "dum": 5170,
      "dell": 5171,
      "dört": 5172,
      "sof": 5173,
      "##fı": 5174,
      "##paş": 5175,
      "##elen": 5176,
      "##urken": 5177,
      "sade": 5178,
      "şen": 5179,
      "##embe": 5180,
      "yapmadı": 5181,
      "mod": 5182,
      "olmalı": 5183,
      "olmasını": 5184,
      "parmak": 5185,
      "tarihine": 5186,
      "telefonumu": 5187,
      "aldığımda": 5188,
      "azından": 5189,
      "elec": 5190,
      "söyleyip": 5191,
      "##edia": 5192,
      "mağazalar": 5193,
      "erte": 5194,
      "i̇ndirim": 5195,
      "sahib": 5196,
      "sean": 5197,
      "sonuc": 5198,
      "başvura": 5199,
      "aşk": 5200,
      "hakkım": 5201,
      "nisanda": 5202,
      "sonuçta": 5203,
      "sonuçları": 5204,
      "satışı": 5205,
      "filmi": 5206,
      "reza": 5207,
      "okun": 5208,
      "gözükmüyor": 5209,
      "atış": 5210,
      "gecikmesi": 5211,
      "fırsatlar": 5212,
      "yapmıyorlar": 5213,
      "mağduriyetimin": 5214,
      "##taki": 5215,
      "önerileri": 5216,
      "dominos": 5217,
      "iyileştir": 5218,
      "merhaba": 5219,
      "cnn": 5220,
      "fast": 5221,
      "food": 5222,
      "ide": 5223,
      "luk": 5224,
      "##ada": 5225,
      "##sey": 5226,
      "##ust": 5227,
      "##48": 5228,
      "##73": 5229,
      "##wer": 5230,
      "##lilik": 5231,
      "##liğini": 5232,
      "çor": 5233,
      "birden": 5234,
      "sunmuyor": 5235,
      "##tiği": 5236,
      "i̇p": 5237,
      "aydan": 5238,
      "sonrak": 5239,
      "kola": 5240,
      "uyum": 5241,
      "isimli": 5242,
      "servisin": 5243,
      "kalitede": 5244,
      "çalıştığım": 5245,
      "öncelikle": 5246,
      "ödemesini": 5247,
      "gönderim": 5248,
      "karşılaştım": 5249,
      "hattı": 5250,
      "tatlar": 5251,
      "görür": 5252,
      "düzey": 5253,
      "azal": 5254,
      "2015": 5255,
      "markası": 5256,
      "alacağım": 5257,
      "başvurusu": 5258,
      "hayatımda": 5259,
      "dayanıklılık": 5260,
      "devamlı": 5261,
      "olursanız": 5262,
      "adresime": 5263,
      "250": 5264,
      "kişiselleştir": 5265,
      "boşuna": 5266,
      "ettiğimde": 5267,
      "dağıtıma": 5268,
      "esnaf": 5269,
      "cumartesi": 5270,
      "eşyaları": 5271,
      "sayılı": 5272,
      "çocuğum": 5273,
      "vermediğini": 5274,
      "kağıt": 5275,
      "takdirde": 5276,
      "linkedin": 5277,
      "yapılır": 5278,
      "kurutma": 5279,
      "fonksiyon": 5280,
      "kargonun": 5281,
      "havayol": 5282,
      "cadde": 5283,
      "electr": 5284,
      "sonraki": 5285,
      "mor": 5286,
      "pek": 5287,
      "us": 5288,
      "##rat": 5289,
      "##kin": 5290,
      "##pit": 5291,
      "##ati": 5292,
      "kale": 5293,
      "##ulmuş": 5294,
      "##tiv": 5295,
      "kullanıcısı": 5296,
      "edilecek": 5297,
      "##manızı": 5298,
      "amaç": 5299,
      "isim": 5300,
      "evin": 5301,
      "yenilen": 5302,
      "döner": 5303,
      "bizden": 5304,
      "bulunamadı": 5305,
      "makul": 5306,
      "tanım": 5307,
      "verilmiş": 5308,
      "getirmiyor": 5309,
      "verile": 5310,
      "sessiz": 5311,
      "ödemeyi": 5312,
      "devir": 5313,
      "##meyeceğim": 5314,
      "##fendi": 5315,
      "yelpazesine": 5316,
      "hayır": 5317,
      "##ıtma": 5318,
      "ister": 5319,
      "##larımın": 5320,
      "içeriği": 5321,
      "kargomun": 5322,
      "borcu": 5323,
      "milan": 5324,
      "sağlıklı": 5325,
      "kutusu": 5326,
      "i̇nternetten": 5327,
      "atıyorum": 5328,
      "onaylandı": 5329,
      "yaratabiliyor": 5330,
      "serg": 5331,
      "olmuştur": 5332,
      "dokun": 5333,
      "civarı": 5334,
      "kitlesine": 5335,
      "alakası": 5336,
      "gözlüğü": 5337,
      "kahvaltı": 5338,
      "papara": 5339,
      "kocaeli": 5340,
      "prima": 5341,
      "çift": 5342,
      "80": 5343,
      "ap": 5344,
      "bıç": 5345,
      "id": 5346,
      "lam": 5347,
      "pom": 5348,
      "vade": 5349,
      "yedi": 5350,
      "##op": 5351,
      "##cık": 5352,
      "##xy": 5353,
      "##üb": 5354,
      "##mat": 5355,
      "##dil": 5356,
      "##dıktan": 5357,
      "##esiyim": 5358,
      "##hale": 5359,
      "sav": 5360,
      "sapı": 5361,
      "##cılar": 5362,
      "i̇h": 5363,
      "##kal": 5364,
      "teb": 5365,
      "##sının": 5366,
      "##iber": 5367,
      "##miştim": 5368,
      "##meniz": 5369,
      "tesis": 5370,
      "tespit": 5371,
      "çekiliş": 5372,
      "bulut": 5373,
      "gönderdi": 5374,
      "geldik": 5375,
      "bulunmuyor": 5376,
      "girdiğimde": 5377,
      "##lerimiz": 5378,
      "sunarak": 5379,
      "yolda": 5380,
      "moderasyon": 5381,
      "tutarı": 5382,
      "temizliği": 5383,
      "##rosu": 5384,
      "makinem": 5385,
      "edebiliyor": 5386,
      "benimle": 5387,
      "avantajı": 5388,
      "sıkıntılı": 5389,
      "düşünüyoruz": 5390,
      "yapabilir": 5391,
      "sıradan": 5392,
      "geçtiğim": 5393,
      "sinyal": 5394,
      "kurulumu": 5395,
      "tavsiye": 5396,
      "maske": 5397,
      "motoru": 5398,
      "gala": 5399,
      "adil": 5400,
      "tahsil": 5401,
      "dünyada": 5402,
      "araştır": 5403,
      "kadrosu": 5404,
      "oyalıyor": 5405,
      "ekipmanları": 5406,
      "kural": 5407,
      "keyifli": 5408,
      "duman": 5409,
      "far": 5410,
      "fit": 5411,
      "hey": 5412,
      "sarı": 5413,
      "ısıt": 5414,
      "##set": 5415,
      "##oil": 5416,
      "##ciz": 5417,
      "##ilo": 5418,
      "intern": 5419,
      "##isinde": 5420,
      "##tima": 5421,
      "kulüp": 5422,
      "##cılık": 5423,
      "i̇ste": 5424,
      "kullanılmış": 5425,
      "aralığı": 5426,
      "ted": 5427,
      "aro": 5428,
      "mogaz": 5429,
      "tartış": 5430,
      "##lenme": 5431,
      "geçmedi": 5432,
      "##usuz": 5433,
      "kredim": 5434,
      "yerinden": 5435,
      "akı": 5436,
      "ücretinin": 5437,
      "teslimi": 5438,
      "firmasından": 5439,
      "bulunabiliyor": 5440,
      "kalmış": 5441,
      "##resh": 5442,
      "şikayette": 5443,
      "ergon": 5444,
      "siparişimde": 5445,
      "cevab": 5446,
      "arızalandı": 5447,
      "merkezine": 5448,
      "istina": 5449,
      "ediyorsunuz": 5450,
      "beyan": 5451,
      "insanların": 5452,
      "yaptığı": 5453,
      "alıyoruz": 5454,
      "sırada": 5455,
      "maliyetli": 5456,
      "bildirdim": 5457,
      "the": 5458,
      "gerektiği": 5459,
      "herkese": 5460,
      "imkanı": 5461,
      "projelerle": 5462,
      "çarp": 5463,
      "mikro": 5464,
      "ıslak": 5465,
      "müşteriye": 5466,
      "soğutma": 5467,
      "yolcular": 5468,
      "çantaları": 5469,
      "anlayış": 5470,
      "kusurlu": 5471,
      "bagaj": 5472,
      "hotels": 5473,
      "eksper": 5474,
      "düdük": 5475,
      "atıştırma": 5476,
      "lukoil": 5477,
      "milangaz": 5478,
      "ergonomik": 5479,
      "istinaden": 5480,
      "cay": 5481,
      "mec": 5482,
      "ndan": 5483,
      "tub": 5484,
      "##ıra": 5485,
      "##yurt": 5486,
      "##litesi": 5487,
      "defor": 5488,
      "saf": 5489,
      "şof": 5490,
      "##isinden": 5491,
      "hadi": 5492,
      "kullanıyoruz": 5493,
      "##iyorlar": 5494,
      "uydu": 5495,
      "başlığı": 5496,
      "gereği": 5497,
      "geçmeden": 5498,
      "telefondan": 5499,
      "herha": 5500,
      "##mıyorlar": 5501,
      "yazan": 5502,
      "değildi": 5503,
      "akıcı": 5504,
      "dönen": 5505,
      "gönderilmiş": 5506,
      "kredisine": 5507,
      "gördüğüm": 5508,
      "ücretin": 5509,
      "alışverişlerimde": 5510,
      "çözümleriyle": 5511,
      "beden": 5512,
      "yatmadı": 5513,
      "yolla": 5514,
      "kırıklığına": 5515,
      "cihazım": 5516,
      "makinenin": 5517,
      "oluşan": 5518,
      "hakkımı": 5519,
      "adeta": 5520,
      "gri": 5521,
      "arkadaşlar": 5522,
      "taşına": 5523,
      "memnuniyetsizliği": 5524,
      "##enizden": 5525,
      "finansbank": 5526,
      "patladı": 5527,
      "patates": 5528,
      "kanalları": 5529,
      "alliance": 5530,
      "çevrem": 5531,
      "keyf": 5532,
      "çatlak": 5533,
      "inceleme": 5534,
      "inanılmaz": 5535,
      "kampanyasından": 5536,
      "granit": 5537,
      "abartılı": 5538,
      "bkm": 5539,
      "rezalet": 5540,
      "ata": 5541,
      "eba": 5542,
      "hd": 5543,
      "he": 5544,
      "hikay": 5545,
      "##idi": 5546,
      "##tra": 5547,
      "##tok": 5548,
      "##ga": 5549,
      "##geç": 5550,
      "##71": 5551,
      "##latıcı": 5552,
      "##dahale": 5553,
      "##dığından": 5554,
      "anlamıyorum": 5555,
      "##ılmasını": 5556,
      "başk": 5557,
      "ödemem": 5558,
      "ödeyerek": 5559,
      "yargı": 5560,
      "##malısınız": 5561,
      "2014": 5562,
      "tanınır": 5563,
      "##masının": 5564,
      "mağazadan": 5565,
      "şikayetim": 5566,
      "aselsan": 5567,
      "saniye": 5568,
      "tasarımlarıyla": 5569,
      "belirsizlik": 5570,
      "görünmüyor": 5571,
      "optim": 5572,
      "ikamet": 5573,
      "çekicidir": 5574,
      "ağına": 5575,
      "masa": 5576,
      "bio": 5577,
      "camı": 5578,
      "lekeler": 5579,
      "eşimin": 5580,
      "i̇lgisizlik": 5581,
      "arandım": 5582,
      "gerekirken": 5583,
      "tuva": 5584,
      "ilişki": 5585,
      "fahiş": 5586,
      "ck": 5587,
      "cis": 5588,
      "diş": 5589,
      "ib": 5590,
      "zinc": 5591,
      "##sek": 5592,
      "##ny": 5593,
      "##ıs": 5594,
      "##66": 5595,
      "##cam": 5596,
      "##tiniz": 5597,
      "##teki": 5598,
      "##çiliği": 5599,
      "##ham": 5600,
      "##iliz": 5601,
      "birik": 5602,
      "##ımıza": 5603,
      "##istik": 5604,
      "almadım": 5605,
      "yaparak": 5606,
      "olabile": 5607,
      "##leriniz": 5608,
      "sürüş": 5609,
      "mama": 5610,
      "marath": 5611,
      "denet": 5612,
      "##eşil": 5613,
      "paranın": 5614,
      "tarihte": 5615,
      "çektim": 5616,
      "çekilmiş": 5617,
      "onlar": 5618,
      "faturayı": 5619,
      "gönderdiğim": 5620,
      "kamu": 5621,
      "şubeleri": 5622,
      "etkilidir": 5623,
      "istedi": 5624,
      "doğa": 5625,
      "beda": 5626,
      "verici": 5627,
      "##oğlu": 5628,
      "izin": 5629,
      "özellikleriyle": 5630,
      "numaramı": 5631,
      "boru": 5632,
      "malum": 5633,
      "müdahale": 5634,
      "çalışanları": 5635,
      "nereden": 5636,
      "adrese": 5637,
      "vakfı": 5638,
      "özelleştir": 5639,
      "bozuluyor": 5640,
      "kutuyu": 5641,
      "##mamıştır": 5642,
      "##ımızın": 5643,
      "##düğü": 5644,
      "lider": 5645,
      "faydalan": 5646,
      "yaygın": 5647,
      "yoluyla": 5648,
      "kavuş": 5649,
      "koşulları": 5650,
      "sofistik": 5651,
      "herhalde": 5652,
      "marathon": 5653,
      "120": 5654,
      "444": 5655,
      "ci": 5656,
      "cip": 5657,
      "pin": 5658,
      "##sen": 5659,
      "##ick": 5660,
      "##müyorum": 5661,
      "##badem": 5662,
      "##43": 5663,
      "##fresh": 5664,
      "##liğim": 5665,
      "##org": 5666,
      "##lamış": 5667,
      "dağ": 5668,
      "##onsor": 5669,
      "##melerine": 5670,
      "etmem": 5671,
      "##larınızı": 5672,
      "deniliyor": 5673,
      "##mişti": 5674,
      "açtığım": 5675,
      "kaliteye": 5676,
      "çeki": 5677,
      "ulaşama": 5678,
      "yaşıyoruz": 5679,
      "ödemek": 5680,
      "siteye": 5681,
      "##mamı": 5682,
      "mağdurum": 5683,
      "sponsor": 5684,
      "merkezinde": 5685,
      "yapacağız": 5686,
      "projeler": 5687,
      "##layabiliyor": 5688,
      "superfresh": 5689,
      "bezi": 5690,
      "tencer": 5691,
      "ettirdim": 5692,
      "çizik": 5693,
      "hijyenik": 5694,
      "kargolanmadı": 5695,
      "acıbadem": 5696,
      "olanakları": 5697,
      "yaptığınız": 5698,
      "mater": 5699,
      "kolaylaştırıyor": 5700,
      "galaxy": 5701,
      "düdüklü": 5702,
      "tuborg": 5703,
      "deforme": 5704,
      "zincir": 5705,
      "sofistike": 5706,
      "bol": 5707,
      "dür": 5708,
      "gb": 5709,
      "lev": 5710,
      "rol": 5711,
      "##alış": 5712,
      "##oy": 5713,
      "##95": 5714,
      "##holding": 5715,
      "##83": 5716,
      "##ess": 5717,
      "çey": 5718,
      "##ilme": 5719,
      "kaf": 5720,
      "kayıp": 5721,
      "bulan": 5722,
      "şan": 5723,
      "##istan": 5724,
      "##isiyle": 5725,
      "aldığıma": 5726,
      "yapmadan": 5727,
      "yapmadılar": 5728,
      "kullanıl": 5729,
      "kullanmış": 5730,
      "ayının": 5731,
      "vermediler": 5732,
      "sürücü": 5733,
      "##kalitesi": 5734,
      "artı": 5735,
      "bence": 5736,
      "başta": 5737,
      "bilek": 5738,
      "ulaşılmıyor": 5739,
      "yüzüğ": 5740,
      "##linin": 5741,
      "turnu": 5742,
      "gitmek": 5743,
      "attığım": 5744,
      "adresi": 5745,
      "girmiyor": 5746,
      "markasına": 5747,
      "avuk": 5748,
      "erim": 5749,
      "sıv": 5750,
      "onlinealış": 5751,
      "belirsiz": 5752,
      "hakkı": 5753,
      "kupon": 5754,
      "modelleri": 5755,
      "donuyor": 5756,
      "çalışanı": 5757,
      "ağust": 5758,
      "televizyonum": 5759,
      "maliyetleri": 5760,
      "krizi": 5761,
      "hastane": 5762,
      "onaylan": 5763,
      "boşa": 5764,
      "i̇lgili": 5765,
      "vermiştim": 5766,
      "kabar": 5767,
      "##şamba": 5768,
      "rekabetçidir": 5769,
      "oraya": 5770,
      "verdikleri": 5771,
      "çarşamba": 5772,
      "yakışmadı": 5773,
      "##medikleri": 5774,
      "faydalı": 5775,
      "nakit": 5776,
      "esenyurt": 5777,
      "stratejileri": 5778,
      "zorunlu": 5779,
      "kıyafet": 5780,
      "bisküvi": 5781,
      "bedava": 5782,
      "onlinealışveriş": 5783,
      "400": 5784,
      "ajan": 5785,
      "gür": 5786,
      "##dikten": 5787,
      "##esiz": 5788,
      "##esiyle": 5789,
      "##tip": 5790,
      "etmedi": 5791,
      "aylardır": 5792,
      "##lerinizi": 5793,
      "arıtma": 5794,
      "sorunum": 5795,
      "karşılama": 5796,
      "aksam": 5797,
      "durumunda": 5798,
      "görüyorum": 5799,
      "kenar": 5800,
      "haksızlık": 5801,
      "##tığını": 5802,
      "bıraktım": 5803,
      "işlemlerini": 5804,
      "düzenlemesi": 5805,
      "biten": 5806,
      "bitiyor": 5807,
      "##olux": 5808,
      "filmin": 5809,
      "isten": 5810,
      "belge": 5811,
      "koleksiyonu": 5812,
      "hazırlan": 5813,
      "kayıtlı": 5814,
      "uğrat": 5815,
      "oturma": 5816,
      "##alım": 5817,
      "gittiğimizde": 5818,
      "lcw": 5819,
      "kesintileri": 5820,
      "taahhü": 5821,
      "dinamik": 5822,
      "hepsijet": 5823,
      "i̇sti": 5824,
      "ayıplı": 5825,
      "altyapısı": 5826,
      "prestijlidir": 5827,
      "pişirme": 5828,
      "kısım": 5829,
      "vites": 5830,
      "inovasyon": 5831,
      "civarında": 5832,
      "şampiyonlar": 5833,
      "şenpiliç": 5834,
      "sonucunda": 5835,
      "havayolları": 5836,
      "electrolux": 5837,
      "mecbur": 5838,
      "tuvalet": 5839,
      "materyal": 5840,
      "36": 5841,
      "5g": 5842,
      "ateş": 5843,
      "cap": 5844,
      "ir": 5845,
      "ilç": 5846,
      "ray": 5847,
      "yeşil": 5848,
      "##dora": 5849,
      "##sinden": 5850,
      "##luluğu": 5851,
      "##zen": 5852,
      "##feri": 5853,
      "##park": 5854,
      "##çı": 5855,
      "birbir": 5856,
      "birisi": 5857,
      "dediğimde": 5858,
      "bulamıyor": 5859,
      "##yağı": 5860,
      "yapmama": 5861,
      "##ayla": 5862,
      "vermeden": 5863,
      "güne": 5864,
      "teda": 5865,
      "##stan": 5866,
      "gelme": 5867,
      "gelmeden": 5868,
      "maili": 5869,
      "koz": 5870,
      "koli": 5871,
      "yanıyor": 5872,
      "##lül": 5873,
      "yüzde": 5874,
      "geldiler": 5875,
      "yılda": 5876,
      "etkiliyor": 5877,
      "kırmızı": 5878,
      "uygulamasından": 5879,
      "azure": 5880,
      "çözümü": 5881,
      "biletleri": 5882,
      "işlemlerimi": 5883,
      "bilgilerimi": 5884,
      "diyorsunuz": 5885,
      "bunlar": 5886,
      "paketin": 5887,
      "power": 5888,
      "sahibi": 5889,
      "tutan": 5890,
      "cihazın": 5891,
      "yayınları": 5892,
      "##örü": 5893,
      "kapatıp": 5894,
      "resmi": 5895,
      "elbis": 5896,
      "ağrı": 5897,
      "pandora": 5898,
      "atıl": 5899,
      "işletim": 5900,
      "memnuniyetini": 5901,
      "oturuyorum": 5902,
      "elimize": 5903,
      "yasağı": 5904,
      "kendini": 5905,
      "telefonumda": 5906,
      "virüsü": 5907,
      "etkinlikleri": 5908,
      "çağırdık": 5909,
      "ayrıntı": 5910,
      "geliştirme": 5911,
      "kışın": 5912,
      "defolu": 5913,
      "anlayışı": 5914,
      "operatör": 5915,
      "yürü": 5916,
      "aksaklıklar": 5917,
      "sivil": 5918,
      "vazgeç": 5919,
      "sıvı": 5920,
      "ah": 5921,
      "bam": 5922,
      "bilir": 5923,
      "biber": 5924,
      "fan": 5925,
      "ibar": 5926,
      "qu": 5927,
      "reh": 5928,
      "tel": 5929,
      "tura": 5930,
      "##ron": 5931,
      "##rem": 5932,
      "##nim": 5933,
      "##ze": 5934,
      "##49": 5935,
      "##cord": 5936,
      "##kek": 5937,
      "##tasında": 5938,
      "##lav": 5939,
      "##eks": 5940,
      "##dig": 5941,
      "kaşık": 5942,
      "##yacak": 5943,
      "almadan": 5944,
      "sunuluyor": 5945,
      "hizmetlerinden": 5946,
      "gelmesini": 5947,
      "karşılamak": 5948,
      "saatin": 5949,
      "fatur": 5950,
      "dönemi": 5951,
      "destekle": 5952,
      "eleman": 5953,
      "güncellemesi": 5954,
      "##mamız": 5955,
      "içeriklerle": 5956,
      "içerikleriyle": 5957,
      "karttan": 5958,
      "platformda": 5959,
      "##türk": 5960,
      "beklediğim": 5961,
      "üstünde": 5962,
      "paramız": 5963,
      "yenilikçidir": 5964,
      "vaatlerde": 5965,
      "koleksiyonuna": 5966,
      "öğrenmek": 5967,
      "hediy": 5968,
      "harika": 5969,
      "anlaşma": 5970,
      "ederek": 5971,
      "sinbo": 5972,
      "üyeliği": 5973,
      "komp": 5974,
      "olunca": 5975,
      "yapılacağı": 5976,
      "meydana": 5977,
      "çağırdım": 5978,
      "personelin": 5979,
      "olmayabiliyor": 5980,
      "hambur": 5981,
      "dökül": 5982,
      "europa": 5983,
      "dengeli": 5984,
      "portföyüne": 5985,
      "eylül": 5986,
      "risk": 5987,
      "özgü": 5988,
      "cayma": 5989,
      "43": 5990,
      "65": 5991,
      "kına": 5992,
      "niyet": 5993,
      "sn": 5994,
      "usta": 5995,
      "yv": 5996,
      "##törün": 5997,
      "##ffe": 5998,
      "##pları": 5999,
      "##25": 6000,
      "##77": 6001,
      "##letim": 6002,
      "##ons": 6003,
      "üs": 6004,
      "birim": 6005,
      "##iyer": 6006,
      "gener": 6007,
      "gelmeye": 6008,
      "##cafe": 6009,
      "tava": 6010,
      "öner": 6011,
      "uyumlu": 6012,
      "açıldı": 6013,
      "varmış": 6014,
      "servisten": 6015,
      "duruma": 6016,
      "evlen": 6017,
      "çekip": 6018,
      "ulaşamıyoruz": 6019,
      "faturalar": 6020,
      "yüzeysel": 6021,
      "##tanın": 6022,
      "hatır": 6023,
      "markalara": 6024,
      "kurt": 6025,
      "ürünlere": 6026,
      "üzerindeki": 6027,
      "giriyor": 6028,
      "verilmesi": 6029,
      "işlemini": 6030,
      "yönet": 6031,
      "erkek": 6032,
      "kayseri": 6033,
      "reklamlarında": 6034,
      "mua": 6035,
      "##muşlar": 6036,
      "belirgin": 6037,
      "parçalar": 6038,
      "kimlik": 6039,
      "yelpazeye": 6040,
      "değiştirdim": 6041,
      "öğret": 6042,
      "yemeksepeti": 6043,
      "hesabı": 6044,
      "yapacağım": 6045,
      "martta": 6046,
      "şubeden": 6047,
      "kartımı": 6048,
      "hediyesi": 6049,
      "ağz": 6050,
      "i̇çinden": 6051,
      "kaçır": 6052,
      "bimeks": 6053,
      "veriyorlar": 6054,
      "tavır": 6055,
      "pişmanlık": 6056,
      "evimde": 6057,
      "silah": 6058,
      "sırf": 6059,
      "kesintisiz": 6060,
      "görüştüğ": 6061,
      "tiktok": 6062,
      "lav": 6063,
      "bıktım": 6064,
      "umursa": 6065,
      "ucuz": 6066,
      "i̇lhan": 6067,
      "gişe": 6068,
      "toki̇": 6069,
      "kullanıcısıyım": 6070,
      "avukat": 6071,
      "ajansı": 6072,
      "ayrıntılı": 6073,
      "33": 6074,
      "600": 6075,
      "ax": 6076,
      "aws": 6077,
      "flo": 6078,
      "if": 6079,
      "nı": 6080,
      "##ova": 6081,
      "##pr": 6082,
      "##pedia": 6083,
      "##88": 6084,
      "##mail": 6085,
      "##irken": 6086,
      "üt": 6087,
      "##işehir": 6088,
      "dem": 6089,
      "inter": 6090,
      "yapama": 6091,
      "##ağın": 6092,
      "##ayan": 6093,
      "tali": 6094,
      "teker": 6095,
      "yoktur": 6096,
      "güya": 6097,
      "ondan": 6098,
      "onlarda": 6099,
      "saatlerce": 6100,
      "##ceklerini": 6101,
      "iadem": 6102,
      "faturalı": 6103,
      "göndermiyor": 6104,
      "turu": 6105,
      "##luğ": 6106,
      "yapılmaması": 6107,
      "yapılandırma": 6108,
      "##lerime": 6109,
      "bear": 6110,
      "bein": 6111,
      "istiyorlar": 6112,
      "kendisi": 6113,
      "parçaları": 6114,
      "yenilikleri": 6115,
      "sens": 6116,
      "hakkınız": 6117,
      "katkı": 6118,
      "##larımızı": 6119,
      "kuyum": 6120,
      "##lığa": 6121,
      "robo": 6122,
      "rocher": 6123,
      "belirtilen": 6124,
      "götürdüğüm": 6125,
      "yazısı": 6126,
      "expedia": 6127,
      "bari": 6128,
      "maddi": 6129,
      "geçerli": 6130,
      "adıma": 6131,
      "karışık": 6132,
      "tarifeleri": 6133,
      "promosyonları": 6134,
      "öncesinde": 6135,
      "alakasız": 6136,
      "discord": 6137,
      "ferah": 6138,
      "tabii": 6139,
      "nescafe": 6140,
      "flormar": 6141,
      "kilit": 6142,
      "danışman": 6143,
      "##ekkür": 6144,
      "kosko": 6145,
      "turnuva": 6146,
      "ağustos": 6147,
      "kozm": 6148,
      "yves": 6149,
      "4k": 6150,
      "cil": 6151,
      "heye": 6152,
      "ima": 6153,
      "icra": 6154,
      "ner": 6155,
      "pull": 6156,
      "sw": 6157,
      "tey": 6158,
      "vf": 6159,
      "##ysa": 6160,
      "##hora": 6161,
      "##jisi": 6162,
      "##ire": 6163,
      "##undig": 6164,
      "##eka": 6165,
      "alına": 6166,
      "##ipo": 6167,
      "aradılar": 6168,
      "sürüyor": 6169,
      "siparişte": 6170,
      "siparişini": 6171,
      "başı": 6172,
      "##menin": 6173,
      "telefonlarıyla": 6174,
      "varken": 6175,
      "durmuyor": 6176,
      "aldığımdan": 6177,
      "olduğuna": 6178,
      "zamana": 6179,
      "değişmesi": 6180,
      "yerinde": 6181,
      "yarış": 6182,
      "durumun": 6183,
      "ücretler": 6184,
      "şuben": 6185,
      "##yanın": 6186,
      "firmasına": 6187,
      "taraflı": 6188,
      "bec": 6189,
      "verilmesini": 6190,
      "biletin": 6191,
      "##ılıp": 6192,
      "avru": 6193,
      "##ppo": 6194,
      "erpiliç": 6195,
      "alamıyoruz": 6196,
      "deneyimli": 6197,
      "i̇adesini": 6198,
      "kayb": 6199,
      "izlerken": 6200,
      "kendileri": 6201,
      "acen": 6202,
      "yenilikler": 6203,
      "ikisi": 6204,
      "kolaylığı": 6205,
      "tüketimi": 6206,
      "gazlı": 6207,
      "grundig": 6208,
      "senelik": 6209,
      "öğrenc": 6210,
      "i̇çeri": 6211,
      "üretici": 6212,
      "söyleniyor": 6213,
      "alıyorlar": 6214,
      "belirtti": 6215,
      "metal": 6216,
      "daire": 6217,
      "telefonumun": 6218,
      "tatlıları": 6219,
      "borcumu": 6220,
      "alamadık": 6221,
      "eksiklikler": 6222,
      "sephora": 6223,
      "##tıldı": 6224,
      "defasında": 6225,
      "teşekkür": 6226,
      "sabit": 6227,
      "horoz": 6228,
      "kullanıyordum": 6229,
      "geçiştir": 6230,
      "ilaç": 6231,
      "kaşar": 6232,
      "endişe": 6233,
      "kozmetik": 6234,
      "heyecan": 6235,
      "vfs": 6236,
      "avrupa": 6237,
      "af": 6238,
      "cin": 6239,
      "iler": 6240,
      "kg": 6241,
      "lex": 6242,
      "ote": 6243,
      "oppo": 6244,
      "peki": 6245,
      "##dat": 6246,
      "##don": 6247,
      "##yü": 6248,
      "##ydi": 6249,
      "##tura": 6250,
      "##hipo": 6251,
      "##leye": 6252,
      "##izden": 6253,
      "çı": 6254,
      "##rah": 6255,
      "##uru": 6256,
      "sunny": 6257,
      "##emiş": 6258,
      "yaptığımda": 6259,
      "##deniz": 6260,
      "i̇tiraz": 6261,
      "kullandık": 6262,
      "aylarında": 6263,
      "vermeye": 6264,
      "tea": 6265,
      "denetim": 6266,
      "##tırdım": 6267,
      "güc": 6268,
      "##omet": 6269,
      "diğ": 6270,
      "çözü": 6271,
      "çekti": 6272,
      "ödedik": 6273,
      "yerlere": 6274,
      "yaramıyor": 6275,
      "göndermişler": 6276,
      "satıyor": 6277,
      "sıklıkla": 6278,
      "destekli": 6279,
      "görmek": 6280,
      "##cağın": 6281,
      "bulunabilir": 6282,
      "##tığınız": 6283,
      "##tıkları": 6284,
      "bağır": 6285,
      "verilmemiş": 6286,
      "ortamı": 6287,
      "kişinin": 6288,
      "şikayetçi": 6289,
      "coffe": 6290,
      "sahte": 6291,
      "kaybı": 6292,
      "firmayı": 6293,
      "makineyi": 6294,
      "bağlanamıyorum": 6295,
      "hepsini": 6296,
      "bekledik": 6297,
      "istik": 6298,
      "insanlara": 6299,
      "doldu": 6300,
      "##lığın": 6301,
      "yaşayabilir": 6302,
      "müra": 6303,
      "liraya": 6304,
      "i̇çinde": 6305,
      "şişeleri": 6306,
      "süpürgem": 6307,
      "haziranda": 6308,
      "##mezse": 6309,
      "esnasında": 6310,
      "##ımızda": 6311,
      "sorunlarımı": 6312,
      "marshal": 6313,
      "düzeltilmesini": 6314,
      "0850": 6315,
      "planları": 6316,
      "kulaklıkları": 6317,
      "çatal": 6318,
      "yağlı": 6319,
      "üzeri": 6320,
      "sayac": 6321,
      "fişi": 6322,
      "ulaşılama": 6323,
      "bütçelere": 6324,
      "aparatı": 6325,
      "gizlilik": 6326,
      "dilekçe": 6327,
      "##paşa": 6328,
      "morhipo": 6329,
      "çeyiz": 6330,
      "sivilce": 6331,
      "lexus": 6332,
      "47": 6333,
      "ame": 6334,
      "cen": 6335,
      "jag": 6336,
      "payı": 6337,
      "##edaş": 6338,
      "##61": 6339,
      "##93": 6340,
      "##com": 6341,
      "##tınız": 6342,
      "##pg": 6343,
      "##21": 6344,
      "##23": 6345,
      "##are": 6346,
      "##ari": 6347,
      "##şembe": 6348,
      "##daşı": 6349,
      "sapan": 6350,
      "gene": 6351,
      "şaka": 6352,
      "incel": 6353,
      "ödü": 6354,
      "vererek": 6355,
      "sonuna": 6356,
      "##sındaki": 6357,
      "malı": 6358,
      "başıma": 6359,
      "ekte": 6360,
      "sağla": 6361,
      "##lenmiyor": 6362,
      "değişen": 6363,
      "akü": 6364,
      "gönderilen": 6365,
      "gördük": 6366,
      "zorlu": 6367,
      "istemediğim": 6368,
      "gereksiz": 6369,
      "stre": 6370,
      "paketini": 6371,
      "sesler": 6372,
      "tekrardan": 6373,
      "prim": 6374,
      "belirtiyor": 6375,
      "hesabım": 6376,
      "donma": 6377,
      "alanları": 6378,
      "ürünümün": 6379,
      "anlaşmalı": 6380,
      "eşime": 6381,
      "tri": 6382,
      "ilgilenen": 6383,
      "kapandı": 6384,
      "güçlüdür": 6385,
      "döneminde": 6386,
      "atmos": 6387,
      "yayıncılar": 6388,
      "maçları": 6389,
      "sayısı": 6390,
      "bulabilir": 6391,
      "sarar": 6392,
      "ayrıl": 6393,
      "misaf": 6394,
      "yaklaşım": 6395,
      "dezavantajları": 6396,
      "yazarları": 6397,
      "sports": 6398,
      "yiyecek": 6399,
      "ticaret": 6400,
      "sergiliyor": 6401,
      "interneti": 6402,
      "biberon": 6403,
      "hamburger": 6404,
      "öğretmen": 6405,
      "jaguar": 6406,
      "ces": 6407,
      "darb": 6408,
      "hos": 6409,
      "kest": 6410,
      "lü": 6411,
      "van": 6412,
      "##eğini": 6413,
      "##siyim": 6414,
      "##io": 6415,
      "##og": 6416,
      "##bası": 6417,
      "##41": 6418,
      "##lal": 6419,
      "çam": 6420,
      "birini": 6421,
      "yapabile": 6422,
      "ani": 6423,
      "##ayım": 6424,
      "##danel": 6425,
      "hizmetin": 6426,
      "soran": 6427,
      "##caat": 6428,
      "new": 6429,
      "koyu": 6430,
      "önünde": 6431,
      "uyar": 6432,
      "##mıştı": 6433,
      "##mediğini": 6434,
      "##lıyorum": 6435,
      "perşembe": 6436,
      "telefonlar": 6437,
      "diesel": 6438,
      "##abil": 6439,
      "zamandır": 6440,
      "zamansız": 6441,
      "##diğimizde": 6442,
      "gönderin": 6443,
      "gönderme": 6444,
      "yüzük": 6445,
      "##mesinden": 6446,
      "bakıyorum": 6447,
      "mersin": 6448,
      "getirdi": 6449,
      "işlemler": 6450,
      "yönt": 6451,
      "kişiye": 6452,
      "firmalar": 6453,
      "##eceklerini": 6454,
      "bağlanmıyor": 6455,
      "numarayı": 6456,
      "ürününü": 6457,
      "düşünmüyorum": 6458,
      "ambalajlarla": 6459,
      "alıyorsunuz": 6460,
      "pepper": 6461,
      "yapmışlar": 6462,
      "yataklar": 6463,
      "organik": 6464,
      "##melisiniz": 6465,
      "gönderiyor": 6466,
      "dardanel": 6467,
      "plakalı": 6468,
      "che": 6469,
      "yarısı": 6470,
      "kağıdı": 6471,
      "gerçekleşmedi": 6472,
      "tehlik": 6473,
      "##ılacak": 6474,
      "toplamda": 6475,
      "amaçlı": 6476,
      "bıçak": 6477,
      "ibm": 6478,
      "materyalleri": 6479,
      "komple": 6480,
      "kuyumculuk": 6481,
      "koskoca": 6482,
      "diğeri": 6483,
      "müracaat": 6484,
      "marshall": 6485,
      "ameliy": 6486,
      "41": 6487,
      "biç": 6488,
      "gram": 6489,
      "pn": 6490,
      "##dök": 6491,
      "##luyor": 6492,
      "##yur": 6493,
      "##68": 6494,
      "##98": 6495,
      "##55": 6496,
      "##anıza": 6497,
      "##leyip": 6498,
      "##madığım": 6499,
      "##esindeki": 6500,
      "kalem": 6501,
      "##asa": 6502,
      "##iyat": 6503,
      "##ite": 6504,
      "##isöz": 6505,
      "ös": 6506,
      "aramak": 6507,
      "gününe": 6508,
      "##uzu": 6509,
      "sorunların": 6510,
      "##rop": 6511,
      "işin": 6512,
      "vardır": 6513,
      "ortop": 6514,
      "olduğunuz": 6515,
      "evi": 6516,
      "onların": 6517,
      "##use": 6518,
      "performansını": 6519,
      "##mesinin": 6520,
      "##memiz": 6521,
      "bakkal": 6522,
      "giremiyorum": 6523,
      "##lerimin": 6524,
      "tarafsız": 6525,
      "işlemci": 6526,
      "ekranında": 6527,
      "bilgisini": 6528,
      "platformlar": 6529,
      "tasarımlarla": 6530,
      "burs": 6531,
      "uçmuş": 6532,
      "oluştura": 6533,
      "##ooter": 6534,
      "##ooth": 6535,
      "##larımda": 6536,
      "güvenilirdir": 6537,
      "kolaylık": 6538,
      "hesaba": 6539,
      "##lığım": 6540,
      "müh": 6541,
      "müdürü": 6542,
      "uzaktan": 6543,
      "televizyonu": 6544,
      "ederken": 6545,
      "başarısız": 6546,
      "gelişme": 6547,
      "soğu": 6548,
      "ilgilenmiyor": 6549,
      "almayı": 6550,
      "yasak": 6551,
      "aracıma": 6552,
      "ailem": 6553,
      "bayağı": 6554,
      "pazarında": 6555,
      "etkinlikler": 6556,
      "deterjanı": 6557,
      "geleceği": 6558,
      "##anızdan": 6559,
      "sektörün": 6560,
      "teşh": 6561,
      "ekşisöz": 6562,
      "##pital": 6563,
      "alternatifler": 6564,
      "edileceği": 6565,
      "yırtık": 6566,
      "akadem": 6567,
      "##saydım": 6568,
      "demirdök": 6569,
      "scooter": 6570,
      "ısıtma": 6571,
      "taşınabilir": 6572,
      "cilt": 6573,
      "hospital": 6574,
      "ekşisözlük": 6575,
      "demirdöküm": 6576,
      "cız": 6577,
      "hol": 6578,
      "kana": 6579,
      "lip": 6580,
      "nden": 6581,
      "sk": 6582,
      "som": 6583,
      "tus": 6584,
      "vile": 6585,
      "vize": 6586,
      "wi": 6587,
      "##rol": 6588,
      "##eceğini": 6589,
      "##iği": 6590,
      "##ney": 6591,
      "##yet": 6592,
      "##kosu": 6593,
      "##gk": 6594,
      "##gam": 6595,
      "##virüs": 6596,
      "##24": 6597,
      "##28": 6598,
      "##int": 6599,
      "##aken": 6600,
      "##ilmeli": 6601,
      "yah": 6602,
      "ürünle": 6603,
      "##larıma": 6604,
      "şebek": 6605,
      "inş": 6606,
      "intel": 6607,
      "##aming": 6608,
      "gelmemiş": 6609,
      "gelmemesi": 6610,
      "nev": 6611,
      "sorunla": 6612,
      "sorunumu": 6613,
      "fiyata": 6614,
      "fiyatlandır": 6615,
      "##larındaki": 6616,
      "sonradan": 6617,
      "çıkması": 6618,
      "##lenen": 6619,
      "##lenmesi": 6620,
      "yazılı": 6621,
      "karşılıyor": 6622,
      "yanı": 6623,
      "gönül": 6624,
      "yenisini": 6625,
      "suy": 6626,
      "faturaları": 6627,
      "özgün": 6628,
      "turbo": 6629,
      "alışverişlerimi": 6630,
      "##mesin": 6631,
      "##memize": 6632,
      "konuyu": 6633,
      "veriyorum": 6634,
      "şikayetleri": 6635,
      "alabile": 6636,
      "platformları": 6637,
      "bilgisayarı": 6638,
      "makinesinin": 6639,
      "kanun": 6640,
      "süreçlerinde": 6641,
      "modelleriyle": 6642,
      "borusu": 6643,
      "sıkıntılar": 6644,
      "üniversite": 6645,
      "koleksiyonlar": 6646,
      "yaptıktan": 6647,
      "ellerinde": 6648,
      "tutarında": 6649,
      "kaçak": 6650,
      "üyesiyim": 6651,
      "edildiği": 6652,
      "edildiğini": 6653,
      "salonda": 6654,
      "desen": 6655,
      "yaratabilir": 6656,
      "mantık": 6657,
      "yapmayı": 6658,
      "##imizin": 6659,
      "balık": 6660,
      "yağm": 6661,
      "parçanın": 6662,
      "##tiğimiz": 6663,
      "bulabiliyor": 6664,
      "raporları": 6665,
      "açmıyorlar": 6666,
      "sayfasından": 6667,
      "kireç": 6668,
      "disney": 6669,
      "yaşatabiliyor": 6670,
      "eskişehir": 6671,
      "örneği": 6672,
      "edeceklerini": 6673,
      "titre": 6674,
      "ultima": 6675,
      "pamukkale": 6676,
      "bluet": 6677,
      "başvuracağım": 6678,
      "apart": 6679,
      "akıtıyor": 6680,
      "acente": 6681,
      "pnr": 6682,
      "akademik": 6683,
      "cızır": 6684,
      "tusaş": 6685,
      "vileda": 6686,
      "ultimate": 6687,
      "alarak": 6688,
      "alay": 6689,
      "bon": 6690,
      "bip": 6691,
      "dük": 6692,
      "neye": 6693,
      "ww": 6694,
      "zehir": 6695,
      "zeka": 6696,
      "##aliyet": 6697,
      "##siyle": 6698,
      "##ymış": 6699,
      "##bab": 6700,
      "##cle": 6701,
      "##gn": 6702,
      "##van": 6703,
      "##şimi": 6704,
      "##ladığımda": 6705,
      "##atomi": 6706,
      "##imize": 6707,
      "çeş": 6708,
      "##iyiz": 6709,
      "##ito": 6710,
      "sunucu": 6711,
      "##emesi": 6712,
      "anlama": 6713,
      "teli": 6714,
      "geldiğimde": 6715,
      "kıv": 6716,
      "olmam": 6717,
      "kapas": 6718,
      "yüksekli": 6719,
      "geçtikten": 6720,
      "##yasal": 6721,
      "çöze": 6722,
      "yaşamadım": 6723,
      "saatten": 6724,
      "zamanla": 6725,
      "dönüyor": 6726,
      "takib": 6727,
      "gitmiyor": 6728,
      "bakın": 6729,
      "zorlan": 6730,
      "sitesine": 6731,
      "tarafı": 6732,
      "mağazada": 6733,
      "reng": 6734,
      "faaliyet": 6735,
      "kimyasal": 6736,
      "gittiler": 6737,
      "duvar": 6738,
      "çalışanların": 6739,
      "havali": 6740,
      "havale": 6741,
      "##loud": 6742,
      "şarjı": 6743,
      "okuma": 6744,
      "atıp": 6745,
      "süpürgeyi": 6746,
      "izleye": 6747,
      "mekaniz": 6748,
      "porsiyon": 6749,
      "yatakları": 6750,
      "kullandığımız": 6751,
      "görüntüsü": 6752,
      "##mediğimiz": 6753,
      "yapmayın": 6754,
      "kiracı": 6755,
      "malzemeleri": 6756,
      "fiber": 6757,
      "##meyecekseniz": 6758,
      "petlas": 6759,
      "dedikleri": 6760,
      "salgını": 6761,
      "fiyaskosu": 6762,
      "beklentileri": 6763,
      "erişimini": 6764,
      "ceza": 6765,
      "i̇kinci": 6766,
      "bloke": 6767,
      "damla": 6768,
      "mahvet": 6769,
      "ısrarla": 6770,
      "vadeli": 6771,
      "heyeti": 6772,
      "rehber": 6773,
      "misafir": 6774,
      "ösym": 6775,
      "lipton": 6776,
      "yağmur": 6777,
      "bluetooth": 6778,
      "37": 6779,
      "alar": 6780,
      "cham": 6781,
      "fe": 6782,
      "lis": 6783,
      "pip": 6784,
      "pır": 6785,
      "sinde": 6786,
      "utan": 6787,
      "ven": 6788,
      "##he": 6789,
      "##gal": 6790,
      "##anızı": 6791,
      "##çev": 6792,
      "##iry": 6793,
      "##imden": 6794,
      "çi": 6795,
      "bira": 6796,
      "yabancı": 6797,
      "##iyo": 6798,
      "##tıp": 6799,
      "şüp": 6800,
      "aldığı": 6801,
      "yapamıyor": 6802,
      "vermesi": 6803,
      "müşterisiyim": 6804,
      "##arama": 6805,
      "##lıkta": 6806,
      "başlıyor": 6807,
      "##uter": 6808,
      "tekzen": 6809,
      "işleme": 6810,
      "##ktrak": 6811,
      "ortasında": 6812,
      "çekme": 6813,
      "saatler": 6814,
      "saatlerinde": 6815,
      "türktrak": 6816,
      "özür": 6817,
      "takılı": 6818,
      "beklerken": 6819,
      "güvendiğim": 6820,
      "karşılaştırma": 6821,
      "##vago": 6822,
      "memnunum": 6823,
      "##bilmek": 6824,
      "yapısı": 6825,
      "2013": 6826,
      "kök": 6827,
      "girdi": 6828,
      "##layarak": 6829,
      "mağazalarda": 6830,
      "numaraları": 6831,
      "##ppe": 6832,
      "veriyoruz": 6833,
      "bunları": 6834,
      "bitir": 6835,
      "muha": 6836,
      "bayiye": 6837,
      "kartından": 6838,
      "almıştık": 6839,
      "yapıyoruz": 6840,
      "arızalanıyor": 6841,
      "yetkilileri": 6842,
      "değiştirme": 6843,
      "ilettim": 6844,
      "pişik": 6845,
      "düşündüm": 6846,
      "kapattım": 6847,
      "seferde": 6848,
      "kutunun": 6849,
      "belirttiler": 6850,
      "götürdük": 6851,
      "memnuniyetimi": 6852,
      "kamerası": 6853,
      "tahmini": 6854,
      "keyfi": 6855,
      "çizgi": 6856,
      "civil": 6857,
      "doldurdum": 6858,
      "##gorta": 6859,
      "görevlisi": 6860,
      "petek": 6861,
      "stratejisi": 6862,
      "i̇şlemi": 6863,
      "shoppe": 6864,
      "promosyonlar": 6865,
      "##mayacaklarını": 6866,
      "hortum": 6867,
      "hisset": 6868,
      "poliçesi": 6869,
      "klavyeleri": 6870,
      "aksigorta": 6871,
      "beklemekte": 6872,
      "belgesel": 6873,
      "engelli": 6874,
      "sızdırıyor": 6875,
      "aracılığıyla": 6876,
      "kesiyor": 6877,
      "çerçev": 6878,
      "yamuk": 6879,
      "çanak": 6880,
      "##ation": 6881,
      "cevabı": 6882,
      "başkasına": 6883,
      "cips": 6884,
      "i̇stiyorum": 6885,
      "ödüyorum": 6886,
      "trivago": 6887,
      "holland": 6888,
      "türktraktör": 6889,
      "duş": 6890,
      "dekon": 6891,
      "eft": 6892,
      "gib": 6893,
      "miyim": 6894,
      "zah": 6895,
      "##mara": 6896,
      "##zan": 6897,
      "##bey": 6898,
      "##46": 6899,
      "##gisel": 6900,
      "##pf": 6901,
      "##pası": 6902,
      "##29": 6903,
      "##mamaktadır": 6904,
      "##çası": 6905,
      "dahili": 6906,
      "çile": 6907,
      "##lanması": 6908,
      "şans": 6909,
      "##tive": 6910,
      "##tibat": 6911,
      "##ılmadı": 6912,
      "##tep": 6913,
      "aradı": 6914,
      "##uyoruz": 6915,
      "##iyoruz": 6916,
      "gündüz": 6917,
      "tela": 6918,
      "kargoyla": 6919,
      "bildiğiniz": 6920,
      "##tırıcı": 6921,
      "kapıda": 6922,
      "tarihe": 6923,
      "tarihleri": 6924,
      "çıkart": 6925,
      "##lenir": 6926,
      "saatlerde": 6927,
      "garip": 6928,
      "faturada": 6929,
      "döndü": 6930,
      "göndermediler": 6931,
      "sıkış": 6932,
      "hatayı": 6933,
      "görüyor": 6934,
      "markadan": 6935,
      "##mayabilir": 6936,
      "kuruş": 6937,
      "kırıl": 6938,
      "uygulamalar": 6939,
      "kesik": 6940,
      "geleme": 6941,
      "gerektir": 6942,
      "gerekçe": 6943,
      "konularında": 6944,
      "doğtaş": 6945,
      "##tığında": 6946,
      "sizde": 6947,
      "ertel": 6948,
      "paketler": 6949,
      "oyunlarında": 6950,
      "ödemeye": 6951,
      "başlayan": 6952,
      "mesafe": 6953,
      "yetkililer": 6954,
      "yetkililere": 6955,
      "programlarla": 6956,
      "dolum": 6957,
      "millet": 6958,
      "enerjik": 6959,
      "kapatmak": 6960,
      "olursa": 6961,
      "medicana": 6962,
      "standartlardan": 6963,
      "i̇çer": 6964,
      "stady": 6965,
      "taşıma": 6966,
      "ayakkab": 6967,
      "numarasıyla": 6968,
      "mondi": 6969,
      "herkesin": 6970,
      "beğeniler": 6971,
      "mobilyaları": 6972,
      "maçlar": 6973,
      "bulabiliyorum": 6974,
      "halbuk": 6975,
      "##lumb": 6976,
      "kitlesi": 6977,
      "şartları": 6978,
      "kasada": 6979,
      "koptu": 6980,
      "yayını": 6981,
      "ısınıyor": 6982,
      "saygısızlığı": 6983,
      "##pions": 6984,
      "boyut": 6985,
      "operatörün": 6986,
      "şifremi": 6987,
      "etiketleri": 6988,
      "yumuş": 6989,
      "depoz": 6990,
      "kayboldu": 6991,
      "sezgisel": 6992,
      "sinemaya": 6993,
      "grup": 6994,
      "oynayabilir": 6995,
      "işletme": 6996,
      "düzeyde": 6997,
      "ekspert": 6998,
      "optimum": 6999,
      "bambi": 7000,
      "cesur": 7001,
      "sektöründe": 7002,
      "fiyatlandırması": 7003,
      "alarm": 7004,
      "champions": 7005,
      "halbuki": 7006,
      "350": 7007,
      "ast": 7008,
      "hüs": 7009,
      "isın": 7010,
      "jatomi": 7011,
      "kime": 7012,
      "ları": 7013,
      "pc": 7014,
      "ru": 7015,
      "vb": 7016,
      "val": 7017,
      "##ali": 7018,
      "##yaz": 7019,
      "##cik": 7020,
      "##tları": 7021,
      "##vo": 7022,
      "##79": 7023,
      "##şen": 7024,
      "##ladığım": 7025,
      "##ladık": 7026,
      "çak": 7027,
      "##ragaz": 7028,
      "ürünlerine": 7029,
      "karan": 7030,
      "inde": 7031,
      "etmesi": 7032,
      "kullanmama": 7033,
      "kullanmadım": 7034,
      "olacağım": 7035,
      "nef": 7036,
      "ediyoruz": 7037,
      "marmara": 7038,
      "denilen": 7039,
      "kılı": 7040,
      "kaps": 7041,
      "kons": 7042,
      "##suna": 7043,
      "çıkıp": 7044,
      "peraken": 7045,
      "yanık": 7046,
      "çektiler": 7047,
      "onlara": 7048,
      "ulaştım": 7049,
      "akışı": 7050,
      "dönmüyor": 7051,
      "sıkma": 7052,
      "##mayacağım": 7053,
      "uygulamadan": 7054,
      "atmak": 7055,
      "edilmiştir": 7056,
      "makas": 7057,
      "giriyorum": 7058,
      "hakaret": 7059,
      "bedaş": 7060,
      "gidece": 7061,
      "eksikliği": 7062,
      "yönde": 7063,
      "şikayetlerine": 7064,
      "gözlem": 7065,
      "sevk": 7066,
      "oyunlar": 7067,
      "bitmiş": 7068,
      "gelenek": 7069,
      "yeme": 7070,
      "fiyatlıdır": 7071,
      "altına": 7072,
      "merkeze": 7073,
      "maillere": 7074,
      "sebz": 7075,
      "kumaş": 7076,
      "çıkardılar": 7077,
      "tüketic": 7078,
      "hesabımda": 7079,
      "düşünerek": 7080,
      "##lığından": 7081,
      "not": 7082,
      "koltuğ": 7083,
      "pizzaları": 7084,
      "detaylarıyla": 7085,
      "yaptırdık": 7086,
      "komik": 7087,
      "gaming": 7088,
      "logo": 7089,
      "izley": 7090,
      "tamiri": 7091,
      "rakam": 7092,
      "üyeliğimin": 7093,
      "anneme": 7094,
      "erişimi": 7095,
      "çaydan": 7096,
      "tahmin": 7097,
      "bataryası": 7098,
      "##lüğü": 7099,
      "planda": 7100,
      "bayii": 7101,
      "kimsenin": 7102,
      "ofis": 7103,
      "öncesi": 7104,
      "gecikmeler": 7105,
      "etmiştim": 7106,
      "biletimin": 7107,
      "kitabı": 7108,
      "eskisi": 7109,
      "temsilcileri": 7110,
      "tanıtım": 7111,
      "tüy": 7112,
      "kalıcı": 7113,
      "aparat": 7114,
      "soyul": 7115,
      "notebook": 7116,
      "rezillik": 7117,
      "ısıtıcı": 7118,
      "kuruluşlarının": 7119,
      "i̇pragaz": 7120,
      "geçtiğimiz": 7121,
      "kavuştur": 7122,
      "uğrattı": 7123,
      "irtibat": 7124,
      "yürütü": 7125,
      "nevres": 7126,
      "##baba": 7127,
      "hüsran": 7128,
      "perakende": 7129,
      "44": 7130,
      "88": 7131,
      "ag": 7132,
      "aler": 7133,
      "fran": 7134,
      "lir": 7135,
      "stoğ": 7136,
      "ışı": 7137,
      "##dunuz": 7138,
      "##ox": 7139,
      "##yaka": 7140,
      "##puter": 7141,
      "##xel": 7142,
      "##üf": 7143,
      "##akır": 7144,
      "çelik": 7145,
      "birine": 7146,
      "birgün": 7147,
      "sayın": 7148,
      "kararı": 7149,
      "##yaj": 7150,
      "##amız": 7151,
      "öl": 7152,
      "yapamıyoruz": 7153,
      "anında": 7154,
      "anka": 7155,
      "##ipto": 7156,
      "i̇pta": 7157,
      "hizmetlerinin": 7158,
      "##duğunu": 7159,
      "sürüm": 7160,
      "##kaya": 7161,
      "olmadığım": 7162,
      "banyo": 7163,
      "açınca": 7164,
      "bilgiyi": 7165,
      "çalışırken": 7166,
      "çeker": 7167,
      "çekmiş": 7168,
      "ulaştır": 7169,
      "saattir": 7170,
      "garenta": 7171,
      "buluyor": 7172,
      "uzman": 7173,
      "satan": 7174,
      "krediye": 7175,
      "##osuz": 7176,
      "temini": 7177,
      "uygulamasında": 7178,
      "firmasının": 7179,
      "internete": 7180,
      "internette": 7181,
      "girdiğim": 7182,
      "tarafında": 7183,
      "haberim": 7184,
      "gideri": 7185,
      "bilgiler": 7186,
      "alaka": 7187,
      "midem": 7188,
      "kaydım": 7189,
      "oyuncak": 7190,
      "seg": 7191,
      "bankalardan": 7192,
      "görünce": 7193,
      "mesai": 7194,
      "yeniliklerle": 7195,
      "derhal": 7196,
      "yetkilisi": 7197,
      "katal": 7198,
      "değiştirdiler": 7199,
      "rahatsızlık": 7200,
      "toplum": 7201,
      "seferleri": 7202,
      "i̇çim": 7203,
      "etmedim": 7204,
      "şıklığı": 7205,
      "##mall": 7206,
      "kişiler": 7207,
      "kripto": 7208,
      "bilgilendirici": 7209,
      "verimlilik": 7210,
      "süpürgemin": 7211,
      "salona": 7212,
      "care": 7213,
      "bahar": 7214,
      "twitter": 7215,
      "bulaşıkları": 7216,
      "elimizde": 7217,
      "diyarb": 7218,
      "eşimle": 7219,
      "oradaki": 7220,
      "takımının": 7221,
      "değerlendiriliyor": 7222,
      "gönderilmiyor": 7223,
      "korkusuz": 7224,
      "i̇nsanların": 7225,
      "kandırma": 7226,
      "geçersiz": 7227,
      "surat": 7228,
      "müşteriyi": 7229,
      "dalgalan": 7230,
      "organizasyonu": 7231,
      "ortamda": 7232,
      "ısınma": 7233,
      "davranış": 7234,
      "etmektedir": 7235,
      "yenileme": 7236,
      "kablosuz": 7237,
      "kişiselleştirilmiş": 7238,
      "denetçiliği": 7239,
      "pişmanlıktır": 7240,
      "coffee": 7241,
      "streaming": 7242,
      "darbe": 7243,
      "ameliyat": 7244,
      "##games": 7245,
      "çiğ": 7246,
      "zahmet": 7247,
      "geleneksel": 7248,
      "110": 7249,
      "38": 7250,
      "450": 7251,
      "53": 7252,
      "beye": 7253,
      "cloud": 7254,
      "iban": 7255,
      "mb": 7256,
      "mez": 7257,
      "naz": 7258,
      "sgk": 7259,
      "tıra": 7260,
      "ur": 7261,
      "vir": 7262,
      "wor": 7263,
      "##oç": 7264,
      "##cası": 7265,
      "##ker": 7266,
      "##gen": 7267,
      "##antep": 7268,
      "##liyorum": 7269,
      "##ence": 7270,
      "##larken": 7271,
      "##lant": 7272,
      "##ürk": 7273,
      "karant": 7274,
      "##isiyim": 7275,
      "aldığınız": 7276,
      "aldat": 7277,
      "yapması": 7278,
      "haline": 7279,
      "kulüb": 7280,
      "kullanan": 7281,
      "##ayi": 7282,
      "##olon": 7283,
      "sürpr": 7284,
      "tep": 7285,
      "2000": 7286,
      "kullanıcıları": 7287,
      "kargodan": 7288,
      "fiyatların": 7289,
      "tadi": 7290,
      "denk": 7291,
      "işbir": 7292,
      "düşmüş": 7293,
      "##miyoruz": 7294,
      "evimi": 7295,
      "yaşındaki": 7296,
      "faturasını": 7297,
      "yerimi": 7298,
      "bulma": 7299,
      "akıt": 7300,
      "göndermek": 7301,
      "yüzüme": 7302,
      "kalitekon": 7303,
      "taksi": 7304,
      "karşılaşıyorum": 7305,
      "göremiyorum": 7306,
      "##mayacağını": 7307,
      "mağazasına": 7308,
      "uygulamada": 7309,
      "uygulamayı": 7310,
      "yapılamıyor": 7311,
      "söylediğimde": 7312,
      "söyleyerek": 7313,
      "bakiye": 7314,
      "101": 7315,
      "##layın": 7316,
      "bitmek": 7317,
      "kendime": 7318,
      "sandal": 7319,
      "##asyonu": 7320,
      "dolab": 7321,
      "makinesini": 7322,
      "makinemin": 7323,
      "edebile": 7324,
      "derken": 7325,
      "çıkardı": 7326,
      "paramızı": 7327,
      "##trolü": 7328,
      "milleti": 7329,
      "otogar": 7330,
      "sayesinde": 7331,
      "satışa": 7332,
      "##lığımı": 7333,
      "kartımın": 7334,
      "beğenerek": 7335,
      "ihtiyaçları": 7336,
      "kitaplar": 7337,
      "kasiyer": 7338,
      "başvuruda": 7339,
      "açılmadı": 7340,
      "170": 7341,
      "stokları": 7342,
      "giderek": 7343,
      "şirketin": 7344,
      "yıkan": 7345,
      "kazanlı": 7346,
      "pazarama": 7347,
      "ülkem": 7348,
      "etkinliği": 7349,
      "mağduriyetim": 7350,
      "mağduriyetimi": 7351,
      "bedel": 7352,
      "düzeltin": 7353,
      "düzeltme": 7354,
      "babam": 7355,
      "bittiği": 7356,
      "almayacağım": 7357,
      "havuz": 7358,
      "yakışmıyor": 7359,
      "yakıştıra": 7360,
      "saygısızlık": 7361,
      "üzücü": 7362,
      "saka": 7363,
      "sars": 7364,
      "kitleye": 7365,
      "geleceğini": 7366,
      "oğlu": 7367,
      "petrol": 7368,
      "bölümünde": 7369,
      "##anızın": 7370,
      "teşv": 7371,
      "temas": 7372,
      "sınıfta": 7373,
      "sezon": 7374,
      "mahkeme": 7375,
      "tarzı": 7376,
      "eminim": 7377,
      "tanınmış": 7378,
      "gaziantep": 7379,
      "bulanık": 7380,
      "danışmanlık": 7381,
      "incelen": 7382,
      "mühendi": 7383,
      "sompo": 7384,
      "nevresim": 7385,
      "tıraş": 7386,
      "kalitekontrolü": 7387,
      "64": 7388,
      "72": 7389,
      "700": 7390,
      "a70": 7391,
      "bark": 7392,
      "cildim": 7393,
      "dek": 7394,
      "dura": 7395,
      "geb": 7396,
      "hik": 7397,
      "jo": 7398,
      "kilo": 7399,
      "ocağın": 7400,
      "paş": 7401,
      "tır": 7402,
      "viz": 7403,
      "vallah": 7404,
      "win": 7405,
      "xbox": 7406,
      "yuk": 7407,
      "##rek": 7408,
      "##rum": 7409,
      "##ds": 7410,
      "##ee": 7411,
      "##ela": 7412,
      "##35": 7413,
      "##tarı": 7414,
      "##tumu": 7415,
      "##fek": 7416,
      "##gs": 7417,
      "##vh": 7418,
      "##vedi": 7419,
      "##jı": 7420,
      "##ğiz": 7421,
      "##ort": 7422,
      "##inç": 7423,
      "##master": 7424,
      "sadak": 7425,
      "##tıktan": 7426,
      "aldır": 7427,
      "alyan": 7428,
      "algı": 7429,
      "almadılar": 7430,
      "sunula": 7431,
      "yapmalı": 7432,
      "##dığına": 7433,
      "anladım": 7434,
      "gök": 7435,
      "gölg": 7436,
      "aylar": 7437,
      "araca": 7438,
      "##eyle": 7439,
      "sonlandır": 7440,
      "sorunumun": 7441,
      "fiyatına": 7442,
      "kov": 7443,
      "uyan": 7444,
      "olmasından": 7445,
      "parlak": 7446,
      "işten": 7447,
      "çap": 7448,
      "yazmış": 7449,
      "durdur": 7450,
      "durduk": 7451,
      "ters": 7452,
      "termo": 7453,
      "sürebilir": 7454,
      "değişiyor": 7455,
      "yerlerde": 7456,
      "aksa": 7457,
      "satarken": 7458,
      "alışkan": 7459,
      "gitmiş": 7460,
      "memnundum": 7461,
      "ürünlerimi": 7462,
      "köy": 7463,
      "garantiden": 7464,
      "şeye": 7465,
      "makyaj": 7466,
      "##lerimizi": 7467,
      "kapsamına": 7468,
      "tarafınıza": 7469,
      "bırakıp": 7470,
      "yolladılar": 7471,
      "mağazacılık": 7472,
      "sigort": 7473,
      "##ültü": 7474,
      "hazn": 7475,
      "bayisinden": 7476,
      "bozucu": 7477,
      "başvurum": 7478,
      "kordon": 7479,
      "vida": 7480,
      "bekleyen": 7481,
      "alınıyor": 7482,
      "alınmış": 7483,
      "alınması": 7484,
      "kate": 7485,
      "mısınız": 7486,
      "ihtiyacı": 7487,
      "açıkçası": 7488,
      "tableti": 7489,
      "##lendirme": 7490,
      "etkileyicidir": 7491,
      "ambalajı": 7492,
      "böcek": 7493,
      "harita": 7494,
      "panel": 7495,
      "yaparsanız": 7496,
      "lezita": 7497,
      "verildiği": 7498,
      "bahçe": 7499,
      "kızar": 7500,
      "gerekiyordu": 7501,
      "dönemlerde": 7502,
      "evimin": 7503,
      "yapılacağını": 7504,
      "yorumlar": 7505,
      "kapakları": 7506,
      "hastalık": 7507,
      "çizim": 7508,
      "sebeple": 7509,
      "sınava": 7510,
      "##sport": 7511,
      "neymiş": 7512,
      "şartlar": 7513,
      "gelmişti": 7514,
      "montajı": 7515,
      "bölümü": 7516,
      "kirli": 7517,
      "buzdolabının": 7518,
      "fırınları": 7519,
      "yaklaşımı": 7520,
      "parfümleri": 7521,
      "##metse": 7522,
      "hoparlörleri": 7523,
      "elinizde": 7524,
      "çorba": 7525,
      "pompa": 7526,
      "gürültü": 7527,
      "bulamıyoruz": 7528,
      "lavab": 7529,
      "umursamaz": 7530,
      "intersport": 7531,
      "nereye": 7532,
      "center": 7533,
      "gönüllü": 7534,
      "mahvetti": 7535,
      "şüph": 7536,
      "köklü": 7537,
      "karantina": 7538,
      "oğluma": 7539,
      "teşvik": 7540,
      "hikmetse": 7541,
      "vallahi": 7542,
      "yukarı": 7543,
      "42": 7544,
      "cüz": 7545,
      "giy": 7546,
      "gol": 7547,
      "klo": 7548,
      "list": 7549,
      "laf": 7550,
      "liste": 7551,
      "w1": 7552,
      "##acağını": 7553,
      "##eceği": 7554,
      "##sistem": 7555,
      "##mine": 7556,
      "##lında": 7557,
      "##65": 7558,
      "##culu": 7559,
      "##get": 7560,
      "##gah": 7561,
      "##py": 7562,
      "##ard": 7563,
      "##lete": 7564,
      "##çü": 7565,
      "##diğini": 7566,
      "##ilmesine": 7567,
      "##lanmadı": 7568,
      "algi": 7569,
      "anlık": 7570,
      "##okoç": 7571,
      "kullanı": 7572,
      "kullanama": 7573,
      "ayından": 7574,
      "vermem": 7575,
      "verebilir": 7576,
      "günah": 7577,
      "tecr": 7578,
      "müşterilere": 7579,
      "ınternet": 7580,
      "gelmiştir": 7581,
      "sorunlarda": 7582,
      "mapf": 7583,
      "yüklen": 7584,
      "kılıyor": 7585,
      "yokmuş": 7586,
      "açtık": 7587,
      "sonrada": 7588,
      "çıkışı": 7589,
      "karşılığı": 7590,
      "##omo": 7591,
      "onları": 7592,
      "ulaştırıl": 7593,
      "yaşama": 7594,
      "##apad": 7595,
      "sucuk": 7596,
      "iademi": 7597,
      "akş": 7598,
      "göndermiş": 7599,
      "geldiğini": 7600,
      "turun": 7601,
      "geride": 7602,
      "alışverişte": 7603,
      "ilginç": 7604,
      "yapılsın": 7605,
      "kırılması": 7606,
      "uygulamaya": 7607,
      "uygulamasını": 7608,
      "uygulamasorunu": 7609,
      "attı": 7610,
      "yapılamaya": 7611,
      "şeyle": 7612,
      "gerekebilir": 7613,
      "tanır": 7614,
      "verilmeden": 7615,
      "getirdim": 7616,
      "mağazalarında": 7617,
      "kampanyalı": 7618,
      "yardımı": 7619,
      "##yınca": 7620,
      "mide": 7621,
      "##tığımız": 7622,
      "sistemine": 7623,
      "asit": 7624,
      "ekrana": 7625,
      "ekranın": 7626,
      "muht": 7627,
      "##meyeceğini": 7628,
      "sanayi": 7629,
      "filtr": 7630,
      "fairy": 7631,
      "##ferans": 7632,
      "derneği": 7633,
      "via": 7634,
      "bekletiyor": 7635,
      "istendi": 7636,
      "açıdan": 7637,
      "beylik": 7638,
      "milli": 7639,
      "yapacağımı": 7640,
      "kapatıyor": 7641,
      "##layacak": 7642,
      "##emia": 7643,
      "##ceğimiz": 7644,
      "yatırdım": 7645,
      "koltu": 7646,
      "adreste": 7647,
      "değişimini": 7648,
      "pant": 7649,
      "sinemia": 7650,
      "metre": 7651,
      "sebebini": 7652,
      "kremi": 7653,
      "verimlidir": 7654,
      "şirketine": 7655,
      "memnuniyetinde": 7656,
      "tamamını": 7657,
      "porland": 7658,
      "gerekiyormuş": 7659,
      "şekerli": 7660,
      "gönderip": 7661,
      "beklenen": 7662,
      "durumdayım": 7663,
      "mado": 7664,
      "entegre": 7665,
      "eczan": 7666,
      "besleyici": 7667,
      "##üsten": 7668,
      "##̇mer": 7669,
      "otokoç": 7670,
      "neyin": 7671,
      "uğraşıyorum": 7672,
      "##meyeceklerini": 7673,
      "olaydım": 7674,
      "stratejik": 7675,
      "sayfasında": 7676,
      "bebeğimin": 7677,
      "yarısını": 7678,
      "tuşu": 7679,
      "prestijli": 7680,
      "gidecek": 7681,
      "akab": 7682,
      "köpük": 7683,
      "tasarrufu": 7684,
      "anlattım": 7685,
      "eğlenceli": 7686,
      "ultra": 7687,
      "alibaba": 7688,
      "yükselt": 7689,
      "playst": 7690,
      "caddesi": 7691,
      "iddia": 7692,
      "ci̇mer": 7693,
      "elbiseleri": 7694,
      "yöntem": 7695,
      "teşhir": 7696,
      "yahu": 7697,
      "dükkan": 7698,
      "yürütüyor": 7699,
      "kategor": 7700,
      "algida": 7701,
      "mapfre": 7702,
      "ale": 7703,
      "aleti": 7704,
      "blo": 7705,
      "hev": 7706,
      "kele": 7707,
      "lpg": 7708,
      "niş": 7709,
      "nüf": 7710,
      "od": 7711,
      "osman": 7712,
      "ramaz": 7713,
      "sel": 7714,
      "zo": 7715,
      "ziy": 7716,
      "##ris": 7717,
      "##efendi": 7718,
      "##tle": 7719,
      "##tas": 7720,
      "##74": 7721,
      "##78": 7722,
      "##ğan": 7723,
      "##lack": 7724,
      "##irt": 7725,
      "##illant": 7726,
      "##hafer": 7727,
      "##meyin": 7728,
      "salı": 7729,
      "##ürüz": 7730,
      "##ity": 7731,
      "şark": 7732,
      "şid": 7733,
      "##tion": 7734,
      "##cevh": 7735,
      "haciz": 7736,
      "kullandır": 7737,
      "kullanmakta": 7738,
      "baza": 7739,
      "##eyes": 7740,
      "artış": 7741,
      "kargolama": 7742,
      "edilebilir": 7743,
      "taciz": 7744,
      "ekib": 7745,
      "kılav": 7746,
      "olmasa": 7747,
      "sağlığı": 7748,
      "##makla": 7749,
      "çıkmış": 7750,
      "çıkarı": 7751,
      "yazdığı": 7752,
      "yansıt": 7753,
      "digi": 7754,
      "genişlet": 7755,
      "saate": 7756,
      "faturaya": 7757,
      "yerleş": 7758,
      "ücretim": 7759,
      "yapıldığı": 7760,
      "##sedi": 7761,
      "atın": 7762,
      "##bildim": 7763,
      "yapılama": 7764,
      "nedenini": 7765,
      "farkları": 7766,
      "gire": 7767,
      "elektri": 7768,
      "dışına": 7769,
      "getirdiler": 7770,
      "##layınca": 7771,
      "markayı": 7772,
      "yönetici": 7773,
      "bittikten": 7774,
      "asıl": 7775,
      "aslında": 7776,
      "iznim": 7777,
      "bankaya": 7778,
      "filt": 7779,
      "gelmediği": 7780,
      "bağlanmak": 7781,
      "çıktığı": 7782,
      "korun": 7783,
      "hoca": 7784,
      "alımı": 7785,
      "bekletip": 7786,
      "dakikalarca": 7787,
      "arkadaşı": 7788,
      "oluyoruz": 7789,
      "mücevh": 7790,
      "eskiden": 7791,
      "filmine": 7792,
      "saçmalı": 7793,
      "koçsistem": 7794,
      "macbook": 7795,
      "etmeyin": 7796,
      "şıklık": 7797,
      "uçuşum": 7798,
      "içecekler": 7799,
      "yaptırdığım": 7800,
      "ettiğimiz": 7801,
      "kısmını": 7802,
      "kısmının": 7803,
      "fırsatlarla": 7804,
      "çalışıyorlar": 7805,
      "memnuniyetsizlik": 7806,
      "mont": 7807,
      "kapanıp": 7808,
      "bezin": 7809,
      "gösterir": 7810,
      "hani": 7811,
      "gali": 7812,
      "tamire": 7813,
      "detaylıdır": 7814,
      "koltuklar": 7815,
      "yaptığımız": 7816,
      "sütçü": 7817,
      "yapmıştım": 7818,
      "bedelini": 7819,
      "öneriler": 7820,
      "oynan": 7821,
      "formunu": 7822,
      "live": 7823,
      "uğradım": 7824,
      "bizimle": 7825,
      "soh": 7826,
      "çare": 7827,
      "##umuzu": 7828,
      "üzül": 7829,
      "çocuğuma": 7830,
      "i̇stiyor": 7831,
      "tarife": 7832,
      "direksiyon": 7833,
      "hamur": 7834,
      "popeyes": 7835,
      "yansıtıl": 7836,
      "sabun": 7837,
      "anlamı": 7838,
      "##dows": 7839,
      "##larımızın": 7840,
      "kütüphane": 7841,
      "altınbaş": 7842,
      "oyunu": 7843,
      "örn": 7844,
      "şifreyi": 7845,
      "schafer": 7846,
      "gezin": 7847,
      "özensiz": 7848,
      "edilemeyen": 7849,
      "##düzü": 7850,
      "harcama": 7851,
      "ümit": 7852,
      "ümran": 7853,
      "verileceği": 7854,
      "hikaye": 7855,
      "dürüst": 7856,
      "cappy": 7857,
      "faturanın": 7858,
      "ifade": 7859,
      "talimat": 7860,
      "atmosferi": 7861,
      "check": 7862,
      "kapasit": 7863,
      "yüksekliğinden": 7864,
      "felak": 7865,
      "ekspertiz": 7866,
      "diyarbakır": 7867,
      "worl": 7868,
      "mühendis": 7869,
      "gebze": 7870,
      "windows": 7871,
      "sadakat": 7872,
      "akşama": 7873,
      "beylikdüzü": 7874,
      "pantolon": 7875,
      "akabinde": 7876,
      "odtü": 7877,
      "digital": 7878,
      "3d": 7879,
      "52": 7880,
      "95": 7881,
      "asan": 7882,
      "bası": 7883,
      "dib": 7884,
      "fes": 7885,
      "iğ": 7886,
      "ipad": 7887,
      "pik": 7888,
      "p20": 7889,
      "sö": 7890,
      "ucu": 7891,
      "yü": 7892,
      "##drum": 7893,
      "##sk": 7894,
      "##100": 7895,
      "##kır": 7896,
      "##lerdir": 7897,
      "##eko": 7898,
      "##ilsin": 7899,
      "##haf": 7900,
      "##rama": 7901,
      "##landığını": 7902,
      "##urum": 7903,
      "sabi": 7904,
      "ürünkalitesi": 7905,
      "şeh": 7906,
      "karak": 7907,
      "ettiniz": 7908,
      "i̇topya": 7909,
      "kullanamadım": 7910,
      "aramam": 7911,
      "arasındaki": 7912,
      "##laşma": 7913,
      "sorumlu": 7914,
      "siparişleri": 7915,
      "##derma": 7916,
      "önüne": 7917,
      "uyumsuz": 7918,
      "baştan": 7919,
      "mouse": 7920,
      "yükle": 7921,
      "yüklü": 7922,
      "olmamalı": 7923,
      "gereğini": 7924,
      "çalıyor": 7925,
      "##lenmesini": 7926,
      "geçin": 7927,
      "geçici": 7928,
      "bodrum": 7929,
      "##sic": 7930,
      "yazdığım": 7931,
      "seçtim": 7932,
      "güler": 7933,
      "##ahçe": 7934,
      "iyice": 7935,
      "çekimi": 7936,
      "çektiğim": 7937,
      "yaşayan": 7938,
      "yerleri": 7939,
      "satıyorsunuz": 7940,
      "durumunu": 7941,
      "krediyi": 7942,
      "taki": 7943,
      "##lup": 7944,
      "düzeli": 7945,
      "türkçe": 7946,
      "##mayabiliyor": 7947,
      "şubenizden": 7948,
      "yapılmadığı": 7949,
      "bakır": 7950,
      "##panya": 7951,
      "şeyleri": 7952,
      "araçların": 7953,
      "bulunduğu": 7954,
      "bulunmaktadır": 7955,
      "sürah": 7956,
      "siten": 7957,
      "sitenizden": 7958,
      "##dikleri": 7959,
      "i̇ninal": 7960,
      "i̇şleri": 7961,
      "etkileşimi": 7962,
      "1500": 7963,
      "seslen": 7964,
      "kayd": 7965,
      "seans": 7966,
      "kendilerini": 7967,
      "makineye": 7968,
      "güncellemeden": 7969,
      "bekleyin": 7970,
      "iletildi": 7971,
      "modeller": 7972,
      "öğr": 7973,
      "basa": 7974,
      "basın": 7975,
      "karmaşa": 7976,
      "born": 7977,
      "hesabımı": 7978,
      "dolmadan": 7979,
      "##emez": 7980,
      "yapabiliyor": 7981,
      "yapalım": 7982,
      "mall": 7983,
      "videoları": 7984,
      "şarja": 7985,
      "şarjlı": 7986,
      "sitelerinden": 7987,
      "kaçın": 7988,
      "186": 7989,
      "paneli": 7990,
      "maliyetler": 7991,
      "uçuşu": 7992,
      "biliyorum": 7993,
      "bozulmuş": 7994,
      "yaptırmak": 7995,
      "boşal": 7996,
      "kısmına": 7997,
      "çocuklar": 7998,
      "##sindeki": 7999,
      "ilgilenir": 8000,
      "lens": 8001,
      "arızayı": 8002,
      "kızımın": 8003,
      "sertif": 8004,
      "seramik": 8005,
      "olmuştu": 8006,
      "mahke": 8007,
      "ödeneği": 8008,
      "fix": 8009,
      "lekeleri": 8010,
      "fotoğrafları": 8011,
      "ettikleri": 8012,
      "yönlendiriyor": 8013,
      "mikser": 8014,
      "setleri": 8015,
      "davlumb": 8016,
      "beslenme": 8017,
      "politikalarını": 8018,
      "maaşı": 8019,
      "entegrasyonu": 8020,
      "arayacak": 8021,
      "dosyam": 8022,
      "eureko": 8023,
      "yoğunluktan": 8024,
      "sağlanmadı": 8025,
      "etmekteyim": 8026,
      "oysa": 8027,
      "köpek": 8028,
      "donanımları": 8029,
      "mahkemesi": 8030,
      "ticari": 8031,
      "mahvol": 8032,
      "ortaklıkları": 8033,
      "edilir": 8034,
      "aboneliğimi": 8035,
      "sahibiyim": 8036,
      "kuralları": 8037,
      "bioderma": 8038,
      "ilişkileri": 8039,
      "cisim": 8040,
      "taahhüdüm": 8041,
      "rayban": 8042,
      "general": 8043,
      "şebeke": 8044,
      "apartman": 8045,
      "pipet": 8046,
      "çanakkale": 8047,
      "telafi": 8048,
      "sürpriz": 8049,
      "klozet": 8050,
      "playstation": 8051,
      "şiddet": 8052,
      "felaket": 8053,
      "world": 8054,
      "sabiha": 8055,
      "mahkemeye": 8056,
      "davlumbaz": 8057,
      "63": 8058,
      "74": 8059,
      "85": 8060,
      "bd": 8061,
      "bra": 8062,
      "ca": 8063,
      "dry": 8064,
      "fik": 8065,
      "fıs": 8066,
      "kv": 8067,
      "kem": 8068,
      "süz": 8069,
      "soo": 8070,
      "simdi": 8071,
      "tp": 8072,
      "tip": 8073,
      "##aat": 8074,
      "##müşt": 8075,
      "##uder": 8076,
      "##ls": 8077,
      "##ydu": 8078,
      "##ydü": 8079,
      "##69": 8080,
      "##ct": 8081,
      "##cım": 8082,
      "##kim": 8083,
      "##tl": 8084,
      "##ttı": 8085,
      "##ght": 8086,
      "##ars": 8087,
      "##live": 8088,
      "##lacak": 8089,
      "##layı": 8090,
      "##çen": 8091,
      "##çilik": 8092,
      "##esir": 8093,
      "dava": 8094,
      "##umda": 8095,
      "##ilmez": 8096,
      "##ürken": 8097,
      "almama": 8098,
      "sunumu": 8099,
      "ötür": 8100,
      "##emiz": 8101,
      "##tiyorlar": 8102,
      "##ıldığı": 8103,
      "kullanamıyoruz": 8104,
      "##té": 8105,
      "ayır": 8106,
      "##uyorsunuz": 8107,
      "vereli": 8108,
      "##lerindeki": 8109,
      "müşterisi": 8110,
      "##ilecek": 8111,
      "##inevim": 8112,
      "gelmesine": 8113,
      "bilmeyen": 8114,
      "kova": 8115,
      "mobile": 8116,
      "yükledim": 8117,
      "amacı": 8118,
      "konunun": 8119,
      "yokken": 8120,
      "##yebilir": 8121,
      "##sundan": 8122,
      "##mişim": 8123,
      "açmadan": 8124,
      "açabiliyor": 8125,
      "tarihten": 8126,
      "düşüş": 8127,
      "bileşen": 8128,
      "çıkara": 8129,
      "servisleri": 8130,
      "durdu": 8131,
      "termal": 8132,
      "sürebiliyor": 8133,
      "çalışır": 8134,
      "çekir": 8135,
      "çekiş": 8136,
      "saatinde": 8137,
      "değişmiş": 8138,
      "ödeyip": 8139,
      "sıkın": 8140,
      "durumla": 8141,
      "##ight": 8142,
      "yakıyor": 8143,
      "şubeyi": 8144,
      "yapılmadan": 8145,
      "yapılandır": 8146,
      "##inizde": 8147,
      "bakalım": 8148,
      "köş": 8149,
      "edildim": 8150,
      "fazladır": 8151,
      "fazlasıyla": 8152,
      "bulunduk": 8153,
      "konularda": 8154,
      "haberlerle": 8155,
      "habertürk": 8156,
      "dönüşü": 8157,
      "bilgilerini": 8158,
      "markasından": 8159,
      "aviv": 8160,
      "esté": 8161,
      "şikayetler": 8162,
      "pakette": 8163,
      "sistemden": 8164,
      "izi": 8165,
      "devr": 8166,
      "ünlü": 8167,
      "kartını": 8168,
      "##hansa": 8169,
      "cihazlar": 8170,
      "cihazımı": 8171,
      "süper": 8172,
      "##ecekler": 8173,
      "görünüm": 8174,
      "oranlar": 8175,
      "oranlarla": 8176,
      "yayınlar": 8177,
      "hataları": 8178,
      "dakikada": 8179,
      "eminevim": 8180,
      "çıkartıyor": 8181,
      "insanı": 8182,
      "caziptir": 8183,
      "çevres": 8184,
      "gidiyorum": 8185,
      "sabahtan": 8186,
      "ağız": 8187,
      "sitelerinde": 8188,
      "arkadaşlarım": 8189,
      "yazılımı": 8190,
      "pizz": 8191,
      "180": 8192,
      "televizyonları": 8193,
      "gecen": 8194,
      "geçtiği": 8195,
      "sinek": 8196,
      "metlife": 8197,
      "beklemeye": 8198,
      "benzeri": 8199,
      "monit": 8200,
      "bahç": 8201,
      "mutlu": 8202,
      "kanallar": 8203,
      "dönemleri": 8204,
      "##ceğiniz": 8205,
      "ekonom": 8206,
      "fotoğraflar": 8207,
      "##unuzu": 8208,
      "gelirken": 8209,
      "babamın": 8210,
      "yönlendirme": 8211,
      "gerçekleştirdim": 8212,
      "dinleme": 8213,
      "referans": 8214,
      "shop": 8215,
      "vereceğim": 8216,
      "etkileşimli": 8217,
      "tuhaf": 8218,
      "aboneliği": 8219,
      "luft": 8220,
      "yapmayacağım": 8221,
      "beklentilerin": 8222,
      "arabayı": 8223,
      "kapağını": 8224,
      "piyasa": 8225,
      "hattını": 8226,
      "bulunduğumuz": 8227,
      "aydınlat": 8228,
      "oyalıyorlar": 8229,
      "atıştırmalık": 8230,
      "şoför": 8231,
      "çevremde": 8232,
      "zinciri": 8233,
      "tedavi": 8234,
      "ortopedi": 8235,
      "balıkesir": 8236,
      "cızırtı": 8237,
      "bonus": 8238,
      "porsiyonları": 8239,
      "dahilinde": 8240,
      "depozito": 8241,
      "karanlık": 8242,
      "katalog": 8243,
      "baharat": 8244,
      "dalgalanmaları": 8245,
      "beyefendi": 8246,
      "virüsten": 8247,
      "yakıştıramadım": 8248,
      "sunulabiliyor": 8249,
      "gökçen": 8250,
      "tecrüb": 8251,
      "heves": 8252,
      "sohbet": 8253,
      "ümraniye": 8254,
      "kvk": 8255,
      "ötürü": 8256,
      "avivasa": 8257,
      "lufthansa": 8258,
      "54": 8259,
      "big": 8260,
      "basıl": 8261,
      "dilim": 8262,
      "fiz": 8263,
      "homet": 8264,
      "lı": 8265,
      "lar": 8266,
      "lok": 8267,
      "muz": 8268,
      "nit": 8269,
      "nem": 8270,
      "sön": 8271,
      "tüp": 8272,
      "vr": 8273,
      "zan": 8274,
      "##siy": 8275,
      "##uis": 8276,
      "##yer": 8277,
      "##bu": 8278,
      "##canın": 8279,
      "##cının": 8280,
      "##tin": 8281,
      "##tasyon": 8282,
      "##gara": 8283,
      "##pus": 8284,
      "##way": 8285,
      "##üle": 8286,
      "##lağ": 8287,
      "##aton": 8288,
      "birinin": 8289,
      "##meyip": 8290,
      "dediniz": 8291,
      "buton": 8292,
      "yalı": 8293,
      "##likten": 8294,
      "şab": 8295,
      "ing": 8296,
      "##isyon": 8297,
      "##ıklık": 8298,
      "hac": 8299,
      "kullanılan": 8300,
      "##tele": 8301,
      "verilir": 8302,
      "veremiyorum": 8303,
      "günün": 8304,
      "arıyor": 8305,
      "sormak": 8306,
      "##uzda": 8307,
      "değiliz": 8308,
      "##str": 8309,
      "gelmez": 8310,
      "##lamaları": 8311,
      "siparişlerimi": 8312,
      "yetmez": 8313,
      "##redi": 8314,
      "maile": 8315,
      "malat": 8316,
      "maraton": 8317,
      "başlama": 8318,
      "kapama": 8319,
      "tartı": 8320,
      "etkisi": 8321,
      "hızlandır": 8322,
      "işsiz": 8323,
      "bilemiyorum": 8324,
      "geçmiyor": 8325,
      "endü": 8326,
      "bilgiye": 8327,
      "bose": 8328,
      "telefonlarının": 8329,
      "term": 8330,
      "çalıştığımda": 8331,
      "kullanıcılara": 8332,
      "değişecek": 8333,
      "aklı": 8334,
      "kalitesinden": 8335,
      "taktım": 8336,
      "##osm": 8337,
      "güvence": 8338,
      "##banın": 8339,
      "türksat": 8340,
      "yapılma": 8341,
      "yapılmamış": 8342,
      "atmış": 8343,
      "##cağına": 8344,
      "söyleyin": 8345,
      "bakmıyor": 8346,
      "bakımı": 8347,
      "bulunacağım": 8348,
      "isteyen": 8349,
      "girmek": 8350,
      "girdik": 8351,
      "verilmeyen": 8352,
      "##ediyor": 8353,
      "kişiyi": 8354,
      "alacağ": 8355,
      "i̇şsizlik": 8356,
      "sistemsel": 8357,
      "i̇adem": 8358,
      "##ado": 8359,
      "platformlarıyla": 8360,
      "bozulan": 8361,
      "firmaları": 8362,
      "başladığım": 8363,
      "başladık": 8364,
      "##ınızdan": 8365,
      "acili": 8366,
      "burda": 8367,
      "yetkin": 8368,
      "aşa": 8369,
      "emlak": 8370,
      "polisan": 8371,
      "amd": 8372,
      "duyabilir": 8373,
      "vaillant": 8374,
      "yinede": 8375,
      "düşündüğüm": 8376,
      "otopark": 8377,
      "tabağı": 8378,
      "yaşadığınız": 8379,
      "olurken": 8380,
      "yaptıra": 8381,
      "kullanımdan": 8382,
      "yoğur": 8383,
      "anlaştık": 8384,
      "anlaşmaları": 8385,
      "televizyonun": 8386,
      "dediği": 8387,
      "kitapyur": 8388,
      "belirttiğim": 8389,
      "atıyorlar": 8390,
      "geciken": 8391,
      "kısmından": 8392,
      "buzdolapları": 8393,
      "eşyası": 8394,
      "bilerek": 8395,
      "benzin": 8396,
      "kapanmıyor": 8397,
      "temsilcisini": 8398,
      "oturmuyor": 8399,
      "kızart": 8400,
      "kızıma": 8401,
      "koymuşlar": 8402,
      "faturamın": 8403,
      "evimize": 8404,
      "reddit": 8405,
      "bardağ": 8406,
      "pazarlama": 8407,
      "##lediği": 8408,
      "##ect": 8409,
      "çatladı": 8410,
      "havlu": 8411,
      "yakışmayan": 8412,
      "adap": 8413,
      "sinemaları": 8414,
      "koronavirüs": 8415,
      "##mişlerdi": 8416,
      "talebim": 8417,
      "yaptıkları": 8418,
      "##madıklarını": 8419,
      "edeceğiz": 8420,
      "gösterebiliyor": 8421,
      "dizileri": 8422,
      "yalanı": 8423,
      "karıştırıcı": 8424,
      "tarifeler": 8425,
      "peyniri": 8426,
      "lauder": 8427,
      "entegrasyonları": 8428,
      "buzdolabım": 8429,
      "etiketi": 8430,
      "şahıs": 8431,
      "kalkış": 8432,
      "ferdi": 8433,
      "istasyonları": 8434,
      "artırmalı": 8435,
      "hanımefendi": 8436,
      "vitra": 8437,
      "ihti": 8438,
      "##saydı": 8439,
      "europe": 8440,
      "bulamadık": 8441,
      "anlayamadım": 8442,
      "profilo": 8443,
      "florence": 8444,
      "haliyle": 8445,
      "kaporayı": 8446,
      "söyledikleri": 8447,
      "iyileştiriyor": 8448,
      "ideapad": 8449,
      "##tivasyon": 8450,
      "dokunmatik": 8451,
      "savun": 8452,
      "tesisat": 8453,
      "özelleştirilebilir": 8454,
      "sponsorluk": 8455,
      "level": 8456,
      "artışı": 8457,
      "görüştüğümde": 8458,
      "imajı": 8459,
      "ilerleme": 8460,
      "denetimleri": 8461,
      "istemediğimi": 8462,
      "alayım": 8463,
      "havalimanı": 8464,
      "pırlan": 8465,
      "mezun": 8466,
      "çapında": 8467,
      "ramazan": 8468,
      "galiba": 8469,
      "asans": 8470,
      "sesleniyorum": 8471,
      "soobe": 8472,
      "estée": 8473,
      "monitör": 8474,
      "hometech": 8475,
      "şablon": 8476,
      "malatya": 8477,
      "kitapyurdu": 8478,
      "3000": 8479,
      "58": 8480,
      "by": 8481,
      "bing": 8482,
      "cm": 8483,
      "fc": 8484,
      "gıcı": 8485,
      "gov": 8486,
      "gym": 8487,
      "ia": 8488,
      "jeli": 8489,
      "ke": 8490,
      "kef": 8491,
      "lif": 8492,
      "meb": 8493,
      "mus": 8494,
      "quan": 8495,
      "tc": 8496,
      "ves": 8497,
      "zev": 8498,
      "##alan": 8499,
      "##dk": 8500,
      "##mit": 8501,
      "##nak": 8502,
      "##nal": 8503,
      "##yak": 8504,
      "##bek": 8505,
      "##ty": 8506,
      "##54": 8507,
      "##ğü": 8508,
      "##ino": 8509,
      "##diven": 8510,
      "##atch": 8511,
      "##ündeki": 8512,
      "##ong": 8513,
      "çim": 8514,
      "##habili": 8515,
      "##landığı": 8516,
      "##asındaki": 8517,
      "deyince": 8518,
      "##isor": 8519,
      "alo": 8520,
      "yapsın": 8521,
      "haya": 8522,
      "etmiştir": 8523,
      "i̇çi": 8524,
      "i̇talya": 8525,
      "kullanmam": 8526,
      "göm": 8527,
      "göğ": 8528,
      "ayran": 8529,
      "olayı": 8530,
      "##iyorsunuz": 8531,
      "##duğunda": 8532,
      "süresinin": 8533,
      "##kame": 8534,
      "##sıma": 8535,
      "arman": 8536,
      "bazıları": 8537,
      "kolan": 8538,
      "başına": 8539,
      "ekos": 8540,
      "dolaş": 8541,
      "bant": 8542,
      "kapa": 8543,
      "##sunun": 8544,
      "işim": 8545,
      "işsizlik": 8546,
      "##alcom": 8547,
      "geçtik": 8548,
      "servisini": 8549,
      "yanına": 8550,
      "kaliteden": 8551,
      "evdeki": 8552,
      "onlarca": 8553,
      "ulaşır": 8554,
      "ulaşmasını": 8555,
      "yaşamı": 8556,
      "saatim": 8557,
      "seçeneklerine": 8558,
      "faturalandırma": 8559,
      "değildir": 8560,
      "akıyor": 8561,
      "satıyorlar": 8562,
      "satılan": 8563,
      "taktığımda": 8564,
      "hattım": 8565,
      "görülüyor": 8566,
      "yakası": 8567,
      "ücretimi": 8568,
      "alışverişim": 8569,
      "türktele": 8570,
      "yapıldığını": 8571,
      "kırılıyor": 8572,
      "ürünlerden": 8573,
      "yetersizliği": 8574,
      "baktığım": 8575,
      "zorlayabiliyor": 8576,
      "kesim": 8577,
      "isteğim": 8578,
      "tarafımıza": 8579,
      "haftaya": 8580,
      "yatağı": 8581,
      "tour": 8582,
      "kalmıyor": 8583,
      "kalmamış": 8584,
      "yollama": 8585,
      "dönüşüm": 8586,
      "signal": 8587,
      "avon": 8588,
      "##resini": 8589,
      "erz": 8590,
      "oyunlarının": 8591,
      "askı": 8592,
      "asistan": 8593,
      "tutmuyor": 8594,
      "bankadan": 8595,
      "sigortamı": 8596,
      "tasarımlarını": 8597,
      "makinemi": 8598,
      "altını": 8599,
      "güncellemelerle": 8600,
      "hatalar": 8601,
      "katıl": 8602,
      "değiştirilmesini": 8603,
      "değerleri": 8604,
      "insanın": 8605,
      "valiz": 8606,
      "computer": 8607,
      "kapattılar": 8608,
      "alana": 8609,
      "şubelerinde": 8610,
      "vaatlere": 8611,
      "kolye": 8612,
      "140": 8613,
      "130": 8614,
      "düzenlidir": 8615,
      "kullanımını": 8616,
      "bildirimler": 8617,
      "ağa": 8618,
      "şimdiye": 8619,
      "söylenen": 8620,
      "1006": 8621,
      "i̇nternette": 8622,
      "konuşuyor": 8623,
      "tavan": 8624,
      "süpürgeleri": 8625,
      "ayakkabıyı": 8626,
      "vermişler": 8627,
      "mask": 8628,
      "eşit": 8629,
      "ilgilenin": 8630,
      "kalabilir": 8631,
      "monster": 8632,
      "kutuda": 8633,
      "yazılan": 8634,
      "ülke": 8635,
      "temsilcisiyle": 8636,
      "girişi": 8637,
      "tencent": 8638,
      "patlama": 8639,
      "patlamış": 8640,
      "##ceğine": 8641,
      "diyen": 8642,
      "koydum": 8643,
      "faturamı": 8644,
      "oynat": 8645,
      "##ılmıştır": 8646,
      "lila": 8647,
      "torn": 8648,
      "işlevseldir": 8649,
      "casio": 8650,
      "gelirse": 8651,
      "istediğimiz": 8652,
      "alalım": 8653,
      "halle": 8654,
      "##reter": 8655,
      "çocuğumun": 8656,
      "rehabili": 8657,
      "sure": 8658,
      "sepaş": 8659,
      "pendik": 8660,
      "iyisi": 8661,
      "iyiydi": 8662,
      "futbolunun": 8663,
      "mahallesinde": 8664,
      "gerekirse": 8665,
      "yapacaklarını": 8666,
      "bilinen": 8667,
      "yaşatıyor": 8668,
      "litrelik": 8669,
      "yırtıl": 8670,
      "soruml": 8671,
      "akademi": 8672,
      "muayen": 8673,
      "kapağın": 8674,
      "şampuan": 8675,
      "bıktık": 8676,
      "yapayım": 8677,
      "inovatif": 8678,
      "dilekç": 8679,
      "edilip": 8680,
      "yaşadıkları": 8681,
      "ürününüzü": 8682,
      "usb": 8683,
      "isterim": 8684,
      "lamba": 8685,
      "tartışmalı": 8686,
      "kredimi": 8687,
      "cisco": 8688,
      "##caman": 8689,
      "bileklik": 8690,
      "erimiyor": 8691,
      "##çılık": 8692,
      "ibaresi": 8693,
      "qualcom": 8694,
      "ferahlatıcı": 8695,
      "şubenize": 8696,
      "aniden": 8697,
      "biçim": 8698,
      "mantıklı": 8699,
      "i̇çerik": 8700,
      "franke": 8701,
      "dekor": 8702,
      "kategori": 8703,
      "nüfus": 8704,
      "üzüldüm": 8705,
      "endüstr": 8706,
      "ihtimal": 8707,
      "pırlanta": 8708,
      "gıcır": 8709,
      "armani": 8710,
      "ekosistem": 8711,
      "türktelekom": 8712,
      "rehabilitasyon": 8713,
      "qualcomm": 8714,
      "56": 8715,
      "ceb": 8716,
      "efen": 8717,
      "jel": 8718,
      "keli": 8719,
      "may": 8720,
      "night": 8721,
      "sle": 8722,
      "silik": 8723,
      "tay": 8724,
      "tom": 8725,
      "vas": 8726,
      "wee": 8727,
      "##sim": 8728,
      "##ness": 8729,
      "##lten": 8730,
      "##cir": 8731,
      "##hn": 8732,
      "##vel": 8733,
      "##pu": 8734,
      "##areti": 8735,
      "##enek": 8736,
      "##masyon": 8737,
      "##üncü": 8738,
      "çür": 8739,
      "birinde": 8740,
      "##ultu": 8741,
      "##isa": 8742,
      "alk": 8743,
      "alman": 8744,
      "##duat": 8745,
      "öv": 8746,
      "anah": 8747,
      "##bilirsiniz": 8748,
      "i̇cra": 8749,
      "kullanarak": 8750,
      "kullanılıyor": 8751,
      "ayına": 8752,
      "aylarda": 8753,
      "arabanın": 8754,
      "vergi": 8755,
      "vermeme": 8756,
      "##duğundan": 8757,
      "artırabiliyor": 8758,
      "gelsin": 8759,
      "sorununu": 8760,
      "sorunlarına": 8761,
      "##reen": 8762,
      "uni": 8763,
      "maya": 8764,
      "##ümün": 8765,
      "##eliği": 8766,
      "denedi": 8767,
      "##salı": 8768,
      "açtır": 8769,
      "açmadı": 8770,
      "açılıp": 8771,
      "##ment": 8772,
      "hızında": 8773,
      "yazıcı": 8774,
      "karşıyaka": 8775,
      "##epy": 8776,
      "çalışanın": 8777,
      "çözmekte": 8778,
      "ulaşmıyor": 8779,
      "ulaşamıyor": 8780,
      "##abahçe": 8781,
      "fatih": 8782,
      "ödemiş": 8783,
      "ödemiyor": 8784,
      "gönderilmesini": 8785,
      "satılıyor": 8786,
      "##ki̇": 8787,
      "yüzümü": 8788,
      "şekil": 8789,
      "bülten": 8790,
      "tatilim": 8791,
      "yılının": 8792,
      "yapılmalı": 8793,
      "yapılmıştır": 8794,
      "kırılan": 8795,
      "2012": 8796,
      "adında": 8797,
      "araçta": 8798,
      "araçlarıyla": 8799,
      "nedense": 8800,
      "bulunur": 8801,
      "bıraktı": 8802,
      "getiren": 8803,
      "ortaya": 8804,
      "markasının": 8805,
      "kampanyadan": 8806,
      "kampanyalarıyla": 8807,
      "i̇şin": 8808,
      "içeriklerini": 8809,
      "oyunlarda": 8810,
      "seh": 8811,
      "bitmesine": 8812,
      "bitmeyen": 8813,
      "dikiş": 8814,
      "izah": 8815,
      "sigortalı": 8816,
      "pril": 8817,
      "firmayla": 8818,
      "##ınızda": 8819,
      "bilgisayarımı": 8820,
      "hastası": 8821,
      "merkezinden": 8822,
      "edemedim": 8823,
      "nissan": 8824,
      "##ildiği": 8825,
      "üstünden": 8826,
      "açılış": 8827,
      "rahatlık": 8828,
      "yapabiliyorum": 8829,
      "yapamayacaklarını": 8830,
      "kapatıyorlar": 8831,
      "resimde": 8832,
      "mülk": 8833,
      "ambalajlar": 8834,
      "i̇zin": 8835,
      "önemse": 8836,
      "tutarın": 8837,
      "standartlarıyla": 8838,
      "kasma": 8839,
      "hastaneye": 8840,
      "hastanede": 8841,
      "##sinler": 8842,
      "pişmanlığı": 8843,
      "##duğumda": 8844,
      "##abilirsiniz": 8845,
      "kutusunu": 8846,
      "ocakları": 8847,
      "göstermektedir": 8848,
      "mevduat": 8849,
      "düğmesi": 8850,
      "sütlü": 8851,
      "voltaj": 8852,
      "alırım": 8853,
      "kaynakları": 8854,
      "karardı": 8855,
      "redmi": 8856,
      "çalışmaları": 8857,
      "##ılmıştı": 8858,
[...]
